<unk>	0
<s>	0
</s>	0

	0
▁t	-0
▁a	-1
he	-2
in	-3
▁the	-4
on	-5
▁s	-6
er	-7
es	-8
▁,	-9
▁o	-10
at	-11
en	-12
ed	-13
▁c	-14
▁p	-15
or	-16
▁of	-17
▁w	-18
it	-19
▁<	-20
▁.	-21
an	-22
▁f	-23
is	-24
ar	-25
al	-26
▁b	-27
▁in	-28
ic	-29
▁an	-30
ent	-31
re	-32
▁m	-33
ion	-34
un	-35
as	-36
▁d	-37
▁and	-38
▁h	-39
▁pr	-40
id	-41
ing	-42
▁n	-43
▁st	-44
le	-45
▁to	-46
om	-47
▁un	-48
▁g	-49
▁stat	-50
▁pres	-51
▁l	-52
▁e	-53
il	-54
▁r	-55
▁presid	-56
ct	-57
ol	-58
us	-59
▁was	-60
am	-61
▁president	-62
▁re	-63
ur	-64
▁for	-65
ation	-66
▁states	-67
ited	-68
▁j	-69
▁united	-70
▁th	-71
▁he	-72
▁as	-73
ir	-74
iv	-75
el	-76
ut	-77
▁)	-78
▁(	-79
▁is	-80
▁on	-81
st	-82
em	-83
ad	-84
ig	-85
ot	-86
▁v	-87
ec	-88
ter	-89
ce	-90
▁con	-91
ly	-92
ist	-93
im	-94
▁wh	-95
ver	-96
ch	-97
▁by	-98
▁fr	-99
and	-100
ow	-101
et	-102
ial	-103
ers	-104
▁co	-105
ul	-106
ess	-107
oc	-108
ice	-109
mer	-110
▁his	-111
▁al	-112
ay	-113
os	-114
ate	-115
lect	-116
art	-117
ican	-118
▁ch	-119
ary	-120
▁com	-121
▁|	-122
▁||	-123
▁|||	-124
ith	-125
ge	-126
est	-127
▁at	-128
ac	-129
ub	-130
▁be	-131
▁with	-132
um	-133
▁from	-134
▁it	-135
▁k	-136
ber	-137
▁de	-138
▁elect	-139
ill	-140
ro	-141
ard	-142
ug	-143
▁ne	-144
ity	-145
her	-146
▁ser	-147
pp	-148
ort	-149
ain	-150
ous	-151
▁rep	-152
if	-153
ia	-154
▁se	-155
▁u	-156
ment	-157
av	-158
ive	-159
ational	-160
▁y	-161
▁amer	-162
▁ad	-163
▁or	-164
ated	-165
op	-166
ies	-167
ich	-168
▁le	-169
▁part	-170
▁serv	-171
ubl	-172
▁tr	-173
▁that	-174
▁off	-175
ign	-176
ton	-177
▁ar	-178
over	-179
▁pol	-180
ian	-181
all	-182
▁jo	-183
unt	-184
od	-185
▁american	-186
end	-187
ip	-188
▁comm	-189
▁national	-190
▁ex	-191
ud	-192
eral	-193
▁fir	-194
▁af	-195
ant	-196
ab	-197
▁state	-198
ov	-199
▁new	-200
gr	-201
orn	-202
ie	-203
▁sec	-204
▁presidential	-205
▁su	-206
▁first	-207
overn	-208
▁govern	-209
▁sp	-210
▁act	-211
▁ro	-212
▁election	-213
qu	-214
ag	-215
ine	-216
hn	-217
ore	-218
▁fo	-219
son	-220
▁pl	-221
th	-222
▁sen	-223
aw	-224
igh	-225
iz	-226
ical	-227
so	-228
ap	-229
▁mar	-230
ame	-231
▁who	-232
ear	-233
ember	-234
der	-235
▁hous	-236
ak	-237
▁count	-238
ork	-239
ugh	-240
ack	-241
▁br	-242
▁cl	-243
▁which	-244
ust	-245
ass	-246
▁inc	-247
▁res	-248
▁are	-249
ell	-250
▁john	-251
▁col	-252
ost	-253
cc	-254
▁party	-255
▁vice	-256
▁also	-257
ose	-258
und	-259
amp	-260
▁polit	-261
▁house	-262
▁after	-263
ld	-264
ict	-265
▁gr	-266
▁war	-267
ib	-268
out	-269
▁app	-270
▁car	-271
ire	-272
enc	-273
▁republ	-274
▁us	-275
ition	-276
ry	-277
rat	-278
▁not	-279
ey	-280
hing	-281
ff	-282
▁sh	-283
ite	-284
▁whe	-285
ure	-286
▁dem	-287
▁republican	-288
uring	-289
man	-290
▁has	-291
ong	-292
ence	-293
▁ge	-294
uc	-295
▁office	-296
ere	-297
▁ass	-298
▁nom	-299
▁ter	-300
▁en	-301
▁pro	-302
ied	-303
▁ag	-304
▁county	-305
▁year	-306
▁:	-307
ond	-308
▁gen	-309
▁bec	-310
vel	-311
ations	-312
▁governor	-313
gress	-314
▁were	-315
ts	-316
▁democ	-317
▁air	-318
▁cont	-319
▁bo	-320
▁man	-321
▁during	-322
▁geor	-323
▁served	-324
▁sch	-325
▁ind	-326
▁one	-327
hington	-328
ast	-329
▁tw	-330
▁democrat	-331
▁washington	-332
se	-333
▁;	-334
▁te	-335
vent	-336
own	-337
istr	-338
ome	-339
ator	-340
▁its	-341
pt	-342
enn	-343
ave	-344
ace	-345
▁born	-346
▁bus	-347
▁cand	-348
ok	-349
▁candid	-350
▁congress	-351
▁comp	-352
ect	-353
itt	-354
▁general	-355
ish	-356
res	-357
▁ab	-358
iss	-359
lud	-360
▁had	-361
▁publ	-362
▁tim	-363
▁vot	-364
▁law	-365
hed	-366
int	-367
ach	-368
ater	-369
▁camp	-370
▁am	-371
ther	-372
ret	-373
▁inter	-374
▁offic	-375
▁her	-376
▁george	-377
▁int	-378
▁this	-379
▁will	-380
act	-381
inc	-382
ee	-383
ions	-384
▁includ	-385
ans	-386
for	-387
▁dec	-388
▁rec	-389
▁she	-390
ency	-391
▁att	-392
ick	-393
▁may	-394
▁sc	-395
uary	-396
▁cr	-397
▁all	-398
ory	-399
air	-400
▁under	-401
ool	-402
resent	-403
ank	-404
gan	-405
▁represent	-406
▁cons	-407
▁term	-408
▁ob	-409
▁been	-410
per	-411
▁have	-412
▁york	-413
▁fed	-414
ide	-415
▁democratic	-416
▁other	-417
▁former	-418
▁senate	-419
erson	-420
▁hist	-421
▁secret	-422
ative	-423
ree	-424
min	-425
fer	-426
▁school	-427
▁mil	-428
ama	-429
ement	-430
sh	-431
▁two	-432
▁but	-433
▁political	-434
▁im	-435
ally	-436
ward	-437
▁ma	-438
aign	-439
iam	-440
ump	-441
▁campaign	-442
▁over	-443
ning	-444
land	-445
ue	-446
▁gu	-447
ivers	-448
▁federal	-449
▁des	-450
▁per	-451
oll	-452
▁dep	-453
ames	-454
ile	-455
▁when	-456
ates	-457
io	-458
ra	-459
▁nomin	-460
wn	-461
▁prim	-462
ade	-463
▁i	-464
▁ed	-465
▁dis	-466
▁wo	-467
ution	-468
ath	-469
▁mon	-470
gin	-471
▁wor	-472
▁public	-473
ance	-474
ors	-475
▁fe	-476
irect	-477
▁pe	-478
▁par	-479
ix	-480
▁min	-481
▁secretary	-482
my	-483
ight	-484
▁loc	-485
▁white	-486
▁direct	-487
▁har	-488
ult	-489
▁bar	-490
age	-491
anc	-492
stit	-493
▁cent	-494
▁univers	-495
▁william	-496
▁government	-497
▁def	-498
urn	-499
▁candidate	-500
▁char	-501
▁sout	-502
amed	-503
oint	-504
ens	-505
old	-506
▁bu	-507
▁bush	-508
ished	-509
▁elected	-510
▁time	-511
ief	-512
ily	-513
▁ac	-514
uld	-515
▁leg	-516
▁kn	-517
▁most	-518
▁admin	-519
▁their	-520
ison	-521
▁second	-522
▁pop	-523
ecut	-524
▁mem	-525
pr	-526
ely	-527
ord	-528
▁maj	-529
▁gre	-530
lo	-531
▁university	-532
▁run	-533
▁distr	-534
▁senator	-535
unc	-536
▁trump	-537
▁milit	-538
ild	-539
urr	-540
▁obama	-541
▁major	-542
uct	-543
ough	-544
▁became	-545
▁politic	-546
▁james	-547
▁world	-548
lin	-549
bert	-550
▁do	-551
▁cour	-552
ons	-553
▁nov	-554
▁nort	-555
br	-556
▁day	-557
▁ph	-558
▁lead	-559
ional	-560
▁district	-561
▁work	-562
▁cal	-563
▁est	-564
▁popul	-565
▁years	-566
▁jan	-567
ince	-568
▁later	-569
ives	-570
uth	-571
▁reg	-572
▁four	-573
ica	-574
▁qu	-575
ecutive	-576
▁city	-577
rough	-578
▁presidency	-579
ley	-580
og	-581
▁bas	-582
ife	-583
▁named	-584
ower	-585
ft	-586
ald	-587
les	-588
▁pre	-589
osevel	-590
▁roosevel	-591
▁they	-592
ious	-593
▁roosevelt	-594
iel	-595
▁only	-596
ert	-597
▁list	-598
▁str	-599
▁appoint	-600
▁executive	-601
▁me	-602
▁ann	-603
▁vir	-604
▁january	-605
▁known	-606
ating	-607
▁supp	-608
▁found	-609
ents	-610
▁fam	-611
ccess	-612
▁again	-613
vis	-614
▁histor	-615
▁med	-616
▁service	-617
▁pos	-618
ission	-619
▁guard	-620
ized	-621
een	-622
oth	-623
▁out	-624
▁command	-625
umb	-626
▁held	-627
ail	-628
▁sub	-629
▁up	-630
▁member	-631
oln	-632
▁through	-633
incoln	-634
▁won	-635
▁more	-636
▁into	-637
▁lincoln	-638
ke	-639
▁colle	-640
ier	-641
lor	-642
▁wr	-643
▁chief	-644
▁virgin	-645
aug	-646
vention	-647
▁add	-648
ior	-649
able	-650
▁foll	-651
oci	-652
form	-653
▁follow	-654
▁civ	-655
▁tex	-656
▁march	-657
▁play	-658
▁him	-659
▁win	-660
▁high	-661
▁je	-662
▁auth	-663
▁fin	-664
▁nav	-665
▁bill	-666
▁since	-667
yl	-668
ven	-669
▁mc	-670
▁south	-671
▁clin	-672
ph	-673
▁em	-674
▁army	-675
▁force	-676
▁bet	-677
▁just	-678
stitution	-679
▁clinton	-680
▁nomination	-681
▁official	-682
▁while	-683
▁author	-684
▁end	-685
▁rel	-686
▁civil	-687
ual	-688
fore	-689
ived	-690
▁award	-691
augur	-692
▁inaugur	-693
ams	-694
▁november	-695
ather	-696
▁cap	-697
▁court	-698
▁can	-699
erv	-700
onald	-701
ah	-702
▁would	-703
▁military	-704
▁politician	-705
ister	-706
▁than	-707
up	-708
ship	-709
til	-710
▁college	-711
▁ear	-712
▁imp	-713
▁how	-714
▁inv	-715
▁virginia	-716
▁sy	-717
▁until	-718
▁texas	-719
▁gro	-720
▁ret	-721
ently	-722
▁there	-723
ep	-724
▁fil	-725
▁rece	-726
▁three	-727
abl	-728
▁north	-729
▁america	-730
▁jack	-731
▁so	-732
▁lar	-733
▁nomine	-734
▁convention	-735
su	-736
▁cor	-737
ered	-738
ang	-739
▁organ	-740
▁jun	-741
▁ju	-742
▁both	-743
▁located	-744
▁including	-745
▁polic	-746
▁committ	-747
▁johnson	-748
▁mov	-749
▁before	-750
▁intern	-751
isl	-752
leg	-753
▁then	-754
▁mo	-755
▁prov	-756
edy	-757
▁cre	-758
▁dr	-759
▁acc	-760
use	-761
ities	-762
▁curr	-763
▁lo	-764
▁establ	-765
▁legisl	-766
▁aug	-767
▁ta	-768
▁family	-769
▁made	-770
▁contr	-771
ful	-772
ale	-773
▁bl	-774
▁rem	-775
▁head	-776
▁august	-777
▁no	-778
ield	-779
▁person	-780
▁li	-781
▁ent	-782
▁thir	-783
▁kenn	-784
▁depart	-785
▁vote	-786
ury	-787
▁administr	-788
atives	-789
▁conf	-790
▁many	-791
ake	-792
ock	-793
▁hon	-794
▁sign	-795
▁sever	-796
▁nominee	-797
its	-798
▁support	-799
▁exp	-800
▁july	-801
▁refer	-802
kin	-803
other	-804
▁form	-805
▁spe	-806
▁town	-807
▁constitution	-808
ings	-809
▁administration	-810
▁eng	-811
ween	-812
▁jeff	-813
▁director	-814
▁grant	-815
▁department	-816
▁home	-817
▁ran	-818
▁prom	-819
▁against	-820
▁kennedy	-821
ood	-822
bers	-823
▁oper	-824
▁following	-825
▁el	-826
▁film	-827
▁between	-828
▁series	-829
▁west	-830
agan	-831
▁june	-832
ina	-833
▁appointed	-834
▁where	-835
▁associ	-836
▁we	-837
▁call	-838
▁park	-839
▁commission	-840
▁used	-841
▁position	-842
▁rich	-843
▁calif	-844
▁frank	-845
▁reagan	-846
ner	-847
ornia	-848
▁design	-849
▁committee	-850
▁california	-851
▁commun	-852
▁well	-853
▁name	-854
▁thom	-855
let	-856
▁peop	-857
▁select	-858
▁several	-859
▁main	-860
▁jackson	-861
▁died	-862
iness	-863
▁people	-864
▁members	-865
▁barack	-866
▁international	-867
▁own	-868
▁art	-869
▁book	-870
▁port	-871
▁jefferson	-872
ress	-873
▁jud	-874
▁primary	-875
ern	-876
▁tre	-877
▁some	-878
▁indian	-879
ase	-880
hip	-881
▁ill	-882
▁representatives	-883
▁soc	-884
ota	-885
▁business	-886
ball	-887
▁thomas	-888
▁organiz	-889
oss	-890
oral	-891
▁pass	-892
▁chair	-893
▁policy	-894
▁success	-895
ism	-896
▁third	-897
rew	-898
▁progr	-899
▁sept	-900
▁secur	-901
ained	-902
aries	-903
idge	-904
▁spec	-905
▁september	-906
are	-907
▁harr	-908
▁mich	-909
▁running	-910
red	-911
▁aff	-912
▁apr	-913
▁febr	-914
▁february	-915
ett	-916
con	-917
hes	-918
▁la	-919
ixon	-920
▁such	-921
▁took	-922
▁april	-923
att	-924
eign	-925
▁brit	-926
▁order	-927
ino	-928
▁resp	-929
ute	-930
▁nixon	-931
▁union	-932
▁sl	-933
▁inauguration	-934
ham	-935
▁hen	-936
▁ho	-937
str	-938
▁assist	-939
▁richard	-940
aff	-941
als	-942
ics	-943
▁began	-944
▁land	-945
▁oct	-946
tern	-947
▁place	-948
▁representative	-949
iet	-950
ters	-951
ific	-952
▁honor	-953
▁sm	-954
ended	-955
▁long	-956
▁compan	-957
▁history	-958
▁oh	-959
ober	-960
▁navy	-961
alth	-962
ansas	-963
▁appro	-964
▁popular	-965
acy	-966
ights	-967
▁event	-968
▁october	-969
ipp	-970
uck	-971
▁bur	-972
▁being	-973
▁about	-974
one	-975
ved	-976
▁life	-977
▁prof	-978
▁december	-979
▁opp	-980
▁proc	-981
▁stud	-982
▁contin	-983
au	-984
olog	-985
▁rev	-986
▁mary	-987
▁terr	-988
▁security	-989
ott	-990
▁fre	-991
▁justice	-992
▁ir	-993
▁prod	-994
▁prop	-995
▁great	-996
ont	-997
me	-998
▁mill	-999
▁pat	-1000
▁sur	-1001
▁op	-1002
▁hel	-1003
▁mass	-1004
▁ohio	-1005
▁received	-1006
nes	-1007
▁wom	-1008
ne	-1009
▁ca	-1010
▁phil	-1011
▁death	-1012
▁six	-1013
▁carter	-1014
med	-1015
ren	-1016
▁post	-1017
▁wil	-1018
▁activ	-1019
uman	-1020
▁del	-1021
▁build	-1022
▁adams	-1023
▁robert	-1024
▁elections	-1025
inois	-1026
▁deleg	-1027
▁illinois	-1028
▁defe	-1029
▁foreign	-1030
▁sci	-1031
▁howe	-1032
▁congressional	-1033
ise	-1034
way	-1035
aking	-1036
▁electoral	-1037
iew	-1038
oun	-1039
▁eff	-1040
igin	-1041
▁son	-1042
▁franklin	-1043
▁mark	-1044
adu	-1045
▁origin	-1046
ney	-1047
▁ii	-1048
▁prot	-1049
▁historic	-1050
▁established	-1051
▁any	-1052
field	-1053
▁trans	-1054
▁serving	-1055
▁foot	-1056
▁board	-1057
▁each	-1058
ces	-1059
osed	-1060
▁var	-1061
isc	-1062
epend	-1063
port	-1064
ures	-1065
▁bel	-1066
▁independ	-1067
umber	-1068
ico	-1069
ible	-1070
▁priv	-1071
van	-1072
ject	-1073
orney	-1074
▁company	-1075
▁attorney	-1076
ral	-1077
uction	-1078
▁advis	-1079
pre	-1080
bass	-1081
▁dav	-1082
▁mad	-1083
▁ste	-1084
▁henry	-1085
ounc	-1086
▁cle	-1087
▁gar	-1088
conom	-1089
▁econom	-1090
very	-1091
▁non	-1092
velop	-1093
▁corp	-1094
▁z	-1095
▁care	-1096
ty	-1097
urch	-1098
▁father	-1099
▁officer	-1100
▁township	-1101
▁presidents	-1102
ady	-1103
eter	-1104
▁grand	-1105
▁manag	-1106
ased	-1107
ility	-1108
▁carol	-1109
▁develop	-1110
gest	-1111
ired	-1112
▁early	-1113
▁social	-1114
ask	-1115
ene	-1116
▁vis	-1117
▁penn	-1118
▁power	-1119
ense	-1120
iver	-1121
▁andrew	-1122
▁donald	-1123
▁harrison	-1124
▁votes	-1125
▁british	-1126
grap	-1127
▁lib	-1128
▁along	-1129
stem	-1130
▁inf	-1131
▁ford	-1132
▁mount	-1133
▁staff	-1134
sel	-1135
▁adv	-1136
▁conc	-1137
▁rights	-1138
ually	-1139
▁area	-1140
▁hall	-1141
▁based	-1142
▁room	-1143
lement	-1144
▁gradu	-1145
▁system	-1146
▁educ	-1147
▁near	-1148
▁group	-1149
▁island	-1150
▁fl	-1151
▁pa	-1152
▁tit	-1153
nesota	-1154
adem	-1155
▁ant	-1156
icket	-1157
▁plan	-1158
▁sa	-1159
ular	-1160
▁bre	-1161
though	-1162
▁counc	-1163
hest	-1164
ified	-1165
▁center	-1166
▁announc	-1167
▁council	-1168
▁although	-1169
hern	-1170
ines	-1171
▁news	-1172
▁seat	-1173
▁jr	-1174
ices	-1175
▁mcc	-1176
▁among	-1177
▁candidates	-1178
syl	-1179
ull	-1180
ural	-1181
▁tele	-1182
sylvan	-1183
▁minnesota	-1184
▁sim	-1185
▁ticket	-1186
sylvania	-1187
▁charles	-1188
▁mod	-1189
▁wife	-1190
▁these	-1191
▁academ	-1192
▁number	-1193
▁program	-1194
▁pennsylvania	-1195
ve	-1196
▁child	-1197
▁columb	-1198
▁jim	-1199
▁met	-1200
▁affair	-1201
▁called	-1202
▁sw	-1203
cept	-1204
etts	-1205
▁medal	-1206
ried	-1207
achus	-1208
▁consid	-1209
achusetts	-1210
▁massachusetts	-1211
ys	-1212
▁addition	-1213
▁cit	-1214
iving	-1215
▁resid	-1216
▁resign	-1217
▁within	-1218
▁created	-1219
▁present	-1220
▁da	-1221
itor	-1222
▁incumb	-1223
by	-1224
▁occ	-1225
▁rank	-1226
▁capit	-1227
pl	-1228
yn	-1229
uty	-1230
▁mid	-1231
▁mus	-1232
▁wilson	-1233
▁incumbent	-1234
ature	-1235
▁days	-1236
▁five	-1237
▁country	-1238
▁however	-1239
▁population	-1240
▁ext	-1241
▁far	-1242
▁times	-1243
▁profess	-1244
enh	-1245
ately	-1246
▁mart	-1247
▁wood	-1248
vil	-1249
▁role	-1250
▁nation	-1251
▁building	-1252
get	-1253
ided	-1254
round	-1255
▁issu	-1256
▁become	-1257
▁primaries	-1258
ark	-1259
▁madison	-1260
igan	-1261
▁supre	-1262
▁carolina	-1263
▁association	-1264
ists	-1265
▁lie	-1266
▁king	-1267
▁flor	-1268
▁libr	-1269
▁amend	-1270
day	-1271
▁bro	-1272
▁did	-1273
ument	-1274
▁cens	-1275
▁them	-1276
▁include	-1277
ech	-1278
▁mis	-1279
▁show	-1280
▁indiana	-1281
▁mckin	-1282
▁assistant	-1283
led	-1284
loy	-1285
▁arch	-1286
▁ball	-1287
ically	-1288
▁class	-1289
▁columbia	-1290
▁football	-1291
▁record	-1292
ai	-1293
ause	-1294
inet	-1295
▁chr	-1296
▁ins	-1297
raham	-1298
▁abraham	-1299
▁special	-1300
our	-1301
ford	-1302
orts	-1303
▁gold	-1304
▁supreme	-1305
▁chairman	-1306
ida	-1307
▁disc	-1308
ope	-1309
▁now	-1310
▁best	-1311
▁east	-1312
bassad	-1313
vision	-1314
▁ronald	-1315
az	-1316
ason	-1317
▁cab	-1318
▁ambassad	-1319
ten	-1320
▁div	-1321
▁eis	-1322
▁led	-1323
▁lady	-1324
ession	-1325
▁announced	-1326
ger	-1327
▁current	-1328
ville	-1329
▁short	-1330
▁eisenh	-1331
emp	-1332
▁old	-1333
▁hill	-1334
▁open	-1335
▁prev	-1336
▁requ	-1337
▁organization	-1338
hen	-1339
row	-1340
▁partic	-1341
▁commander	-1342
▁eisenhower	-1343
uri	-1344
ments	-1345
▁memor	-1346
▁misso	-1347
▁census	-1348
▁defense	-1349
ined	-1350
erald	-1351
▁star	-1352
ination	-1353
▁player	-1354
▁reform	-1355
▁century	-1356
ilt	-1357
▁lou	-1358
▁mckinley	-1359
▁dom	-1360
▁private	-1361
▁vict	-1362
▁career	-1363
▁leader	-1364
▁affairs	-1365
▁sing	-1366
▁common	-1367
▁invest	-1368
▁founded	-1369
ago	-1370
yer	-1371
▁deb	-1372
ction	-1373
▁tenn	-1374
▁michigan	-1375
▁base	-1376
▁health	-1377
▁leaders	-1378
▁tay	-1379
▁wal	-1380
graph	-1381
▁crit	-1382
▁last	-1383
▁florida	-1384
▁published	-1385
ential	-1386
▁address	-1387
▁missouri	-1388
ains	-1389
aker	-1390
▁ark	-1391
▁ref	-1392
▁though	-1393
▁arkansas	-1394
▁miss	-1395
▁women	-1396
olution	-1397
▁nominated	-1398
iven	-1399
▁dif	-1400
▁fac	-1401
▁fif	-1402
▁red	-1403
enant	-1404
▁init	-1405
▁continu	-1406
▁television	-1407
uss	-1408
▁afr	-1409
▁david	-1410
▁often	-1411
▁stand	-1412
▁those	-1413
▁currently	-1414
▁majority	-1415
▁ambassador	-1416
ony	-1417
rop	-1418
▁ang	-1419
▁desc	-1420
▁dist	-1421
▁fund	-1422
reg	-1423
▁ra	-1424
▁due	-1425
▁rest	-1426
▁canad	-1427
ged	-1428
uced	-1429
▁hig	-1430
▁tec	-1431
arian	-1432
aving	-1433
▁rele	-1434
▁chose	-1435
▁lieut	-1436
▁prior	-1437
▁lieutenant	-1438
ety	-1439
ceed	-1440
iter	-1441
▁use	-1442
▁ver	-1443
ision	-1444
▁gerald	-1445
▁conserv	-1446
eder	-1447
▁help	-1448
▁defeated	-1449
▁previous	-1450
▁go	-1451
▁nor	-1452
▁see	-1453
▁ten	-1454
▁paul	-1455
▁song	-1456
iction	-1457
gy	-1458
▁appear	-1459
▁selected	-1460
vers	-1461
▁hold	-1462
▁passed	-1463
lex	-1464
oming	-1465
▁built	-1466
▁citiz	-1467
▁invol	-1468
▁title	-1469
▁control	-1470
ling	-1471
▁emp	-1472
itten	-1473
▁month	-1474
▁terms	-1475
▁church	-1476
▁edward	-1477
▁taylor	-1478
▁voters	-1479
▁library	-1480
▁if	-1481
▁sum	-1482
▁kent	-1483
▁jimmy	-1484
▁techn	-1485
▁forces	-1486
▁million	-1487
ike	-1488
ind	-1489
aining	-1490
ips	-1491
▁er	-1492
▁ger	-1493
▁upon	-1494
▁artic	-1495
▁attack	-1496
▁process	-1497
yler	-1498
▁haw	-1499
ology	-1500
▁chic	-1501
▁louis	-1502
▁protect	-1503
▁rom	-1504
aster	-1505
▁hard	-1506
▁same	-1507
▁taft	-1508
▁indiv	-1509
▁senior	-1510
▁written	-1511
ik	-1512
ges	-1513
ize	-1514
▁equ	-1515
▁instit	-1516
▁charact	-1517
▁chicago	-1518
raft	-1519
▁mex	-1520
ised	-1521
▁back	-1522
▁plac	-1523
▁youn	-1524
▁river	-1525
▁individ	-1526
par	-1527
ount	-1528
▁ben	-1529
▁champ	-1530
▁various	-1531
don	-1532
▁bid	-1533
odore	-1534
▁princ	-1535
▁cabinet	-1536
▁movement	-1537
▁cond	-1538
▁pract	-1539
▁super	-1540
ference	-1541
▁report	-1542
▁amendment	-1543
▁relations	-1544
aim	-1545
▁mate	-1546
▁wing	-1547
▁assass	-1548
▁age	-1549
▁down	-1550
▁moved	-1551
▁considered	-1552
▁ep	-1553
▁ha	-1554
uses	-1555
▁set	-1556
▁top	-1557
▁mond	-1558
▁naval	-1559
▁married	-1560
▁included	-1561
▁maryland	-1562
▁community	-1563
▁individual	-1564
▁successful	-1565
▁independent	-1566
▁nd	-1567
▁conn	-1568
▁mayor	-1569
▁christ	-1570
▁promin	-1571
▁speech	-1572
▁memorial	-1573
gia	-1574
aska	-1575
chan	-1576
▁black	-1577
▁freed	-1578
▁confir	-1579
▁academy	-1580
▁minister	-1581
ucky	-1582
▁lab	-1583
▁local	-1584
▁rad	-1585
▁return	-1586
▁because	-1587
▁science	-1588
sequ	-1589
ured	-1590
▁che	-1591
▁eur	-1592
▁pur	-1593
▁decl	-1594
▁daugh	-1595
▁serve	-1596
▁theodore	-1597
amb	-1598
ona	-1599
ague	-1600
ests	-1601
▁colon	-1602
▁given	-1603
ering	-1604
▁infl	-1605
▁resear	-1606
▁economic	-1607
aper	-1608
less	-1609
used	-1610
▁val	-1611
▁lost	-1612
▁units	-1613
▁libert	-1614
▁largest	-1615
▁children	-1616
▁foundation	-1617
mp	-1618
ael	-1619
lear	-1620
▁comb	-1621
veland	-1622
▁treat	-1623
▁accord	-1624
▁truman	-1625
▁cleveland	-1626
igr	-1627
▁stre	-1628
▁kentucky	-1629
ime	-1630
▁cem	-1631
▁anti	-1632
▁left	-1633
▁wall	-1634
▁trade	-1635
eration	-1636
▁agency	-1637
▁princip	-1638
▁polk	-1639
▁went	-1640
▁peace	-1641
▁cemeter	-1642
▁respons	-1643
▁delegates	-1644
ker	-1645
▁cir	-1646
▁commer	-1647
▁politics	-1648
▁legislation	-1649
rib	-1650
▁av	-1651
▁ce	-1652
▁po	-1653
▁suc	-1654
▁feat	-1655
▁host	-1656
▁sold	-1657
▁europe	-1658
▁fourth	-1659
▁promot	-1660
▁signed	-1661
▁succeed	-1662
▁personal	-1663
lom	-1664
thur	-1665
▁lim	-1666
▁coun	-1667
▁gore	-1668
▁awarded	-1669
▁tenness	-1670
▁cemetery	-1671
▁rd	-1672
▁bir	-1673
▁mat	-1674
▁men	-1675
▁jose	-1676
uation	-1677
▁large	-1678
▁arthur	-1679
▁african	-1680
▁central	-1681
▁georgia	-1682
struction	-1683
▁research	-1684
▁tennessee	-1685
▁dan	-1686
▁legal	-1687
▁differ	-1688
▁played	-1689
▁complet	-1690
▁electors	-1691
▁fut	-1692
ident	-1693
▁circ	-1694
imately	-1695
▁marine	-1696
▁connect	-1697
ms	-1698
iod	-1699
val	-1700
vin	-1701
anch	-1702
ither	-1703
▁inst	-1704
uclear	-1705
▁every	-1706
▁serves	-1707
▁brother	-1708
rey	-1709
urg	-1710
▁hom	-1711
▁imm	-1712
▁mer	-1713
▁van	-1714
▁club	-1715
▁team	-1716
▁ballot	-1717
olf	-1718
▁es	-1719
hood	-1720
▁dip	-1721
▁joe	-1722
▁diplom	-1723
▁issues	-1724
▁southern	-1725
ash	-1726
ode	-1727
ogn	-1728
owa	-1729
▁free	-1730
▁active	-1731
▁league	-1732
▁element	-1733
▁freedom	-1734
▁highest	-1735
ians	-1736
▁sam	-1737
useum	-1738
▁oath	-1739
▁green	-1740
▁joint	-1741
▁start	-1742
▁treas	-1743
▁militia	-1744
▁winning	-1745
ees	-1746
▁iowa	-1747
▁museum	-1748
▁recogn	-1749
▁development	-1750
dr	-1751
ler	-1752
ival	-1753
▁squ	-1754
▁repl	-1755
▁import	-1756
▁making	-1757
▁period	-1758
▁michael	-1759
▁subsequ	-1760
▁education	-1761
ned	-1762
▁mu	-1763
lish	-1764
▁adm	-1765
▁los	-1766
▁way	-1767
ially	-1768
shire	-1769
▁ended	-1770
▁journ	-1771
▁smith	-1772
▁effect	-1773
▁joseph	-1774
▁english	-1775
▁notable	-1776
eth	-1777
hib	-1778
▁pu	-1779
ides	-1780
▁cauc	-1781
▁hawai	-1782
▁music	-1783
▁deputy	-1784
bor	-1785
elf	-1786
ries	-1787
▁lyn	-1788
▁press	-1789
▁small	-1790
▁financ	-1791
▁hoover	-1792
▁lawyer	-1793
▁nuclear	-1794
xt	-1795
▁pac	-1796
ellig	-1797
▁patr	-1798
▁judge	-1799
▁tyler	-1800
▁future	-1801
▁street	-1802
▁character	-1803
▁don	-1804
▁corps	-1805
▁level	-1806
▁worked	-1807
▁prominent	-1808
yp	-1809
aint	-1810
▁sho	-1811
▁uss	-1812
onsin	-1813
ending	-1814
▁diplomat	-1815
ks	-1816
akes	-1817
olic	-1818
ored	-1819
▁fig	-1820
acted	-1821
▁line	-1822
▁wisc	-1823
▁eight	-1824
▁martin	-1825
▁result	-1826
▁mondale	-1827
▁americans	-1828
▁authority	-1829
▁wisconsin	-1830
▁conference	-1831
bs	-1832
roe	-1833
▁bank	-1834
▁hand	-1835
▁harry	-1836
▁intellig	-1837
han	-1838
reat	-1839
iting	-1840
▁band	-1841
chanan	-1842
▁influ	-1843
▁buchanan	-1844
▁sk	-1845
▁san	-1846
ellow	-1847
▁aust	-1848
▁site	-1849
▁garfield	-1850
▁throughout	-1851
af	-1852
olar	-1853
▁cas	-1854
▁den	-1855
▁tax	-1856
▁batt	-1857
▁capt	-1858
▁brown	-1859
▁maine	-1860
istered	-1861
▁branch	-1862
▁article	-1863
▁services	-1864
erto	-1865
▁pal	-1866
▁sal	-1867
ively	-1868
▁race	-1869
▁exper	-1870
oration	-1871
▁monroe	-1872
itz	-1873
empt	-1874
iest	-1875
▁mag	-1876
▁what	-1877
estern	-1878
▁action	-1879
▁signif	-1880
▁another	-1881
▁according	-1882
▁continued	-1883
▁revolution	-1884
alf	-1885
iff	-1886
▁km	-1887
▁ut	-1888
▁hol	-1889
under	-1890
▁full	-1891
▁game	-1892
▁hamp	-1893
▁real	-1894
▁media	-1895
▁newsp	-1896
▁puerto	-1897
▁schools	-1898
▁speaker	-1899
▁daughter	-1900
▁adj	-1901
▁hus	-1902
▁jon	-1903
▁pow	-1904
▁mont	-1905
▁declar	-1906
▁german	-1907
▁previously	-1908
▁businessman	-1909
▁legislature	-1910
▁intelligence	-1911
ient	-1912
umph	-1913
▁arr	-1914
▁hot	-1915
ances	-1916
▁rock	-1917
▁soci	-1918
▁viet	-1919
▁begin	-1920
▁significan	-1921
ody	-1922
▁doc	-1923
▁flo	-1924
▁ham	-1925
▁came	-1926
▁cast	-1927
▁allow	-1928
▁employ	-1929
▁conservative	-1930
avel	-1931
ught	-1932
▁ber	-1933
▁fun	-1934
▁sil	-1935
▁even	-1936
▁meet	-1937
▁sett	-1938
istrat	-1939
▁cover	-1940
▁incre	-1941
▁around	-1942
▁compet	-1943
▁immigr	-1944
▁regard	-1945
▁confeder	-1946
ru	-1947
ues	-1948
▁bal	-1949
▁fill	-1950
ements	-1951
▁scott	-1952
▁journal	-1953
▁scholar	-1954
▁different	-1955
▁institute	-1956
▁residence	-1957
▁administrat	-1958
de	-1959
▁fem	-1960
▁emer	-1961
▁trad	-1962
▁activist	-1963
yan	-1964
▁ren	-1965
▁wee	-1966
ailed	-1967
ental	-1968
ersey	-1969
▁alex	-1970
▁cult	-1971
▁fact	-1972
▁ship	-1973
▁chang	-1974
▁field	-1975
▁jersey	-1976
▁positions	-1977
co	-1978
ove	-1979
ergy	-1980
side	-1981
arter	-1982
▁cath	-1983
▁pier	-1984
▁poss	-1985
▁step	-1986
▁strate	-1987
▁collect	-1988
▁woodrow	-1989
▁investig	-1990
uel	-1991
band	-1992
▁lat	-1993
▁earl	-1994
▁unsu	-1995
▁view	-1996
▁fifth	-1997
▁human	-1998
▁labor	-1999
amin	-2000
▁det	-2001
▁nat	-2002
▁tot	-2003
ordin	-2004
ucted	-2005
ention	-2006
▁final	-2007
▁novel	-2008
ccessful	-2009
▁harding	-2010
▁unsuccessful	-2011
erem	-2012
▁bud	-2013
▁foc	-2014
▁hay	-2015
▁initi	-2016
▁vietn	-2017
▁kansas	-2018
▁founder	-2019
ibut	-2020
ster	-2021
▁bay	-2022
▁mor	-2023
▁read	-2024
▁hawaii	-2025
▁inform	-2026
▁months	-2027
▁season	-2028
▁strong	-2029
▁includes	-2030
▁referred	-2031
yr	-2032
▁[	-2033
▁]	-2034
ced	-2035
burg	-2036
ingu	-2037
orth	-2038
itory	-2039
▁farm	-2040
ishing	-2041
▁cross	-2042
▁humph	-2043
▁seven	-2044
▁leading	-2045
▁released	-2046
ss	-2047
emb	-2048
ring	-2049
▁tro	-2050
▁less	-2051
▁much	-2052
▁sent	-2053
▁broad	-2054
ization	-2055
▁energy	-2056
▁headqu	-2057
▁prohib	-2058
▁capital	-2059
▁describ	-2060
▁session	-2061
wide	-2062
work	-2063
▁dut	-2064
▁temp	-2065
▁claim	-2066
osition	-2067
▁mexico	-2068
▁husband	-2069
▁society	-2070
▁attended	-2071
▁original	-2072
▁returned	-2073
▁financial	-2074
▁significant	-2075
te	-2076
mont	-2077
omet	-2078
self	-2079
▁beh	-2080
craft	-2081
jamin	-2082
▁epis	-2083
▁next	-2084
▁color	-2085
▁miles	-2086
▁point	-2087
▁having	-2088
▁capitol	-2089
▁benjamin	-2090
▁treasury	-2091
▁selection	-2092
▁assassination	-2093
lob	-2094
▁ke	-2095
imes	-2096
▁cho	-2097
▁let	-2098
▁pot	-2099
▁said	-2100
▁could	-2101
▁total	-2102
▁warren	-2103
▁perform	-2104
▁project	-2105
▁propert	-2106
▁management	-2107
▁constitutional	-2108
▁ap	-2109
iate	-2110
▁glob	-2111
▁side	-2112
▁liber	-2113
▁lyndon	-2114
▁marked	-2115
ications	-2116
▁airport	-2117
▁champions	-2118
▁hampshire	-2119
ado	-2120
new	-2121
omb	-2122
▁sr	-2123
umer	-2124
▁eas	-2125
▁vac	-2126
allas	-2127
▁ever	-2128
▁lake	-2129
▁surv	-2130
▁advoc	-2131
▁biden	-2132
iograph	-2133
ann	-2134
uris	-2135
▁cur	-2136
▁rul	-2137
▁case	-2138
▁late	-2139
▁hotel	-2140
▁dallas	-2141
▁threat	-2142
▁vietnam	-2143
▁western	-2144
▁operations	-2145
▁originally	-2146
sc	-2147
we	-2148
ane	-2149
omm	-2150
ote	-2151
ron	-2152
ange	-2153
iend	-2154
▁key	-2155
▁net	-2156
ridge	-2157
▁cerem	-2158
▁story	-2159
▁mission	-2160
▁candidacy	-2161
▁professional	-2162
oma	-2163
erve	-2164
▁acr	-2165
▁alb	-2166
▁exc	-2167
ambig	-2168
avery	-2169
▁agre	-2170
▁deter	-2171
▁franc	-2172
▁judic	-2173
▁either	-2174
▁pierce	-2175
▁romney	-2176
▁philipp	-2177
▁disambig	-2178
▁students	-2179
▁republicans	-2180
▁disambiguation	-2181
uf	-2182
eng	-2183
ink	-2184
▁neg	-2185
regon	-2186
▁doug	-2187
▁buren	-2188
▁recip	-2189
▁engine	-2190
▁france	-2191
▁oregon	-2192
▁pacific	-2193
▁particip	-2194
▁resigned	-2195
inn	-2196
ades	-2197
olit	-2198
▁fer	-2199
ences	-2200
izona	-2201
▁irish	-2202
▁never	-2203
▁radio	-2204
▁somet	-2205
▁critic	-2206
▁except	-2207
▁arizona	-2208
▁professor	-2209
▁territory	-2210
ob	-2211
yle	-2212
arth	-2213
more	-2214
wood	-2215
▁appe	-2216
▁cert	-2217
▁drug	-2218
▁howard	-2219
▁offices	-2220
▁aircraft	-2221
▁distingu	-2222
▁remained	-2223
ead	-2224
que	-2225
▁dw	-2226
▁ev	-2227
▁vi	-2228
▁fav	-2229
▁mot	-2230
▁tar	-2231
eller	-2232
▁firm	-2233
▁turn	-2234
▁budget	-2235
▁advisor	-2236
▁wallace	-2237
▁caucuses	-2238
▁graduated	-2239
bo	-2240
▁ok	-2241
lyss	-2242
▁deg	-2243
▁env	-2244
▁tom	-2245
ander	-2246
▁golf	-2247
▁span	-2248
▁agnew	-2249
▁front	-2250
▁across	-2251
▁friend	-2252
▁helped	-2253
▁attempt	-2254
▁humphrey	-2255
▁programs	-2256
tis	-2257
iana	-2258
▁fol	-2259
▁make	-2260
▁poll	-2261
▁subm	-2262
lysses	-2263
▁birth	-2264
▁juris	-2265
▁twent	-2266
▁water	-2267
▁woman	-2268
▁domest	-2269
▁mccain	-2270
▁mother	-2271
▁others	-2272
▁scient	-2273
▁ulysses	-2274
▁transport	-2275
▁historical	-2276
▁championship	-2277
osp	-2278
▁desp	-2279
▁harv	-2280
▁take	-2281
rovers	-2282
▁owned	-2283
▁young	-2284
▁practice	-2285
▁republic	-2286
▁controvers	-2287
▁designated	-2288
▁technology	-2289
▁libertarian	-2290
chie	-2291
ness	-2292
▁typ	-2293
arily	-2294
ought	-2295
▁acqu	-2296
▁vill	-2297
▁indust	-2298
▁single	-2299
▁section	-2300
▁baseball	-2301
▁produced	-2302
▁establish	-2303
▁generally	-2304
▁administered	-2305
cer	-2306
▁my	-2307
well	-2308
▁arg	-2309
▁rat	-2310
▁vol	-2311
venue	-2312
▁bure	-2313
▁fict	-2314
▁achie	-2315
▁jurisd	-2316
▁living	-2317
▁despite	-2318
▁slavery	-2319
▁citizens	-2320
▁standard	-2321
▁countries	-2322
▁important	-2323
▁particular	-2324
▁independence	-2325
ble	-2326
orp	-2327
rod	-2328
urs	-2329
lymp	-2330
▁conv	-2331
▁kill	-2332
icated	-2333
▁enfor	-2334
▁olymp	-2335
▁female	-2336
▁treaty	-2337
▁victory	-2338
▁colorado	-2339
▁involved	-2340
▁northern	-2341
▁property	-2342
▁beginning	-2343
▁governors	-2344
▁socialist	-2345
▁tradition	-2346
▁legislative	-2347
aly	-2348
ria	-2349
ted	-2350
cent	-2351
▁dak	-2352
▁mac	-2353
▁saf	-2354
▁wat	-2355
icult	-2356
itted	-2357
ption	-2358
▁fort	-2359
▁norm	-2360
▁once	-2361
▁maint	-2362
▁remov	-2363
▁separ	-2364
▁spent	-2365
▁listed	-2366
▁sought	-2367
▁enacted	-2368
▁without	-2369
▁division	-2370
▁officers	-2371
▁democrats	-2372
▁succeeded	-2373
▁supported	-2374
▁eventually	-2375
ou	-2376
▁gl	-2377
▁bor	-2378
▁few	-2379
ittle	-2380
▁rico	-2381
▁acting	-2382
▁estate	-2383
▁ground	-2384
▁replac	-2385
▁himself	-2386
▁nations	-2387
▁contribut	-2388
▁principal	-2389
▁activities	-2390
sue	-2391
ston	-2392
▁sit	-2393
ously	-2394
▁dest	-2395
▁nine	-2396
▁russ	-2397
encies	-2398
▁whose	-2399
▁canada	-2400
▁events	-2401
▁fellow	-2402
▁little	-2403
▁travel	-2404
▁delegate	-2405
▁designed	-2406
▁fictional	-2407
dle	-2408
▁ol	-2409
apers	-2410
▁good	-2411
▁mult	-2412
▁emerg	-2413
▁lived	-2414
▁numer	-2415
▁still	-2416
▁dakota	-2417
▁dwight	-2418
▁modern	-2419
▁native	-2420
▁twenty	-2421
▁progress	-2422
dom	-2423
apan	-2424
enth	-2425
imin	-2426
▁like	-2427
▁japan	-2428
▁quest	-2429
▁trust	-2430
▁assemb	-2431
▁awards	-2432
▁bureau	-2433
▁joined	-2434
▁becoming	-2435
▁catholic	-2436
▁directed	-2437
▁leadership	-2438
▁subsequently	-2439
hel	-2440
ages	-2441
outh	-2442
▁ele	-2443
▁roc	-2444
▁sat	-2445
atory	-2446
elson	-2447
▁doct	-2448
▁phys	-2449
olitan	-2450
▁plant	-2451
▁recon	-2452
▁space	-2453
▁canadian	-2454
▁newspaper	-2455
▁jurisdiction	-2456
ex	-2457
ha	-2458
lah	-2459
ancy	-2460
ayed	-2461
ippi	-2462
roll	-2463
▁nar	-2464
itect	-2465
▁cool	-2466
▁week	-2467
issippi	-2468
▁forest	-2469
▁formed	-2470
▁review	-2471
▁writer	-2472
▁retired	-2473
▁commerce	-2474
▁policies	-2475
▁architect	-2476
▁mississippi	-2477
▁distinguished	-2478
go	-2479
ify	-2480
umn	-2481
ves	-2482
press	-2483
▁eliz	-2484
lahoma	-2485
▁dougl	-2486
▁prime	-2487
▁places	-2488
▁terror	-2489
▁counsel	-2490
▁working	-2491
▁oklahoma	-2492
men	-2493
▁low	-2494
▁sus	-2495
abeth	-2496
onent	-2497
▁alab	-2498
▁pers	-2499
▁trib	-2500
▁very	-2501
braska	-2502
▁belie	-2503
▁floor	-2504
▁domestic	-2505
▁territor	-2506
▁inaugural	-2507
▁appointment	-2508
▁confederate	-2509
eep	-2510
iron	-2511
▁era	-2512
▁ple	-2513
▁rac	-2514
▁tal	-2515
▁arts	-2516
▁brec	-2517
▁deal	-2518
▁must	-2519
▁road	-2520
▁surn	-2521
▁vers	-2522
orated	-2523
▁angel	-2524
ibility	-2525
▁middle	-2526
▁alabama	-2527
▁episode	-2528
▁monument	-2529
▁provided	-2530
▁individuals	-2531
ule	-2532
ilar	-2533
ital	-2534
▁lee	-2535
▁body	-2536
▁disp	-2537
isions	-2538
▁actor	-2539
▁battle	-2540
▁priest	-2541
▁coolidge	-2542
▁document	-2543
▁alexander	-2544
▁communications	-2545
sk	-2546
app	-2547
aken	-2548
▁rail	-2549
▁summ	-2550
iation	-2551
▁brief	-2552
▁close	-2553
▁issue	-2554
▁marsh	-2555
▁purch	-2556
▁trips	-2557
▁figure	-2558
▁soccer	-2559
▁commenc	-2560
▁respect	-2561
ropolitan	-2562
▁numerous	-2563
▁senators	-2564
▁completed	-2565
▁confirmed	-2566
▁officially	-2567
▁represented	-2568
ds	-2569
ench	-2570
houn	-2571
orter	-2572
▁half	-2573
▁whig	-2574
hester	-2575
▁books	-2576
▁exist	-2577
▁least	-2578
▁degree	-2579
▁powers	-2580
▁walter	-2581
▁actress	-2582
▁environ	-2583
▁similar	-2584
▁strateg	-2585
▁surname	-2586
▁presented	-2587
▁resignation	-2588
ana	-2589
pect	-2590
▁ded	-2591
▁lew	-2592
▁sov	-2593
eland	-2594
ishop	-2595
▁does	-2596
▁lang	-2597
▁hayes	-2598
▁islands	-2599
▁elizabeth	-2600
ano	-2601
urb	-2602
kins	-2603
▁pay	-2604
▁utah	-2605
ilities	-2606
▁approx	-2607
▁introd	-2608
▁sevent	-2609
▁soviet	-2610
▁unless	-2611
▁calhoun	-2612
▁citizen	-2613
▁consist	-2614
▁nebraska	-2615
▁historians	-2616
▁environment	-2617
▁x	-2618
ium	-2619
burn	-2620
west	-2621
▁daw	-2622
▁hor	-2623
▁mcg	-2624
▁wid	-2625
ories	-2626
▁bost	-2627
▁duty	-2628
▁fire	-2629
▁grow	-2630
uments	-2631
▁coast	-2632
▁right	-2633
▁today	-2634
▁combat	-2635
▁courts	-2636
▁french	-2637
▁perfor	-2638
▁raised	-2639
▁recent	-2640
▁sports	-2641
iography	-2642
▁european	-2643
▁louisiana	-2644
▁responsible	-2645
iec	-2646
mond	-2647
▁ult	-2648
▁suff	-2649
▁viol	-2650
▁alleg	-2651
▁veter	-2652
▁visit	-2653
▁voted	-2654
▁works	-2655
▁boston	-2656
▁global	-2657
▁natural	-2658
▁percent	-2659
ification	-2660
▁register	-2661
▁officials	-2662
▁sometimes	-2663
adel	-2664
ants	-2665
aves	-2666
iers	-2667
ming	-2668
▁twice	-2669
▁calvin	-2670
▁change	-2671
▁status	-2672
▁harvard	-2673
▁herbert	-2674
kef	-2675
▁du	-2676
▁rh	-2677
ghan	-2678
icut	-2679
▁iii	-2680
▁mal	-2681
▁pan	-2682
iding	-2683
istan	-2684
▁brig	-2685
▁qual	-2686
▁cases	-2687
▁coach	-2688
▁ident	-2689
▁noted	-2690
▁access	-2691
▁silver	-2692
▁entered	-2693
▁network	-2694
▁formally	-2695
▁authorized	-2696
▁connecticut	-2697
▁commissioned	-2698
▁approximately	-2699
nel	-2700
ises	-2701
olis	-2702
▁bob	-2703
water	-2704
▁gall	-2705
▁china	-2706
▁editor	-2707
▁rockef	-2708
▁tenure	-2709
▁liberal	-2710
▁subject	-2711
▁usually	-2712
▁assembly	-2713
▁determin	-2714
line	-2715
most	-2716
pped	-2717
▁tow	-2718
asion	-2719
place	-2720
▁dick	-2721
▁flag	-2722
▁seek	-2723
▁compr	-2724
▁neigh	-2725
▁annual	-2726
▁buried	-2727
▁opened	-2728
▁reserve	-2729
▁statist	-2730
▁organized	-2731
▁construction	-2732
pir	-2733
▁agr	-2734
▁roy	-2735
▁carl	-2736
▁date	-2737
adelph	-2738
apolis	-2739
ograph	-2740
▁armed	-2741
▁prize	-2742
▁procl	-2743
▁shall	-2744
▁accept	-2745
▁bridge	-2746
▁daniel	-2747
▁confirm	-2748
▁kingdom	-2749
▁parties	-2750
▁associate	-2751
▁rockefeller	-2752
ta	-2753
iles	-2754
ested	-2755
icted	-2756
ience	-2757
itive	-2758
▁fair	-2759
▁fame	-2760
▁purp	-2761
itting	-2762
▁equal	-2763
▁examp	-2764
▁regul	-2765
▁margin	-2766
▁angeles	-2767
▁austral	-2768
▁england	-2769
▁houston	-2770
▁instead	-2771
▁followed	-2772
▁potential	-2773
▁information	-2774
ati	-2775
▁aut	-2776
▁big	-2777
▁sar	-2778
ising	-2779
▁barb	-2780
▁mike	-2781
▁rand	-2782
▁spir	-2783
▁whit	-2784
anding	-2785
gether	-2786
▁assum	-2787
▁cheney	-2788
▁grover	-2789
▁square	-2790
adelphia	-2791
▁colonel	-2792
▁opposed	-2793
▁marshall	-2794
▁together	-2795
▁emergency	-2796
▁performan	-2797
▁institution	-2798
▁philadelphia	-2799
▁administrator	-2800
ax	-2801
erc	-2802
ery	-2803
▁mr	-2804
▁wy	-2805
incy	-2806
▁obs	-2807
asure	-2808
▁cust	-2809
▁need	-2810
▁impro	-2811
▁money	-2812
▁wrote	-2813
▁assign	-2814
▁normal	-2815
▁quincy	-2816
▁edwards	-2817
▁efforts	-2818
▁preserv	-2819
▁mountain	-2820
▁protection	-2821
aq	-2822
ets	-2823
mark	-2824
osen	-2825
urer	-2826
▁cat	-2827
elect	-2828
▁ches	-2829
▁impe	-2830
inated	-2831
▁chain	-2832
▁lands	-2833
▁magaz	-2834
▁portr	-2835
▁alaska	-2836
▁safety	-2837
▁submar	-2838
▁actions	-2839
▁captain	-2840
▁shortly	-2841
▁advisory	-2842
▁neighbor	-2843
▁operation	-2844
▁federation	-2845
▁journalist	-2846
▁opposition	-2847
ids	-2848
iot	-2849
roy	-2850
lant	-2851
ouse	-2852
▁cul	-2853
▁dev	-2854
▁rob	-2855
orate	-2856
▁cred	-2857
▁fall	-2858
▁gard	-2859
▁gave	-2860
▁seal	-2861
▁simp	-2862
ensive	-2863
vement	-2864
▁dawes	-2865
▁style	-2866
▁rather	-2867
▁should	-2868
▁taking	-2869
▁express	-2870
▁hillary	-2871
▁directly	-2872
▁described	-2873
▁diplomatic	-2874
▁prohibition	-2875
oy	-2876
ese	-2877
iary	-2878
road	-2879
▁unc	-2880
ached	-2881
izing	-2882
▁appl	-2883
▁corn	-2884
▁nick	-2885
unched	-2886
▁occup	-2887
iations	-2888
▁nearly	-2889
▁produc	-2890
▁consent	-2891
▁vermont	-2892
▁graduate	-2893
▁judicial	-2894
itc	-2895
ken	-2896
ners	-2897
teen	-2898
ving	-2899
▁fle	-2900
ators	-2901
heast	-2902
▁chap	-2903
▁kore	-2904
▁relig	-2905
▁afghan	-2906
▁altern	-2907
▁artist	-2908
▁prison	-2909
▁steven	-2910
▁summer	-2911
▁stephen	-2912
▁training	-2913
▁commencement	-2914
ka	-2915
the	-2916
ably	-2917
▁cub	-2918
▁kar	-2919
▁tur	-2920
isher	-2921
▁abol	-2922
▁cris	-2923
▁enem	-2924
▁iraq	-2925
▁live	-2926
▁mach	-2927
▁pros	-2928
▁confl	-2929
▁favor	-2930
irement	-2931
▁curtis	-2932
▁account	-2933
▁station	-2934
▁founding	-2935
▁launched	-2936
▁congressman	-2937
▁continental	-2938
▁statistical	-2939
▁confirmation	-2940
▁organizations	-2941
bn	-2942
den	-2943
▁ss	-2944
▁ve	-2945
oses	-2946
reek	-2947
▁arm	-2948
▁bac	-2949
▁esp	-2950
▁fur	-2951
utant	-2952
▁adop	-2953
▁blue	-2954
▁cele	-2955
▁larg	-2956
▁thus	-2957
wealth	-2958
▁rules	-2959
▁takes	-2960
artered	-2961
▁crisis	-2962
▁duties	-2963
▁failed	-2964
▁issued	-2965
▁oldest	-2966
▁eastern	-2967
▁medical	-2968
▁declared	-2969
▁provides	-2970
▁reported	-2971
▁williams	-2972
▁immigration	-2973
▁commonwealth	-2974
eler	-2975
view	-2976
▁gun	-2977
▁hob	-2978
▁our	-2979
▁put	-2980
▁you	-2981
ining	-2982
uther	-2983
▁shar	-2984
▁minor	-2985
▁almost	-2986
▁enforc	-2987
▁portra	-2988
▁appeals	-2989
▁earlier	-2990
▁regular	-2991
▁adjutant	-2992
▁appeared	-2993
▁formerly	-2994
▁federalized	-2995
▁metropolitan	-2996
▁headquartered	-2997
uit	-2998
▁ful	-2999
aware	-3000
▁parl	-3001
▁sect	-3002
▁scand	-3003
ability	-3004
▁carson	-3005
▁gained	-3006
▁prince	-3007
▁samuel	-3008
▁appropr	-3009
▁largely	-3010
orporated	-3011
▁ceremony	-3012
▁grandson	-3013
▁operated	-3014
▁recognized	-3015
▁ultimately	-3016
ape	-3017
▁fa	-3018
▁dew	-3019
▁hub	-3020
▁ted	-3021
▁canc	-3022
▁phot	-3023
▁plat	-3024
▁charl	-3025
▁chess	-3026
▁heart	-3027
▁negot	-3028
▁spons	-3029
▁campus	-3030
▁endors	-3031
▁houses	-3032
▁latter	-3033
▁resour	-3034
▁douglas	-3035
▁passage	-3036
▁village	-3037
▁conflict	-3038
▁dedicated	-3039
▁primarily	-3040
wr	-3041
▁et	-3042
▁os	-3043
▁tv	-3044
onse	-3045
▁enc	-3046
▁ens	-3047
▁usa	-3048
lined	-3049
ufact	-3050
▁carr	-3051
▁cham	-3052
▁feet	-3053
▁task	-3054
▁bills	-3055
▁davis	-3056
▁paint	-3057
▁squad	-3058
atorial	-3059
▁spring	-3060
▁tariff	-3061
▁consult	-3062
▁discuss	-3063
▁outside	-3064
▁features	-3065
▁homeland	-3066
▁interest	-3067
▁magazine	-3068
els	-3069
gar	-3070
hew	-3071
iety	-3072
oles	-3073
olid	-3074
usin	-3075
ying	-3076
▁lif	-3077
▁wel	-3078
ilton	-3079
▁laws	-3080
▁unit	-3081
itions	-3082
▁album	-3083
▁immed	-3084
▁mater	-3085
▁peter	-3086
▁slave	-3087
▁atlant	-3088
▁behind	-3089
▁cousin	-3090
▁placed	-3091
▁attacks	-3092
▁commerc	-3093
▁example	-3094
▁records	-3095
▁reelect	-3096
▁agricult	-3097
▁creation	-3098
▁delaware	-3099
▁manufact	-3100
▁proposed	-3101
▁additional	-3102
▁politicians	-3103
ada	-3104
lus	-3105
aged	-3106
amer	-3107
ello	-3108
ette	-3109
greg	-3110
hlet	-3111
rael	-3112
▁mur	-3113
ecess	-3114
ients	-3115
imate	-3116
▁aver	-3117
▁cinc	-3118
▁code	-3119
▁hunt	-3120
▁whom	-3121
arters	-3122
elling	-3123
utions	-3124
▁added	-3125
▁areas	-3126
▁lewis	-3127
▁route	-3128
▁sixth	-3129
▁avenue	-3130
▁chosen	-3131
▁killed	-3132
▁voting	-3133
▁britain	-3134
▁counter	-3135
▁economy	-3136
▁further	-3137
▁removed	-3138
▁spanish	-3139
▁workers	-3140
▁discover	-3141
▁question	-3142
▁collection	-3143
▁philippines	-3144
mb	-3145
ops	-3146
erry	-3147
iple	-3148
▁gub	-3149
▁web	-3150
anded	-3151
worth	-3152
▁hero	-3153
▁oval	-3154
▁past	-3155
▁vide	-3156
father	-3157
▁taken	-3158
▁fought	-3159
▁gubern	-3160
▁letter	-3161
▁losing	-3162
▁sister	-3163
▁stated	-3164
▁toward	-3165
▁finance	-3166
▁highway	-3167
▁impeach	-3168
▁related	-3169
▁approved	-3170
▁response	-3171
▁scholars	-3172
▁submarine	-3173
▁introduced	-3174
▁neighborhood	-3175
ca	-3176
ll	-3177
ays	-3178
eal	-3179
utes	-3180
▁anc	-3181
▁blo	-3182
▁hop	-3183
iated	-3184
▁opin	-3185
▁stan	-3186
▁bryan	-3187
▁chall	-3188
▁tower	-3189
▁track	-3190
▁using	-3191
▁celebr	-3192
▁israel	-3193
▁master	-3194
▁overse	-3195
▁region	-3196
▁cincinn	-3197
▁concern	-3198
▁parliam	-3199
▁agencies	-3200
▁civilian	-3201
▁campaigns	-3202
▁developed	-3203
▁influence	-3204
▁personnel	-3205
▁commercial	-3206
▁gubernatorial	-3207
dd	-3208
eto	-3209
win	-3210
▁hy	-3211
▁cut	-3212
▁pil	-3213
▁rap	-3214
▁saw	-3215
▁coal	-3216
▁hosp	-3217
▁sand	-3218
▁draft	-3219
▁frequ	-3220
▁games	-3221
▁range	-3222
▁athlet	-3223
▁embass	-3224
▁volunt	-3225
▁carried	-3226
▁leaving	-3227
▁olympic	-3228
▁provide	-3229
▁implement	-3230
▁receiving	-3231
▁strategic	-3232
▁performance	-3233
▁reconstruction	-3234
ata	-3235
com	-3236
▁il	-3237
ayle	-3238
uted	-3239
▁ell	-3240
▁fly	-3241
▁mic	-3242
▁clos	-3243
▁coop	-3244
▁spok	-3245
ivered	-3246
▁bound	-3247
▁extra	-3248
▁names	-3249
▁nickn	-3250
▁broadc	-3251
▁debate	-3252
▁formal	-3253
▁freder	-3254
▁visits	-3255
ological	-3256
▁breckin	-3257
▁certain	-3258
▁changed	-3259
▁started	-3260
▁variety	-3261
▁version	-3262
▁replaced	-3263
▁delivered	-3264
tim	-3265
war	-3266
berg	-3267
enced	-3268
lette	-3269
ondon	-3270
▁come	-3271
▁heav	-3272
rought	-3273
ucture	-3274
▁royal	-3275
ication	-3276
▁advice	-3277
▁amount	-3278
▁culmin	-3279
▁distin	-3280
▁earned	-3281
▁observ	-3282
▁occurr	-3283
▁papers	-3284
▁police	-3285
▁embassy	-3286
▁germany	-3287
▁longest	-3288
▁tempore	-3289
▁commonly	-3290
▁featured	-3291
▁performed	-3292
▁associated	-3293
▁cincinnati	-3294
▁parliament	-3295
▁corporation	-3296
▁progressive	-3297
▁breckinridge	-3298
▁investigation	-3299
yc	-3300
ze	-3301
ara	-3302
ung	-3303
town	-3304
▁abs	-3305
▁esc	-3306
▁pet	-3307
▁rub	-3308
▁sex	-3309
adier	-3310
▁hund	-3311
▁sher	-3312
▁shot	-3313
▁veto	-3314
ington	-3315
▁acres	-3316
▁carry	-3317
▁daily	-3318
▁enemy	-3319
▁sarah	-3320
▁valley	-3321
▁brought	-3322
▁decided	-3323
▁granted	-3324
▁hundred	-3325
▁counties	-3326
▁industry	-3327
▁platform	-3328
▁possible	-3329
▁required	-3330
▁christian	-3331
▁frederick	-3332
▁increased	-3333
▁interview	-3334
▁production	-3335
▁retirement	-3336
▁engineering	-3337
▁territorial	-3338
▁relationship	-3339
▁establishment	-3340
▁revolutionary	-3341
▁bi	-3342
▁cox	-3343
asing	-3344
erate	-3345
▁pard	-3346
▁prem	-3347
▁rose	-3348
timore	-3349
▁accom	-3350
▁brook	-3351
▁corru	-3352
▁owner	-3353
utation	-3354
▁hobart	-3355
▁nelson	-3356
▁ranked	-3357
▁recomm	-3358
standing	-3359
▁decades	-3360
▁product	-3361
▁renamed	-3362
▁seventh	-3363
▁academic	-3364
▁baltimore	-3365
▁brigadier	-3366
▁afghanistan	-3367
ma	-3368
oon	-3369
▁id	-3370
pond	-3371
pper	-3372
▁dam	-3373
▁ros	-3374
inson	-3375
▁hear	-3376
▁self	-3377
▁sour	-3378
▁susp	-3379
▁zach	-3380
▁focus	-3381
▁pursu	-3382
▁better	-3383
▁constr	-3384
▁crimin	-3385
▁effort	-3386
▁entire	-3387
▁famous	-3388
▁harris	-3389
▁quayle	-3390
▁winner	-3391
▁culture	-3392
▁housing	-3393
▁student	-3394
▁facility	-3395
▁landmark	-3396
▁separate	-3397
▁veterans	-3398
▁agreement	-3399
▁enforcement	-3400
▁representing	-3401
be	-3402
off	-3403
▁iv	-3404
aded	-3405
here	-3406
▁aud	-3407
▁ide	-3408
▁ord	-3409
eline	-3410
iment	-3411
▁arms	-3412
▁ferr	-3413
▁seen	-3414
▁dewey	-3415
▁exerc	-3416
▁fleet	-3417
▁lists	-3418
▁paper	-3419
▁teams	-3420
grapher	-3421
respond	-3422
▁custom	-3423
▁parker	-3424
▁perman	-3425
▁widely	-3426
▁francis	-3427
▁mexican	-3428
▁decision	-3429
▁multiple	-3430
▁musician	-3431
▁attention	-3432
▁resources	-3433
▁stevenson	-3434
▁successor	-3435
▁australian	-3436
▁footballer	-3437
▁initiative	-3438
▁recipients	-3439
▁succession	-3440
▁grandfather	-3441
▁commissioner	-3442
▁transportation	-3443
da	-3444
ift	-3445
▁vo	-3446
anks	-3447
▁cru	-3448
▁die	-3449
▁ess	-3450
▁fal	-3451
▁les	-3452
▁nin	-3453
▁barr	-3454
▁burr	-3455
▁cost	-3456
▁keep	-3457
▁sant	-3458
ground	-3459
▁admir	-3460
▁avail	-3461
▁displ	-3462
▁trial	-3463
▁video	-3464
▁albert	-3465
▁defeat	-3466
▁market	-3467
▁chamber	-3468
▁chester	-3469
▁managed	-3470
▁serious	-3471
▁wyoming	-3472
▁defeating	-3473
▁regarding	-3474
▁correspond	-3475
▁plantation	-3476
▁impeachment	-3477
▁particularly	-3478
ked	-3479
uce	-3480
arch	-3481
back	-3482
ches	-3483
ults	-3484
▁cop	-3485
▁ken	-3486
▁oil	-3487
ament	-3488
aning	-3489
athan	-3490
riage	-3491
▁fail	-3492
▁fred	-3493
▁grew	-3494
▁happ	-3495
▁ryan	-3496
▁espec	-3497
▁choice	-3498
▁slaves	-3499
▁summit	-3500
▁troops	-3501
▁average	-3502
▁comment	-3503
▁edition	-3504
▁meeting	-3505
▁release	-3506
▁sitting	-3507
▁wheeler	-3508
▁zachary	-3509
▁believed	-3510
▁declined	-3511
▁fillmore	-3512
▁hamilton	-3513
▁justices	-3514
▁goldwater	-3515
▁criticized	-3516
▁inaugurated	-3517
▁controversial	-3518
▁unsuccessfully	-3519
fl	-3520
vi	-3521
aro	-3522
ins	-3523
ipt	-3524
icks	-3525
▁bil	-3526
▁mob	-3527
▁reb	-3528
itage	-3529
rence	-3530
▁test	-3531
▁jones	-3532
▁pilot	-3533
▁saint	-3534
▁subst	-3535
ression	-3536
▁explor	-3537
▁garner	-3538
▁singer	-3539
▁complex	-3540
▁coordin	-3541
▁funeral	-3542
▁limited	-3543
▁manager	-3544
▁ranking	-3545
▁champion	-3546
▁interior	-3547
▁partners	-3548
▁especially	-3549
▁reputation	-3550
▁resolution	-3551
▁environmental	-3552
ars	-3553
key	-3554
mon	-3555
ued	-3556
aine	-3557
isan	-3558
reen	-3559
vada	-3560
▁bad	-3561
▁eug	-3562
▁inn	-3563
▁jul	-3564
▁bene	-3565
▁know	-3566
▁mine	-3567
▁sons	-3568
▁tour	-3569
▁tues	-3570
onents	-3571
▁above	-3572
▁alumn	-3573
▁clark	-3574
▁heads	-3575
▁stock	-3576
▁sworn	-3577
▁border	-3578
▁clause	-3579
▁nevada	-3580
▁prepar	-3581
▁refers	-3582
▁fiction	-3583
▁holding	-3584
▁machine	-3585
▁receive	-3586
▁scandal	-3587
▁tuesday	-3588
▁advocate	-3589
▁approval	-3590
▁religious	-3591
▁elementary	-3592
▁subsequent	-3593
eer	-3594
▁..	-3595
▁sn	-3596
orne	-3597
▁bul	-3598
▁ice	-3599
▁lad	-3600
▁syn	-3601
ender	-3602
orary	-3603
▁bart	-3604
▁bomb	-3605
▁memo	-3606
▁pled	-3607
▁pred	-3608
▁want	-3609
▁writ	-3610
ennial	-3611
▁famil	-3612
▁polls	-3613
▁roman	-3614
▁sched	-3615
▁stars	-3616
▁austin	-3617
▁narrow	-3618
▁remain	-3619
ordinary	-3620
▁challen	-3621
▁changes	-3622
▁liberty	-3623
▁follette	-3624
▁planning	-3625
▁portrait	-3626
▁youngest	-3627
▁available	-3628
▁portrayed	-3629
▁culminating	-3630
▁headquarters	-3631
▁extraordinary	-3632
sa	-3633
ien	-3634
▁dc	-3635
▁ot	-3636
eman	-3637
▁...	-3638
▁avo	-3639
▁ceo	-3640
▁ire	-3641
▁sem	-3642
▁too	-3643
ighth	-3644
iring	-3645
▁expl	-3646
▁fast	-3647
▁here	-3648
▁look	-3649
▁rule	-3650
idence	-3651
▁capac	-3652
▁langu	-3653
▁lower	-3654
▁actual	-3655
▁cities	-3656
▁expans	-3657
▁hamlin	-3658
▁london	-3659
▁rating	-3660
▁walker	-3661
▁admiral	-3662
▁ireland	-3663
▁require	-3664
▁systems	-3665
▁colonial	-3666
▁combined	-3667
▁intended	-3668
▁marriage	-3669
▁powerful	-3670
▁promoted	-3671
▁surround	-3672
▁directors	-3673
▁interests	-3674
▁recipient	-3675
▁experience	-3676
▁documentary	-3677
of	-3678
ena	-3679
fax	-3680
hol	-3681
agon	-3682
hill	-3683
ones	-3684
▁phr	-3685
arthy	-3686
tered	-3687
▁clay	-3688
▁jess	-3689
▁mitt	-3690
▁pick	-3691
▁annex	-3692
▁bible	-3693
▁break	-3694
▁instr	-3695
▁motor	-3696
▁rhode	-3697
▁roles	-3698
▁sover	-3699
▁study	-3700
▁bishop	-3701
▁judges	-3702
▁landsl	-3703
▁margar	-3704
▁propos	-3705
▁figures	-3706
▁statute	-3707
▁criminal	-3708
▁material	-3709
▁mccarthy	-3710
▁occasion	-3711
▁occurred	-3712
▁opponent	-3713
▁pleasure	-3714
▁squadron	-3715
▁sovereign	-3716
▁birthplace	-3717
na	-3718
awn	-3719
ius	-3720
orm	-3721
pan	-3722
▁ps	-3723
ints	-3724
▁coe	-3725
▁der	-3726
▁dro	-3727
▁dur	-3728
▁jew	-3729
▁jos	-3730
▁mel	-3731
▁unl	-3732
▁cold	-3733
▁cuba	-3734
▁ross	-3735
▁wide	-3736
orters	-3737
▁amate	-3738
▁bring	-3739
▁funds	-3740
▁holds	-3741
▁ships	-3742
▁simon	-3743
▁ancest	-3744
▁hosted	-3745
▁physic	-3746
▁tennis	-3747
▁assumed	-3748
▁conspir	-3749
▁funding	-3750
▁parents	-3751
▁prevent	-3752
▁studies	-3753
▁theater	-3754
▁admitted	-3755
▁controll	-3756
▁conducted	-3757
▁corruption	-3758
▁competition	-3759
ba	-3760
bc	-3761
sm	-3762
▁!	-3763
ugg	-3764
eing	-3765
ened	-3766
hens	-3767
isco	-3768
racy	-3769
▁cup	-3770
▁pul	-3771
ength	-3772
luded	-3773
▁acts	-3774
▁dism	-3775
▁diss	-3776
▁face	-3777
▁food	-3778
▁goal	-3779
▁soon	-3780
▁weap	-3781
▁below	-3782
▁paris	-3783
▁perot	-3784
▁seats	-3785
▁closed	-3786
▁commem	-3787
▁groups	-3788
▁hubert	-3789
▁itself	-3790
▁object	-3791
▁proced	-3792
▁wealth	-3793
american	-3794
▁circuit	-3795
▁conduct	-3796
▁convent	-3797
▁ferraro	-3798
▁matters	-3799
▁assigned	-3800
▁cultural	-3801
▁endorsed	-3802
▁nominees	-3803
▁employees	-3804
▁expansion	-3805
▁geraldine	-3806
▁landslide	-3807
▁purchased	-3808
▁participated	-3809
▁responsibility	-3810
..	-3811
gn	-3812
kn	-3813
atr	-3814
hic	-3815
ias	-3816
une	-3817
gers	-3818
pass	-3819
wart	-3820
▁dar	-3821
▁jac	-3822
asons	-3823
state	-3824
▁dent	-3825
▁greg	-3826
▁matt	-3827
▁poor	-3828
▁sund	-3829
▁vess	-3830
▁word	-3831
imated	-3832
master	-3833
▁brand	-3834
▁limit	-3835
▁sport	-3836
▁train	-3837
▁cancer	-3838
▁colfax	-3839
▁highly	-3840
▁martha	-3841
▁proble	-3842
▁statue	-3843
▁focused	-3844
▁privile	-3845
▁vacancy	-3846
▁articles	-3847
▁expanded	-3848
▁hospital	-3849
▁lawrence	-3850
▁producer	-3851
▁typically	-3852
▁depression	-3853
▁reelection	-3854
▁declaration	-3855
▁departments	-3856
▁influential	-3857
▁administrative	-3858
asc	-3859
uff	-3860
aham	-3861
icop	-3862
iece	-3863
olph	-3864
ript	-3865
▁ban	-3866
▁bow	-3867
▁eag	-3868
▁fox	-3869
▁gul	-3870
▁lob	-3871
▁oce	-3872
▁pen	-3873
▁ray	-3874
▁sun	-3875
attle	-3876
house	-3877
itzer	-3878
lines	-3879
opher	-3880
pired	-3881
urban	-3882
▁able	-3883
▁attr	-3884
▁bron	-3885
▁card	-3886
▁coll	-3887
▁entr	-3888
▁lect	-3889
▁mort	-3890
▁nash	-3891
▁rang	-3892
▁wash	-3893
▁clear	-3894
▁demon	-3895
▁drama	-3896
▁dutch	-3897
▁faith	-3898
▁insur	-3899
▁model	-3900
▁ninth	-3901
▁perry	-3902
▁advanc	-3903
▁eugene	-3904
▁honors	-3905
▁junior	-3906
▁survey	-3907
▁victor	-3908
▁amateur	-3909
▁ceremon	-3910
▁contest	-3911
▁helicop	-3912
▁partner	-3913
▁patrick	-3914
▁persons	-3915
▁portion	-3916
▁proclam	-3917
▁consider	-3918
▁contains	-3919
▁contract	-3920
▁families	-3921
▁margaret	-3922
▁railroad	-3923
▁regiment	-3924
▁standing	-3925
▁communist	-3926
▁sponsored	-3927
▁standards	-3928
▁philippine	-3929
▁supporting	-3930
▁recognition	-3931
oo	-3932
sp	-3933
ats	-3934
aud	-3935
ots	-3936
▁ny	-3937
ails	-3938
aven	-3939
iday	-3940
iger	-3941
sion	-3942
time	-3943
unch	-3944
ways	-3945
▁mun	-3946
▁nob	-3947
▁sug	-3948
▁tem	-3949
ening	-3950
leton	-3951
ockey	-3952
▁isbn	-3953
▁paid	-3954
▁symb	-3955
▁vern	-3956
selves	-3957
▁fight	-3958
▁overs	-3959
▁round	-3960
▁stone	-3961
▁attend	-3962
▁comput	-3963
▁delano	-3964
▁fields	-3965
▁nearby	-3966
▁phrase	-3967
▁adopted	-3968
▁charged	-3969
▁charges	-3970
▁debates	-3971
▁elector	-3972
▁greater	-3973
▁reflect	-3974
▁reports	-3975
▁whether	-3976
▁capacity	-3977
▁honorary	-3978
▁moderate	-3979
▁recently	-3980
▁attempted	-3981
▁biography	-3982
▁broadcast	-3983
▁districts	-3984
▁francisco	-3985
▁historian	-3986
▁publisher	-3987
▁assistance	-3988
▁maintained	-3989
tr	-3990
▁nt	-3991
iced	-3992
ique	-3993
loyd	-3994
odge	-3995
▁hem	-3996
▁hum	-3997
▁hun	-3998
▁ron	-3999
▁say	-4000
acher	-4001
antry	-4002
iance	-4003
▁anal	-4004
▁doll	-4005
▁give	-4006
▁iran	-4007
▁laur	-4008
▁lind	-4009
▁love	-4010
▁ward	-4011
bridge	-4012
▁bache	-4013
▁means	-4014
▁newly	-4015
▁night	-4016
▁spiro	-4017
▁worth	-4018
▁claims	-4019
▁invent	-4020
▁owners	-4021
▁screen	-4022
▁withdr	-4023
▁alleged	-4024
▁allowed	-4025
▁briefly	-4026
▁growing	-4027
▁opinion	-4028
▁results	-4029
▁demonstr	-4030
▁regional	-4031
▁specific	-4032
▁permanent	-4033
▁presiding	-4034
▁therefore	-4035
cy	-4036
ij	-4037
aps	-4038
bre	-4039
irl	-4040
icip	-4041
iled	-4042
ound	-4043
rine	-4044
▁hug	-4045
▁sea	-4046
▁jenn	-4047
▁meth	-4048
▁morr	-4049
▁wild	-4050
igible	-4051
▁affil	-4052
▁allen	-4053
▁apart	-4054
▁barry	-4055
▁block	-4056
▁enter	-4057
▁greek	-4058
▁india	-4059
▁liter	-4060
▁rural	-4061
▁vehic	-4062
▁views	-4063
ologist	-4064
▁eighth	-4065
▁higher	-4066
▁profit	-4067
▁theory	-4068
▁barbara	-4069
▁constit	-4070
▁quarter	-4071
▁soldier	-4072
▁accepted	-4073
▁consolid	-4074
▁finished	-4075
▁soldiers	-4076
▁spending	-4077
▁washburn	-4078
▁initially	-4079
▁privilege	-4080
▁providing	-4081
▁worldwide	-4082
▁federalist	-4083
▁scientific	-4084
▁themselves	-4085
▁agriculture	-4086
▁controversy	-4087
▁governments	-4088
▁outstanding	-4089
▁indianapolis	-4090
▁successfully	-4091
▁contributions	-4092
fr	-4093
aho	-4094
egr	-4095
▁uk	-4096
drew	-4097
izes	-4098
odes	-4099
▁bly	-4100
▁boy	-4101
▁cia	-4102
▁cro	-4103
▁dod	-4104
▁nep	-4105
▁oak	-4106
aints	-4107
▁rick	-4108
▁scul	-4109
▁todd	-4110
ertain	-4111
▁agent	-4112
▁beach	-4113
▁filed	-4114
▁kerry	-4115
▁youth	-4116
ulation	-4117
▁headed	-4118
▁integr	-4119
▁ladies	-4120
▁memoir	-4121
▁method	-4122
▁relief	-4123
▁specif	-4124
▁strike	-4125
▁thirty	-4126
▁mention	-4127
▁overall	-4128
▁archives	-4129
▁starting	-4130
▁withdrew	-4131
▁companies	-4132
▁statewide	-4133
▁appropriations	-4134
ox	-4135
va	-4136
hem	-4137
het	-4138
ibl	-4139
isk	-4140
ume	-4141
▁cod	-4142
▁get	-4143
▁lic	-4144
▁mcm	-4145
▁wed	-4146
etime	-4147
istic	-4148
stone	-4149
▁acre	-4150
▁bell	-4151
▁brad	-4152
▁deep	-4153
▁gain	-4154
▁hope	-4155
▁manh	-4156
▁rene	-4157
▁shel	-4158
▁spyr	-4159
▁unif	-4160
▁webs	-4161
bishop	-4162
▁benef	-4163
▁korea	-4164
▁restr	-4165
▁rival	-4166
▁appeal	-4167
▁circum	-4168
▁column	-4169
▁enroll	-4170
▁sculpt	-4171
▁weekly	-4172
▁dismiss	-4173
▁install	-4174
▁meaning	-4175
▁musical	-4176
▁philant	-4177
▁recover	-4178
▁refused	-4179
▁brothers	-4180
▁carrying	-4181
▁internal	-4182
▁meetings	-4183
▁resulted	-4184
▁transfer	-4185
▁northwest	-4186
▁remaining	-4187
▁underhill	-4188
▁supporters	-4189
▁constructed	-4190
▁publication	-4191
▁additionally	-4192
▁ratification	-4193
▁championships	-4194
oa	-4195
ows	-4196
sen	-4197
ched	-4198
ding	-4199
eded	-4200
hold	-4201
hrop	-4202
oted	-4203
▁job	-4204
▁mos	-4205
▁thr	-4206
ishes	-4207
olved	-4208
vised	-4209
▁plot	-4210
iately	-4211
▁compl	-4212
▁idaho	-4213
▁illeg	-4214
▁ninet	-4215
▁print	-4216
▁africa	-4217
▁alumni	-4218
▁blythe	-4219
▁caused	-4220
▁chiefs	-4221
▁course	-4222
▁deploy	-4223
▁graham	-4224
▁hockey	-4225
▁mining	-4226
▁powell	-4227
▁victim	-4228
▁accompl	-4229
▁billion	-4230
▁destroy	-4231
▁dropped	-4232
▁ordered	-4233
▁promote	-4234
▁remains	-4235
▁revenue	-4236
▁writing	-4237
gregation	-4238
▁acquired	-4239
▁bachelor	-4240
▁composed	-4241
▁creating	-4242
▁critical	-4243
▁downtown	-4244
▁japanese	-4245
▁language	-4246
▁prosecut	-4247
▁alongside	-4248
▁extensive	-4249
▁judiciary	-4250
▁northeast	-4251
▁terrorism	-4252
▁archbishop	-4253
▁frequently	-4254
▁nationally	-4255
▁newspapers	-4256
▁presenting	-4257
▁conventions	-4258
▁philanthrop	-4259
▁assassinated	-4260
▁institutions	-4261
ck	-4262
jo	-4263
eka	-4264
oph	-4265
ush	-4266
ych	-4267
anda	-4268
bury	-4269
elve	-4270
enda	-4271
mund	-4272
owed	-4273
▁emb	-4274
▁gal	-4275
▁hat	-4276
▁inj	-4277
▁obt	-4278
▁sir	-4279
ected	-4280
elled	-4281
ortun	-4282
▁arab	-4283
▁cler	-4284
▁diff	-4285
▁fisc	-4286
▁gord	-4287
▁mand	-4288
▁meas	-4289
aching	-4290
ctions	-4291
writer	-4292
▁aired	-4293
▁crime	-4294
▁films	-4295
▁light	-4296
▁lobby	-4297
▁merch	-4298
▁nobel	-4299
▁psych	-4300
▁shoot	-4301
▁spain	-4302
▁urban	-4303
vements	-4304
▁bronze	-4305
▁chiles	-4306
▁comedy	-4307
▁concer	-4308
▁create	-4309
▁doctor	-4310
▁edmund	-4311
▁foster	-4312
▁growth	-4313
▁income	-4314
▁pardon	-4315
▁preced	-4316
▁temper	-4317
▁turned	-4318
▁twelve	-4319
▁vacant	-4320
▁contemp	-4321
▁initial	-4322
▁suggest	-4323
▁atlantic	-4324
▁circumst	-4325
▁donelson	-4326
▁entrance	-4327
▁minority	-4328
▁scottish	-4329
▁substant	-4330
▁democracy	-4331
▁princeton	-4332
▁amendments	-4333
▁characters	-4334
▁conspiracy	-4335
▁determined	-4336
▁provisions	-4337
▁personality	-4338
▁preservation	-4339
ho	-4340
phy	-4341
dale	-4342
ends	-4343
lins	-4344
oman	-4345
onym	-4346
repr	-4347
▁gil	-4348
▁hit	-4349
attan	-4350
eches	-4351
ented	-4352
ledge	-4353
▁aide	-4354
▁anth	-4355
▁braz	-4356
▁buff	-4357
▁clar	-4358
▁crow	-4359
▁done	-4360
▁emph	-4361
▁fear	-4362
▁lear	-4363
▁ment	-4364
▁move	-4365
▁pion	-4366
▁schu	-4367
action	-4368
endent	-4369
icello	-4370
teenth	-4371
▁comed	-4372
▁image	-4373
▁jesse	-4374
▁makes	-4375
▁pence	-4376
▁rooms	-4377
ecution	-4378
edition	-4379
lington	-4380
reprene	-4381
▁behalf	-4382
▁caucus	-4383
▁cooper	-4384
▁electr	-4385
▁nephew	-4386
▁simply	-4387
▁strugg	-4388
▁sunday	-4389
▁critics	-4390
▁divided	-4391
▁finally	-4392
▁millard	-4393
▁montana	-4394
▁protest	-4395
▁sanders	-4396
▁consists	-4397
▁inspired	-4398
▁regarded	-4399
▁abolition	-4400
▁buildings	-4401
▁manhattan	-4402
▁residents	-4403
▁statement	-4404
▁committees	-4405
▁entreprene	-4406
▁graduating	-4407
▁helicopter	-4408
▁monticello	-4409
▁communities	-4410
▁immediately	-4411
▁involvement	-4412
▁appointments	-4413
▁incorporated	-4414
▁circumstances	-4415
ez	-4416
pa	-4417
to	-4418
uge	-4419
▁na	-4420
char	-4421
face	-4422
kley	-4423
roit	-4424
▁hal	-4425
▁nas	-4426
▁pit	-4427
▁sav	-4428
inese	-4429
leans	-4430
onaut	-4431
uster	-4432
▁alan	-4433
▁desk	-4434
▁furn	-4435
▁gary	-4436
▁gett	-4437
▁girl	-4438
▁hart	-4439
▁lack	-4440
ension	-4441
▁billy	-4442
▁comic	-4443
▁fifty	-4444
▁lloyd	-4445
▁quick	-4446
▁rican	-4447
▁stage	-4448
▁steve	-4449
▁wound	-4450
▁write	-4451
▁advent	-4452
▁charge	-4453
▁emphas	-4454
▁encour	-4455
▁philos	-4456
▁topeka	-4457
▁vernon	-4458
iversary	-4459
▁amended	-4460
▁carrier	-4461
▁chinese	-4462
▁climate	-4463
▁detroit	-4464
▁equival	-4465
▁mansion	-4466
▁planned	-4467
▁purpose	-4468
▁sherman	-4469
▁skating	-4470
▁weapons	-4471
▁distinct	-4472
▁educated	-4473
▁entering	-4474
▁extended	-4475
▁narrowly	-4476
▁proclaim	-4477
▁ratified	-4478
▁recorded	-4479
▁speeches	-4480
▁withdraw	-4481
▁decisions	-4482
▁documents	-4483
▁opponents	-4484
▁increasing	-4485
▁anniversary	-4486
▁partnership	-4487
▁secretaries	-4488
▁springfield	-4489
▁establishing	-4490
▁intervention	-4491
ky	-4492
ux	-4493
ket	-4494
▁ur	-4495
anor	-4496
bell	-4497
cher	-4498
ider	-4499
ndon	-4500
wall	-4501
ware	-4502
wise	-4503
ysis	-4504
▁dol	-4505
▁fel	-4506
▁han	-4507
▁pra	-4508
▁row	-4509
▁sac	-4510
▁spr	-4511
▁yet	-4512
burgh	-4513
▁asia	-4514
▁away	-4515
▁bibl	-4516
▁cott	-4517
▁cruz	-4518
▁fest	-4519
▁hann	-4520
▁huck	-4521
▁poet	-4522
▁talk	-4523
▁warr	-4524
▁autom	-4525
▁baron	-4526
▁defin	-4527
▁domin	-4528
▁faced	-4529
▁grove	-4530
▁lodge	-4531
▁nancy	-4532
▁reads	-4533
▁speak	-4534
atively	-4535
▁agenda	-4536
▁corner	-4537
▁hunter	-4538
▁marion	-4539
▁necess	-4540
▁philip	-4541
▁ruther	-4542
▁secure	-4543
▁source	-4544
▁turkey	-4545
▁wanted	-4546
▁grounds	-4547
▁herndon	-4548
▁anderson	-4549
▁elements	-4550
▁populous	-4551
▁purchase	-4552
▁strategy	-4553
▁childhood	-4554
▁insurance	-4555
▁mountains	-4556
▁nashville	-4557
▁southwest	-4558
▁discovered	-4559
▁investment	-4560
▁nationwide	-4561
▁principles	-4562
▁rutherford	-4563
▁alternative	-4564
▁consecutive	-4565
▁educational	-4566
▁politically	-4567
▁sovereignty	-4568
▁territories	-4569
▁specifically	-4570
ny	-4571
ym	-4572
kee	-4573
ault	-4574
ires	-4575
▁box	-4576
▁cad	-4577
▁jay	-4578
▁pub	-4579
osing	-4580
▁dise	-4581
▁forb	-4582
▁hait	-4583
▁mott	-4584
▁stop	-4585
asions	-4586
ulated	-4587
▁gener	-4588
▁going	-4589
▁ocean	-4590
▁parts	-4591
▁phill	-4592
▁queen	-4593
▁sales	-4594
▁upper	-4595
▁compar	-4596
▁compre	-4597
▁forced	-4598
▁hughes	-4599
▁korean	-4600
▁reject	-4601
▁sexual	-4602
▁donated	-4603
▁playing	-4604
▁russian	-4605
▁unified	-4606
▁allowing	-4607
▁computer	-4608
▁doctrine	-4609
▁function	-4610
▁managing	-4611
▁merchant	-4612
▁opportun	-4613
▁products	-4614
▁purposes	-4615
▁schuyler	-4616
▁effective	-4617
▁operating	-4618
▁southeast	-4619
▁statesman	-4620
▁equivalent	-4621
▁interstate	-4622
▁registered	-4623
▁nominations	-4624
▁scholarship	-4625
▁surrounding	-4626
▁historically	-4627
ev	-4628
alo	-4629
hum	-4630
ran	-4631
som	-4632
▁ko	-4633
▁om	-4634
▁wa	-4635
ards	-4636
aron	-4637
atic	-4638
fort	-4639
head	-4640
icit	-4641
onia	-4642
onic	-4643
ques	-4644
rupt	-4645
▁aid	-4646
▁dun	-4647
▁gay	-4648
▁max	-4649
atern	-4650
empts	-4651
icker	-4652
mouth	-4653
▁boat	-4654
▁clem	-4655
▁coup	-4656
▁dead	-4657
▁eric	-4658
▁ethn	-4659
▁hour	-4660
▁kept	-4661
▁laid	-4662
▁levi	-4663
▁mcel	-4664
▁pict	-4665
▁scot	-4666
▁tree	-4667
▁true	-4668
▁your	-4669
entsen	-4670
ousand	-4671
▁aaron	-4672
▁alien	-4673
▁avoid	-4674
▁hours	-4675
▁innov	-4676
▁latin	-4677
▁lines	-4678
▁moore	-4679
▁samoa	-4680
▁stair	-4681
▁uninc	-4682
▁brazil	-4683
▁colomb	-4684
▁flying	-4685
▁longer	-4686
▁parade	-4687
▁points	-4688
▁symbol	-4689
▁titles	-4690
▁ability	-4691
▁bentsen	-4692
▁claimed	-4693
▁comprom	-4694
▁orleans	-4695
▁patriot	-4696
▁premier	-4697
▁settled	-4698
▁studied	-4699
▁teacher	-4700
▁towards	-4701
▁complete	-4702
▁greatest	-4703
▁increase	-4704
▁location	-4705
▁occupied	-4706
▁painting	-4707
▁resident	-4708
▁thousand	-4709
▁comprises	-4710
▁daughters	-4711
▁mentioned	-4712
▁physician	-4713
▁recommend	-4714
▁structure	-4715
▁annexation	-4716
▁background	-4717
▁controlled	-4718
▁facilities	-4719
▁popularity	-4720
▁scientists	-4721
▁settlement	-4722
▁traditional	-4723
▁governorship	-4724
▁unincorporated	-4725
bit	-4726
fol	-4727
ola	-4728
ole	-4729
▁ly	-4730
ader	-4731
alph	-4732
astr	-4733
ateg	-4734
gate	-4735
geon	-4736
rial	-4737
rian	-4738
▁lit	-4739
▁log	-4740
▁sol	-4741
▁spl	-4742
aging	-4743
eenth	-4744
lands	-4745
▁bond	-4746
▁elev	-4747
▁else	-4748
▁fell	-4749
▁gent	-4750
▁kane	-4751
▁morn	-4752
▁noon	-4753
▁pope	-4754
▁repe	-4755
▁scen	-4756
▁soft	-4757
▁sust	-4758
▁swed	-4759
▁type	-4760
▁uses	-4761
▁wars	-4762
change	-4763
ortion	-4764
▁calls	-4765
▁categ	-4766
▁const	-4767
▁dance	-4768
▁eagle	-4769
▁earth	-4770
▁hendr	-4771
▁horse	-4772
▁lives	-4773
▁mason	-4774
▁photo	-4775
▁plans	-4776
▁ralph	-4777
▁shows	-4778
▁traff	-4779
▁words	-4780
hensive	-4781
igation	-4782
itarian	-4783
▁basket	-4784
▁boeing	-4785
▁empire	-4786
▁exclus	-4787
▁folsom	-4788
▁nathan	-4789
▁online	-4790
▁racial	-4791
▁reserv	-4792
▁advance	-4793
▁adviser	-4794
▁cottage	-4795
▁covered	-4796
▁eleanor	-4797
▁friends	-4798
▁illegal	-4799
▁russell	-4800
▁secured	-4801
▁website	-4802
▁achieved	-4803
▁citation	-4804
▁evidence	-4805
▁generals	-4806
▁heritage	-4807
▁inducted	-4808
▁partisan	-4809
▁problems	-4810
▁convicted	-4811
▁difficult	-4812
▁entertain	-4813
▁occasions	-4814
▁supporter	-4815
▁suspended	-4816
▁technical	-4817
▁terrorist	-4818
▁treasurer	-4819
▁transition	-4820
▁christopher	-4821
▁comprehensive	-4822
bi	-4823
ga	-4824
uk	-4825
ero	-4826
ita	-4827
kie	-4828
▁ll	-4829
aver	-4830
esty	-4831
iley	-4832
othy	-4833
rich	-4834
ties	-4835
▁aim	-4836
▁ern	-4837
▁jes	-4838
▁kel	-4839
▁kin	-4840
▁mrs	-4841
▁pun	-4842
▁tor	-4843
▁usc	-4844
▁voc	-4845
ready	-4846
▁bern	-4847
▁boys	-4848
▁debt	-4849
▁gulf	-4850
▁infr	-4851
▁judo	-4852
▁leon	-4853
▁note	-4854
▁numb	-4855
▁sole	-4856
▁tall	-4857
▁andor	-4858
▁basis	-4859
▁cause	-4860
▁chile	-4861
▁forty	-4862
▁forum	-4863
▁hills	-4864
▁imper	-4865
▁recre	-4866
▁scale	-4867
▁strip	-4868
▁think	-4869
▁uncle	-4870
▁weeks	-4871
itation	-4872
▁decade	-4873
▁farmer	-4874
▁filled	-4875
▁greene	-4876
▁inside	-4877
▁murder	-4878
▁nature	-4879
▁proved	-4880
▁reason	-4881
▁resist	-4882
▁unlike	-4883
▁waters	-4884
▁already	-4885
▁bartlet	-4886
▁concept	-4887
▁mcelroy	-4888
▁missile	-4889
▁offered	-4890
▁portico	-4891
▁actually	-4892
▁attempts	-4893
▁captured	-4894
▁educator	-4895
▁geograph	-4896
▁maintain	-4897
▁olympics	-4898
▁suffered	-4899
▁superint	-4900
▁attending	-4901
▁component	-4902
▁estimated	-4903
▁featuring	-4904
▁hendricks	-4905
▁initiated	-4906
▁monuments	-4907
▁scientist	-4908
▁classified	-4909
▁immigrants	-4910
▁contemporary	-4911
▁governmental	-4912
▁respectively	-4913
agu	-4914
rem	-4915
set	-4916
▁cn	-4917
▁ox	-4918
etti	-4919
mons	-4920
ustr	-4921
▁abc	-4922
▁god	-4923
▁tan	-4924
▁tub	-4925
▁via	-4926
▁wol	-4927
going	-4928
using	-4929
▁alco	-4930
▁gran	-4931
▁magn	-4932
▁mint	-4933
▁none	-4934
▁peak	-4935
▁perm	-4936
▁prob	-4937
▁sail	-4938
▁situ	-4939
▁size	-4940
▁stor	-4941
icipal	-4942
▁adver	-4943
▁compt	-4944
▁creek	-4945
▁delta	-4946
▁heavy	-4947
▁might	-4948
▁movie	-4949
▁older	-4950
▁palin	-4951
▁plate	-4952
▁renew	-4953
▁resol	-4954
▁rever	-4955
▁rough	-4956
▁serge	-4957
▁stein	-4958
▁tourn	-4959
orative	-4960
▁agents	-4961
▁commit	-4962
▁fiscal	-4963
▁flight	-4964
▁garden	-4965
▁jewish	-4966
▁levels	-4967
▁mayors	-4968
▁resort	-4969
▁russia	-4970
▁saints	-4971
▁sector	-4972
▁titled	-4973
▁andrews	-4974
▁appears	-4975
▁defined	-4976
▁deliver	-4977
▁freeman	-4978
▁helping	-4979
▁partial	-4980
▁radical	-4981
▁respond	-4982
▁schedul	-4983
▁seattle	-4984
▁setting	-4985
▁threats	-4986
▁visited	-4987
▁authored	-4988
▁charlott	-4989
▁concerns	-4990
▁continue	-4991
▁electron	-4992
▁exchange	-4993
▁internet	-4994
▁longtime	-4995
▁nickname	-4996
▁operates	-4997
▁physical	-4998
▁projects	-4999
▁robinson	-5000
▁timeline	-5001
▁coalition	-5002
▁contained	-5003
▁immediate	-5004
▁marketing	-5005
▁municipal	-5006
▁organizer	-5007
▁predecess	-5008
▁reporting	-5009
▁basketball	-5010
▁compromise	-5011
▁importance	-5012
▁restoration	-5013
▁entrepreneur	-5014
▁proclamation	-5015
fk	-5016
wh	-5017
▁q	-5018
ads	-5019
iah	-5020
lav	-5021
rim	-5022
utt	-5023
▁ba	-5024
ases	-5025
iber	-5026
ixed	-5027
room	-5028
uble	-5029
▁ash	-5030
▁dig	-5031
▁din	-5032
▁isa	-5033
▁nca	-5034
eness	-5035
uries	-5036
▁bain	-5037
▁bear	-5038
▁buck	-5039
▁cors	-5040
▁crew	-5041
▁dean	-5042
▁figh	-5043
▁mess	-5044
▁nasa	-5045
▁pain	-5046
▁rein	-5047
▁resc	-5048
▁rise	-5049
▁tomb	-5050
▁wind	-5051
▁wool	-5052
roller	-5053
urning	-5054
▁asked	-5055
▁crown	-5056
▁gerry	-5057
▁guest	-5058
▁happy	-5059
▁homes	-5060
▁italy	-5061
▁raise	-5062
▁theat	-5063
▁theme	-5064
▁tried	-5065
▁voice	-5066
▁burial	-5067
▁confer	-5068
▁deport	-5069
▁ending	-5070
▁ethnic	-5071
▁expert	-5072
▁gordon	-5073
▁grants	-5074
▁larger	-5075
▁monday	-5076
▁oliver	-5077
▁orders	-5078
▁rapids	-5079
▁runner	-5080
▁target	-5081
▁yellow	-5082
▁accused	-5083
▁atlanta	-5084
▁borough	-5085
▁buffalo	-5086
▁feature	-5087
▁forward	-5088
▁letters	-5089
▁neither	-5090
▁newport	-5091
▁numbers	-5092
▁opening	-5093
▁quality	-5094
▁reached	-5095
▁removal	-5096
▁stating	-5097
▁coverage	-5098
▁engineer	-5099
▁measures	-5100
▁petition	-5101
▁reporter	-5102
▁richmond	-5103
▁alternate	-5104
▁concluded	-5105
▁criticism	-5106
▁dominated	-5107
▁involving	-5108
▁nicknamed	-5109
▁otherwise	-5110
▁practiced	-5111
▁agreements	-5112
▁commanding	-5113
▁concerning	-5114
▁industrial	-5115
▁postmaster	-5116
▁publishing	-5117
▁respective	-5118
▁comptroller	-5119
▁operational	-5120
▁conservation	-5121
gb	-5122
ii	-5123
iw	-5124
ps	-5125
ein	-5126
lai	-5127
sky	-5128
abee	-5129
akis	-5130
comm	-5131
emed	-5132
inal	-5133
orum	-5134
rell	-5135
uous	-5136
▁aer	-5137
▁bed	-5138
▁hab	-5139
▁jfk	-5140
▁lex	-5141
▁mom	-5142
▁pla	-5143
▁que	-5144
▁rig	-5145
▁rod	-5146
▁rot	-5147
▁sad	-5148
ching	-5149
gment	-5150
icate	-5151
ichol	-5152
ipped	-5153
istry	-5154
itter	-5155
power	-5156
pping	-5157
where	-5158
▁dark	-5159
▁emmy	-5160
▁gray	-5161
▁guam	-5162
▁page	-5163
▁stal	-5164
▁tomp	-5165
▁virt	-5166
active	-5167
ateral	-5168
ocated	-5169
▁adopt	-5170
▁breed	-5171
▁grass	-5172
▁humor	-5173
▁pitts	-5174
▁sound	-5175
▁syria	-5176
▁wayne	-5177
iveness	-5178
▁acquis	-5179
▁agreed	-5180
▁always	-5181
▁aspect	-5182
▁causes	-5183
▁depict	-5184
▁excell	-5185
▁execut	-5186
▁gather	-5187
▁giving	-5188
▁morton	-5189
▁presum	-5190
▁unable	-5191
▁unique	-5192
▁follows	-5193
▁interim	-5194
▁warrant	-5195
▁eligible	-5196
▁exercise	-5197
▁huckabee	-5198
▁incident	-5199
▁infrastr	-5200
▁invasion	-5201
▁phillips	-5202
▁positive	-5203
▁publicly	-5204
▁speaking	-5205
▁tompkins	-5206
▁visiting	-5207
▁churchill	-5208
▁commanded	-5209
▁existence	-5210
▁functions	-5211
▁graduates	-5212
▁reduction	-5213
▁secession	-5214
▁volunteer	-5215
▁accomplish	-5216
▁administer	-5217
▁appearance	-5218
▁decoration	-5219
▁instrument	-5220
▁initiatives	-5221
▁bibliography	-5222
▁occasionally	-5223
do	-5224
dy	-5225
ns	-5226
sn	-5227
tz	-5228
wa	-5229
ye	-5230
ems	-5231
gen	-5232
gom	-5233
lyn	-5234
mas	-5235
ror	-5236
ude	-5237
▁gh	-5238
abil	-5239
anim	-5240
eers	-5241
fill	-5242
iner	-5243
osis	-5244
pent	-5245
rect	-5246
ulty	-5247
▁bey	-5248
▁cam	-5249
▁cyc	-5250
▁dia	-5251
▁dry	-5252
▁lik	-5253
▁luc	-5254
▁slo	-5255
▁tob	-5256
acent	-5257
aches	-5258
after	-5259
assen	-5260
endum	-5261
inary	-5262
light	-5263
stein	-5264
urday	-5265
▁bull	-5266
▁cape	-5267
▁cart	-5268
▁cass	-5269
▁coin	-5270
▁denn	-5271
▁dign	-5272
▁dodd	-5273
▁fine	-5274
▁link	-5275
▁mail	-5276
▁pitc	-5277
▁rice	-5278
▁seam	-5279
▁suit	-5280
▁vent	-5281
astern	-5282
gomery	-5283
▁abuse	-5284
▁adlai	-5285
▁berry	-5286
▁haiti	-5287
▁haven	-5288
▁inher	-5289
▁lawsu	-5290
▁penal	-5291
▁ridge	-5292
▁rocky	-5293
▁roger	-5294
▁stamp	-5295
▁taxes	-5296
▁unity	-5297
▁wrest	-5298
▁abroad	-5299
▁arrang	-5300
▁enough	-5301
▁experi	-5302
▁impact	-5303
▁intent	-5304
▁length	-5305
▁manner	-5306
▁medals	-5307
▁miller	-5308
▁patrol	-5309
▁streng	-5310
kenridge	-5311
orations	-5312
▁ballots	-5313
▁chapter	-5314
▁concurr	-5315
▁dischar	-5316
▁disease	-5317
▁display	-5318
▁favored	-5319
▁forests	-5320
▁license	-5321
▁posthum	-5322
▁proceed	-5323
▁request	-5324
▁smaller	-5325
▁stewart	-5326
▁stories	-5327
▁winston	-5328
▁adjacent	-5329
▁analysis	-5330
▁campbell	-5331
▁corsetti	-5332
▁credited	-5333
▁douglass	-5334
▁employed	-5335
▁episodes	-5336
▁festival	-5337
▁missions	-5338
▁receives	-5339
▁saturday	-5340
▁sentence	-5341
▁stanford	-5342
▁starring	-5343
▁violence	-5344
▁winfield	-5345
▁committed	-5346
▁economics	-5347
▁governing	-5348
▁questions	-5349
▁reference	-5350
▁situation	-5351
▁statehood	-5352
▁treatment	-5353
▁conditions	-5354
▁generation	-5355
▁montgomery	-5356
▁pittsburgh	-5357
▁prevention	-5358
▁referendum	-5359
▁statements	-5360
▁temperance	-5361
▁allegations	-5362
▁contributed	-5363
▁predecessor	-5364
▁regulations	-5365
▁breckenridge	-5366
▁consolidated	-5367
▁universities	-5368
▁traditionally	-5369
▁infrastructure	-5370
▁superintendent	-5371
cs	-5372
hey	-5373
ito	-5374
lie	-5375
ova	-5376
tin	-5377
ula	-5378
▁cy	-5379
▁ic	-5380
arct	-5381
ario	-5382
arts	-5383
ayer	-5384
iami	-5385
list	-5386
omes	-5387
omin	-5388
oned	-5389
stre	-5390
uild	-5391
umed	-5392
▁beg	-5393
▁bon	-5394
▁dor	-5395
▁dub	-5396
▁fdr	-5397
▁gas	-5398
▁kid	-5399
▁lia	-5400
▁stu	-5401
▁tae	-5402
▁tam	-5403
▁unf	-5404
▁unp	-5405
echan	-5406
essed	-5407
organ	-5408
ulate	-5409
woman	-5410
▁aldr	-5411
▁bang	-5412
▁duke	-5413
▁fitz	-5414
▁mile	-5415
▁ncaa	-5416
▁neut	-5417
▁runs	-5418
▁sequ	-5419
ceived	-5420
▁clerk	-5421
▁endow	-5422
▁entit	-5423
▁logan	-5424
▁meant	-5425
▁miami	-5426
▁moral	-5427
▁plane	-5428
▁rally	-5429
▁rubio	-5430
▁ruled	-5431
▁share	-5432
▁split	-5433
▁swear	-5434
▁allied	-5435
▁choose	-5436
▁collab	-5437
▁covers	-5438
▁crimes	-5439
▁defend	-5440
▁dining	-5441
▁ernest	-5442
▁fisher	-5443
▁forbes	-5444
▁garret	-5445
▁unanim	-5446
▁unifor	-5447
▁viewed	-5448
heastern	-5449
▁antarct	-5450
▁balance	-5451
▁battles	-5452
▁bradley	-5453
▁descend	-5454
▁dispute	-5455
▁engaged	-5456
▁hemings	-5457
▁measure	-5458
▁morning	-5459
▁notably	-5460
▁springs	-5461
▁stassen	-5462
▁surface	-5463
▁vessels	-5464
▁veteran	-5465
▁webster	-5466
▁annually	-5467
▁certific	-5468
▁comedian	-5469
▁eventual	-5470
▁mcgovern	-5471
▁presence	-5472
▁requires	-5473
▁restored	-5474
▁sciences	-5475
▁shooting	-5476
▁traveled	-5477
▁treaties	-5478
▁concerned	-5479
▁condition	-5480
▁exception	-5481
▁promoting	-5482
▁qualified	-5483
▁remainder	-5484
▁workplace	-5485
▁ceremonial	-5486
▁commitment	-5487
▁delegation	-5488
▁expedition	-5489
▁huntington	-5490
▁photograph	-5491
▁thereafter	-5492
▁acquisition	-5493
▁citizenship	-5494
▁architecture	-5495
▁publications	-5496
▁entertainment	-5497
sw	-5498
ieg	-5499
ini	-5500
rid	-5501
▁kl	-5502
pson	-5503
sman	-5504
whel	-5505
▁enh	-5506
▁eth	-5507
▁fbi	-5508
▁rud	-5509
▁und	-5510
alian	-5511
borne	-5512
byter	-5513
enses	-5514
gradu	-5515
▁awar	-5516
▁cain	-5517
▁fash	-5518
▁gree	-5519
▁jobs	-5520
▁lock	-5521
▁mall	-5522
▁nonp	-5523
▁ssbn	-5524
▁tell	-5525
▁welf	-5526
contin	-5527
▁analy	-5528
▁bacon	-5529
▁betty	-5530
▁charg	-5531
▁coinc	-5532
▁crash	-5533
▁divor	-5534
▁drugs	-5535
▁fraud	-5536
▁globe	-5537
▁grace	-5538
▁isaac	-5539
▁keyes	-5540
▁marin	-5541
▁nader	-5542
▁ranks	-5543
▁solid	-5544
▁songs	-5545
ription	-5546
▁argued	-5547
▁beyond	-5548
▁bought	-5549
▁circle	-5550
▁coming	-5551
▁conven	-5552
▁covert	-5553
▁demand	-5554
▁device	-5555
▁divers	-5556
▁easily	-5557
▁edited	-5558
▁elimin	-5559
▁mechan	-5560
▁mostly	-5561
▁parish	-5562
▁shared	-5563
▁simple	-5564
byterian	-5565
neapolis	-5566
pression	-5567
▁convers	-5568
▁existed	-5569
▁faculty	-5570
▁heavily	-5571
▁marines	-5572
▁reduced	-5573
▁reviews	-5574
▁seeking	-5575
▁starred	-5576
▁welfare	-5577
▁wounded	-5578
▁younger	-5579
▁advertis	-5580
▁advocacy	-5581
▁ancestry	-5582
▁athletic	-5583
▁colombia	-5584
▁equality	-5585
▁infantry	-5586
▁overwhel	-5587
▁proposal	-5588
▁recovery	-5589
▁repeated	-5590
▁sergeant	-5591
▁thompson	-5592
▁trustees	-5593
▁visitors	-5594
▁advocated	-5595
▁afterward	-5596
▁awareness	-5597
▁corporate	-5598
▁necessary	-5599
▁promotion	-5600
▁victories	-5601
▁consisting	-5602
▁richardson	-5603
▁tournament	-5604
▁achievement	-5605
▁humanitarian	-5606
▁instrumental	-5607
▁presbyterian	-5608
ya	-5609
ari	-5610
eas	-5611
ici	-5612
ils	-5613
iny	-5614
lam	-5615
rep	-5616
tig	-5617
aped	-5618
aton	-5619
ibly	-5620
illa	-5621
imum	-5622
ivan	-5623
know	-5624
lers	-5625
nell	-5626
read	-5627
unct	-5628
▁arn	-5629
▁cot	-5630
▁cra	-5631
▁dog	-5632
▁doz	-5633
▁hud	-5634
▁jer	-5635
▁nap	-5636
▁nut	-5637
▁pak	-5638
▁por	-5639
aming	-5640
eston	-5641
ieces	-5642
oking	-5643
▁aids	-5644
▁bird	-5645
▁chem	-5646
▁coat	-5647
▁fres	-5648
▁gian	-5649
▁hair	-5650
▁jane	-5651
▁jean	-5652
▁pend	-5653
▁prec	-5654
▁sens	-5655
▁shop	-5656
▁subs	-5657
▁synd	-5658
▁wake	-5659
▁zeal	-5660
atures	-5661
ifying	-5662
inners	-5663
irates	-5664
ysburg	-5665
▁belle	-5666
▁civic	-5667
▁diego	-5668
▁ellis	-5669
▁exhib	-5670
▁femin	-5671
▁forms	-5672
▁frame	-5673
▁fully	-5674
▁jacob	-5675
▁libby	-5676
▁medic	-5677
▁parks	-5678
▁pride	-5679
▁spoke	-5680
▁suppl	-5681
▁tenth	-5682
▁trail	-5683
▁wides	-5684
▁acknow	-5685
▁affect	-5686
▁allows	-5687
▁belief	-5688
▁dennis	-5689
▁guests	-5690
▁harbor	-5691
▁harold	-5692
▁likely	-5693
▁limits	-5694
▁luther	-5695
▁memory	-5696
▁needed	-5697
▁nichol	-5698
▁palest	-5699
▁palmer	-5700
▁rogers	-5701
▁salary	-5702
▁values	-5703
▁warner	-5704
graduate	-5705
▁aspects	-5706
▁barkley	-5707
▁becomes	-5708
▁carroll	-5709
▁content	-5710
▁enforce	-5711
▁experts	-5712
▁faction	-5713
▁failure	-5714
▁fashion	-5715
▁greatly	-5716
▁greeley	-5717
▁heroism	-5718
▁holiday	-5719
▁honored	-5720
▁italian	-5721
▁neutral	-5722
▁players	-5723
▁pledged	-5724
▁portray	-5725
▁reforms	-5726
▁reorgan	-5727
▁replace	-5728
▁resumed	-5729
▁selling	-5730
▁signing	-5731
▁strengt	-5732
▁tickets	-5733
▁wealthy	-5734
▁accident	-5735
▁accounts	-5736
▁arrested	-5737
▁aviation	-5738
▁breaking	-5739
▁disaster	-5740
▁fighting	-5741
▁hawaiian	-5742
▁interred	-5743
▁normally	-5744
▁pulitzer	-5745
▁remember	-5746
▁seamount	-5747
▁australia	-5748
▁direction	-5749
▁immigrant	-5750
▁ownership	-5751
▁procedure	-5752
▁proposals	-5753
▁provision	-5754
▁returning	-5755
▁suggested	-5756
▁businesses	-5757
▁gettysburg	-5758
▁membership	-5759
▁nominating	-5760
▁performing	-5761
▁proclaimed	-5762
▁application	-5763
▁campaigning	-5764
▁coordinator	-5765
▁distinction	-5766
▁minneapolis	-5767
▁substantial	-5768
▁agricultural	-5769
▁consistently	-5770
cl	-5771
gu	-5772
aha	-5773
aur	-5774
bar	-5775
col	-5776
gal	-5777
ila	-5778
irk	-5779
ski	-5780
▁cz	-5781
▁hm	-5782
▁lb	-5783
▁ow	-5784
▁wm	-5785
airs	-5786
alle	-5787
cted	-5788
icia	-5789
idon	-5790
iser	-5791
itch	-5792
math	-5793
▁alf	-5794
▁amn	-5795
▁bea	-5796
▁bio	-5797
▁cow	-5798
▁duk	-5799
▁dyn	-5800
▁gop	-5801
▁lay	-5802
▁nbc	-5803
▁rug	-5804
▁tie	-5805
▁tra	-5806
iscop	-5807
isive	-5808
keley	-5809
pread	-5810
ptive	-5811
▁astr	-5812
▁bowl	-5813
▁cole	-5814
▁dang	-5815
▁data	-5816
▁dict	-5817
▁dole	-5818
▁lanc	-5819
▁loss	-5820
▁pine	-5821
▁ruth	-5822
▁sull	-5823
▁tamp	-5824
▁told	-5825
anches	-5826
lusion	-5827
▁anton	-5828
▁aside	-5829
▁chann	-5830
▁diagn	-5831
▁doing	-5832
▁drive	-5833
▁emory	-5834
▁enact	-5835
▁evans	-5836
▁fried	-5837
▁girls	-5838
▁grade	-5839
▁jerry	-5840
▁needs	-5841
▁races	-5842
▁rates	-5843
▁satir	-5844
▁sites	-5845
▁susan	-5846
▁table	-5847
▁welsh	-5848
ensions	-5849
esville	-5850
▁argent	-5851
▁arnold	-5852
▁becker	-5853
▁castle	-5854
▁counts	-5855
▁denied	-5856
▁destro	-5857
▁dollar	-5858
▁dunham	-5859
▁falley	-5860
▁launch	-5861
▁mobile	-5862
▁muskie	-5863
▁orient	-5864
▁oxford	-5865
▁plural	-5866
▁prompt	-5867
▁slight	-5868
▁spirit	-5869
▁spokes	-5870
▁spread	-5871
▁stuart	-5872
atherine	-5873
▁alcohol	-5874
▁aldrich	-5875
▁assault	-5876
▁centers	-5877
▁chaired	-5878
▁dinners	-5879
▁episcop	-5880
▁evening	-5881
▁fighter	-5882
▁heights	-5883
▁joining	-5884
▁painter	-5885
▁profile	-5886
▁promise	-5887
▁quickly	-5888
▁seasons	-5889
▁surgeon	-5890
▁zealand	-5891
ibilities	-5892
▁advanced	-5893
▁advisers	-5894
▁airlines	-5895
▁approach	-5896
▁berkeley	-5897
▁colleges	-5898
▁earliest	-5899
▁imperial	-5900
▁jonathan	-5901
▁manpower	-5902
▁pakistan	-5903
▁perspect	-5904
▁presided	-5905
▁protests	-5906
▁province	-5907
▁sullivan	-5908
▁teaching	-5909
▁addressed	-5910
▁aftermath	-5911
▁arlington	-5912
▁christmas	-5913
▁destroyed	-5914
▁dickinson	-5915
▁expressed	-5916
▁librarian	-5917
▁locations	-5918
▁materials	-5919
▁oversight	-5920
▁philosoph	-5921
▁regularly	-5922
▁secondary	-5923
▁underwood	-5924
▁watergate	-5925
▁campaigned	-5926
▁consultant	-5927
▁consulting	-5928
▁conviction	-5929
▁interviews	-5930
▁prominence	-5931
▁widespread	-5932
▁cooperation	-5933
▁designation	-5934
▁effectively	-5935
▁replacement	-5936
▁achievements	-5937
▁authorization	-5938
▁determination	-5939
▁undergraduate	-5940
any	-5941
aph	-5942
bec	-5943
cow	-5944
gas	-5945
iar	-5946
rig	-5947
rof	-5948
▁cv	-5949
▁gw	-5950
▁lu	-5951
▁od	-5952
aval	-5953
dney	-5954
fare	-5955
king	-5956
mann	-5957
olif	-5958
▁bab	-5959
▁bom	-5960
▁byr	-5961
▁jeb	-5962
▁lin	-5963
▁osc	-5964
▁sta	-5965
▁sud	-5966
▁ton	-5967
▁tun	-5968
akers	-5969
enger	-5970
iking	-5971
iling	-5972
offic	-5973
oring	-5974
ullin	-5975
▁atom	-5976
▁bend	-5977
▁boyl	-5978
▁door	-5979
▁draw	-5980
▁eman	-5981
▁eval	-5982
▁gang	-5983
▁gram	-5984
▁iron	-5985
▁lies	-5986
▁loan	-5987
▁lord	-5988
▁marc	-5989
▁merc	-5990
▁nato	-5991
▁pear	-5992
▁pent	-5993
▁peru	-5994
▁rear	-5995
▁sale	-5996
▁slov	-5997
▁surr	-5998
▁thur	-5999
▁tony	-6000
▁wear	-6001
▁yale	-6002
asters	-6003
▁aband	-6004
▁basic	-6005
▁blair	-6006
▁blood	-6007
▁bloom	-6008
▁broke	-6009
▁cited	-6010
▁crook	-6011
▁dates	-6012
▁drawn	-6013
▁goals	-6014
▁label	-6015
▁larry	-6016
▁leads	-6017
▁rober	-6018
▁score	-6019
▁skill	-6020
▁surpr	-6021
▁towns	-6022
▁truth	-6023
▁unpre	-6024
▁watch	-6025
chester	-6026
redited	-6027
western	-6028
▁chance	-6029
▁compos	-6030
▁denver	-6031
▁detail	-6032
▁ensure	-6033
▁entity	-6034
▁gentle	-6035
▁karate	-6036
▁kinder	-6037
▁moment	-6038
▁moscow	-6039
▁motion	-6040
▁pieces	-6041
▁pledge	-6042
▁proper	-6043
▁recall	-6044
▁refuge	-6045
▁remark	-6046
▁rivers	-6047
▁saying	-6048
▁showed	-6049
▁signal	-6050
▁stands	-6051
▁supply	-6052
▁taught	-6053
▁tribes	-6054
▁volume	-6055
▁wright	-6056
▁closely	-6057
▁collins	-6058
▁martial	-6059
▁oversaw	-6060
▁powered	-6061
▁produce	-6062
▁showing	-6063
▁sixteen	-6064
▁tariffs	-6065
▁traffic	-6066
▁unoffic	-6067
▁whitman	-6068
▁writers	-6069
▁assisted	-6070
▁biograph	-6071
▁boylston	-6072
▁branches	-6073
▁colonies	-6074
▁describe	-6075
▁employee	-6076
▁existing	-6077
▁huntsman	-6078
▁inactive	-6079
▁inventor	-6080
▁jennings	-6081
▁learning	-6082
▁lecturer	-6083
▁lifetime	-6084
▁preserve	-6085
▁priority	-6086
▁randolph	-6087
▁rejected	-6088
▁santorum	-6089
▁schedule	-6090
▁shortest	-6091
▁spyridon	-6092
▁survived	-6093
▁thirteen	-6094
▁vehicles	-6095
▁displayed	-6096
▁episcopal	-6097
▁libraries	-6098
▁methodist	-6099
▁practices	-6100
▁specified	-6101
▁thousands	-6102
oliferation	-6103
▁biographer	-6104
▁commanders	-6105
▁influenced	-6106
▁relatively	-6107
▁succeeding	-6108
▁implemented	-6109
▁presumptive	-6110
▁transferred	-6111
▁announcement	-6112
▁negotiations	-6113
▁overwhelming	-6114
▁posthumously	-6115
▁conservatives	-6116
▁participation	-6117
▁recommendations	-6118
▁spanishamerican	-6119
nc	-6120
no	-6121
ua	-6122
arm	-6123
bon	-6124
gbt	-6125
mes	-6126
oke	-6127
▁cm	-6128
▁kw	-6129
▁mi	-6130
▁rm	-6131
▁ru	-6132
acco	-6133
asts	-6134
folk	-6135
oard	-6136
ocol	-6137
rees	-6138
ufel	-6139
▁arc	-6140
▁bod	-6141
▁eld	-6142
▁ere	-6143
▁jag	-6144
▁las	-6145
▁len	-6146
▁nol	-6147
▁obl	-6148
▁odd	-6149
▁raw	-6150
▁sel	-6151
▁tac	-6152
▁why	-6153
▁wmr	-6154
acial	-6155
andum	-6156
astic	-6157
board	-6158
break	-6159
build	-6160
dwell	-6161
fully	-6162
iture	-6163
kling	-6164
known	-6165
osite	-6166
▁andy	-6167
▁anne	-6168
▁bald	-6169
▁belg	-6170
▁benn	-6171
▁dram	-6172
▁herm	-6173
▁idea	-6174
▁join	-6175
▁lawn	-6176
▁luth	-6177
▁moon	-6178
▁roll	-6179
▁symp	-6180
▁trav	-6181
▁unus	-6182
▁webb	-6183
▁wolf	-6184
ingham	-6185
passed	-6186
pected	-6187
person	-6188
terson	-6189
thorne	-6190
▁absol	-6191
▁bruce	-6192
▁equip	-6193
▁false	-6194
▁intel	-6195
▁intra	-6196
▁leave	-6197
▁linda	-6198
▁nance	-6199
▁notes	-6200
▁persu	-6201
▁rated	-6202
▁santa	-6203
▁vocal	-6204
▁whigs	-6205
▁whole	-6206
ception	-6207
ictions	-6208
ocation	-6209
▁centre	-6210
▁conver	-6211
▁dignit	-6212
▁double	-6213
▁edmond	-6214
▁eleven	-6215
▁escape	-6216
▁herald	-6217
▁legacy	-6218
▁mathem	-6219
▁morgan	-6220
▁moving	-6221
▁orange	-6222
▁paraly	-6223
▁plains	-6224
▁porter	-6225
▁teufel	-6226
▁thanks	-6227
▁things	-6228
▁tribal	-6229
▁vessel	-6230
▁wolver	-6231
cedented	-6232
▁absence	-6233
▁anthony	-6234
▁arrived	-6235
▁channel	-6236
▁compete	-6237
▁consequ	-6238
▁descent	-6239
▁digital	-6240
▁dollars	-6241
▁dukakis	-6242
▁erected	-6243
▁failing	-6244
▁fellows	-6245
▁fratern	-6246
▁goodell	-6247
▁keeping	-6248
▁pitcher	-6249
▁planter	-6250
▁provinc	-6251
▁roberts	-6252
▁singles	-6253
▁sources	-6254
▁thought	-6255
▁tobacco	-6256
▁unknown	-6257
▁birthday	-6258
▁broadway	-6259
▁caldwell	-6260
▁composer	-6261
▁conkling	-6262
▁electric	-6263
▁enrolled	-6264
▁entitled	-6265
▁favorite	-6266
▁identify	-6267
▁mcmullin	-6268
▁networks	-6269
▁opinions	-6270
▁opposite	-6271
▁outbreak	-6272
▁relating	-6273
▁situated	-6274
▁strength	-6275
▁subordin	-6276
▁adventure	-6277
▁astronaut	-6278
▁attracted	-6279
▁ballistic	-6280
▁combatant	-6281
▁continues	-6282
▁destroyer	-6283
▁elsewhere	-6284
▁endowment	-6285
▁essential	-6286
▁knowledge	-6287
▁patterson	-6288
▁something	-6289
▁temporary	-6290
▁transform	-6291
▁universal	-6292
▁associates	-6293
▁charleston	-6294
▁credential	-6295
▁employment	-6296
▁identified	-6297
▁louisville	-6298
▁memorandum	-6299
▁strengthen	-6300
▁ambassadors	-6301
▁certificate	-6302
▁micropolitan	-6303
▁photographer	-6304
▁unprecedented	-6305
▁representation	-6306
zz	-6307
agg	-6308
aks	-6309
apt	-6310
gie	-6311
isa	-6312
isf	-6313
lem	-6314
rie	-6315
uch	-6316
▁ft	-6317
▁vc	-6318
boro	-6319
lock	-6320
omac	-6321
pret	-6322
▁aub	-6323
▁bat	-6324
▁bes	-6325
▁bic	-6326
▁cob	-6327
▁coc	-6328
▁cyr	-6329
▁gol	-6330
▁hur	-6331
▁mir	-6332
▁pad	-6333
▁ped	-6334
▁sto	-6335
banks	-6336
berry	-6337
enton	-6338
scape	-6339
veill	-6340
ymour	-6341
▁alph	-6342
▁brow	-6343
▁find	-6344
▁hyde	-6345
▁jill	-6346
▁male	-6347
▁mend	-6348
▁pack	-6349
▁raid	-6350
▁shut	-6351
▁stra	-6352
▁text	-6353
▁trip	-6354
▁util	-6355
estead	-6356
opular	-6357
overty	-6358
sville	-6359
▁alger	-6360
▁arena	-6361
▁asian	-6362
▁autob	-6363
▁badge	-6364
▁boxer	-6365
▁elder	-6366
▁encom	-6367
▁hands	-6368
▁julia	-6369
▁luthi	-6370
▁metal	-6371
▁mixed	-6372
▁mobil	-6373
▁oscar	-6374
▁panel	-6375
▁presc	-6376
▁price	-6377
▁rugby	-6378
▁sense	-6379
▁steel	-6380
▁store	-6381
▁theor	-6382
▁worst	-6383
artisan	-6384
▁afford	-6385
▁arrest	-6386
▁assert	-6387
▁banker	-6388
▁bayard	-6389
▁berlin	-6390
▁butler	-6391
▁colleg	-6392
▁comics	-6393
▁conway	-6394
▁copies	-6395
▁couple	-6396
▁discip	-6397
▁domain	-6398
▁durham	-6399
▁golden	-6400
▁grades	-6401
▁heller	-6402
▁hudson	-6403
▁leslie	-6404
▁matter	-6405
▁mental	-6406
▁merged	-6407
▁morris	-6408
▁panama	-6409
▁patent	-6410
▁patron	-6411
▁repeal	-6412
▁subsid	-6413
▁sydney	-6414
▁transl	-6415
▁trophy	-6416
▁winter	-6417
▁authors	-6418
▁automob	-6419
▁baronet	-6420
▁correct	-6421
▁decline	-6422
▁devoted	-6423
▁earning	-6424
▁enterpr	-6425
▁focuses	-6426
▁fremont	-6427
▁gregory	-6428
▁indones	-6429
▁jeffrey	-6430
▁matthew	-6431
▁midship	-6432
▁pardons	-6433
▁pioneer	-6434
▁potomac	-6435
▁poverty	-6436
▁reading	-6437
▁seymour	-6438
▁theatre	-6439
▁timothy	-6440
▁vehicle	-6441
veillance	-6442
▁accompan	-6443
▁assassin	-6444
▁boundary	-6445
▁brooklyn	-6446
▁constitu	-6447
▁contrast	-6448
▁designer	-6449
▁disputes	-6450
▁founders	-6451
▁identity	-6452
▁langford	-6453
▁millions	-6454
▁novelist	-6455
▁populist	-6456
▁prepared	-6457
▁sections	-6458
▁software	-6459
▁centuries	-6460
▁consisted	-6461
▁discovery	-6462
▁dismissed	-6463
▁execution	-6464
▁fairbanks	-6465
▁formation	-6466
▁hermitage	-6467
▁homestead	-6468
▁interpret	-6469
▁lancaster	-6470
▁passenger	-6471
▁plurality	-6472
▁portraits	-6473
▁protected	-6474
▁recording	-6475
▁reelected	-6476
▁scheduled	-6477
▁stockdale	-6478
▁surviving	-6479
▁unpopular	-6480
▁litigation	-6481
▁possession	-6482
▁remembered	-6483
▁volunteers	-6484
▁wolverines	-6485
▁appearances	-6486
▁residential	-6487
▁segregation	-6488
▁abolitionist	-6489
▁manufacturer	-6490
▁surveillance	-6491
▁parliamentary	-6492
▁investigations	-6493
▁philanthropist	-6494
▁accomplishments	-6495
▁mexicanamerican	-6496
bl	-6497
gs	-6498
ri	-6499
adr	-6500
aki	-6501
ami	-6502
ioc	-6503
kes	-6504
ora	-6505
ums	-6506
zel	-6507
▁hh	-6508
alia	-6509
arus	-6510
down	-6511
haps	-6512
hell	-6513
iden	-6514
inee	-6515
iwan	-6516
lets	-6517
ollo	-6518
onto	-6519
rent	-6520
ting	-6521
▁asc	-6522
▁dre	-6523
▁fat	-6524
▁got	-6525
▁myr	-6526
▁nau	-6527
▁ply	-6528
▁pus	-6529
▁ras	-6530
▁rid	-6531
▁scr	-6532
▁sym	-6533
▁tri	-6534
▁ves	-6535
abled	-6536
agher	-6537
elong	-6538
ipper	-6539
ouses	-6540
ucing	-6541
utory	-6542
▁anna	-6543
▁bayh	-6544
▁bust	-6545
▁cars	-6546
▁drew	-6547
▁folk	-6548
▁garr	-6549
▁ging	-6550
▁holy	-6551
▁impl	-6552
▁inel	-6553
▁josh	-6554
▁jury	-6555
▁lgbt	-6556
▁mind	-6557
▁mist	-6558
▁mock	-6559
▁neil	-6560
▁path	-6561
▁rate	-6562
▁reed	-6563
▁reid	-6564
▁riot	-6565
▁risk	-6566
▁sche	-6567
▁schm	-6568
▁wade	-6569
▁zone	-6570
ayette	-6571
gerald	-6572
icient	-6573
itness	-6574
mother	-6575
ominee	-6576
▁adult	-6577
▁affir	-6578
▁booth	-6579
▁caval	-6580
▁clean	-6581
▁crick	-6582
▁cuban	-6583
▁doors	-6584
▁engag	-6585
▁gives	-6586
▁glenn	-6587
▁helen	-6588
▁laura	-6589
▁occur	-6590
▁opera	-6591
▁piece	-6592
▁quant	-6593
▁renov	-6594
▁steps	-6595
▁uncon	-6596
▁woodh	-6597
▁aboard	-6598
▁atomic	-6599
▁backed	-6600
▁baines	-6601
▁belong	-6602
▁boards	-6603
▁eldest	-6604
▁factor	-6605
▁friday	-6606
▁hearst	-6607
▁hearts	-6608
▁hispan	-6609
▁ninety	-6610
▁offers	-6611
▁option	-6612
▁plaque	-6613
▁queens	-6614
▁retail	-6615
▁reveal	-6616
▁supern	-6617
▁taiwan	-6618
▁vision	-6619
▁antonio	-6620
▁apprent	-6621
▁believe	-6622
▁boyhood	-6623
▁calling	-6624
▁cartoon	-6625
▁chronic	-6626
▁contrib	-6627
▁counted	-6628
▁farmers	-6629
▁illustr	-6630
▁manning	-6631
▁operate	-6632
▁perhaps	-6633
▁polling	-6634
▁prestig	-6635
▁prosper	-6636
▁raising	-6637
▁randall	-6638
▁ratings	-6639
▁reasons	-6640
▁restaur	-6641
▁roughly	-6642
▁stanley	-6643
▁toronto	-6644
▁activity	-6645
▁caroline	-6646
▁centered	-6647
▁columbus	-6648
▁contests	-6649
▁decisive	-6650
▁hundreds	-6651
▁improved	-6652
▁instruct	-6653
▁lifelong	-6654
▁nicholas	-6655
▁pentagon	-6656
▁pictures	-6657
▁plymouth	-6658
▁religion	-6659
▁retained	-6660
▁retiring	-6661
▁schuster	-6662
▁strongly	-6663
▁struggle	-6664
▁swearing	-6665
▁versions	-6666
▁admission	-6667
▁collector	-6668
▁cricketer	-6669
▁equipment	-6670
▁gallagher	-6671
▁lexington	-6672
▁menominee	-6673
▁primetime	-6674
▁resulting	-6675
▁robertson	-6676
▁seriously	-6677
▁uniformed	-6678
▁ceremonies	-6679
▁collegiate	-6680
▁electronic	-6681
▁fitzgerald	-6682
▁innovation	-6683
▁legislator	-6684
▁originated	-6685
▁prohibited	-6686
▁songwriter	-6687
▁withdrawal	-6688
▁commentator	-6689
▁credentials	-6690
▁dignitaries	-6691
▁recommended	-6692
ae	-6693
kw	-6694
aco	-6695
ani	-6696
auf	-6697
azz	-6698
bed	-6699
eck	-6700
fel	-6701
law	-6702
ram	-6703
ros	-6704
sey	-6705
▁gi	-6706
▁lt	-6707
▁mp	-6708
ache	-6709
acts	-6710
aire	-6711
come	-6712
enia	-6713
gypt	-6714
icas	-6715
idel	-6716
lain	-6717
life	-6718
orse	-6719
otic	-6720
ucin	-6721
uire	-6722
usal	-6723
vant	-6724
▁atm	-6725
▁bol	-6726
▁mah	-6727
▁mut	-6728
▁rut	-6729
antly	-6730
child	-6731
elfth	-6732
icing	-6733
icken	-6734
iller	-6735
inity	-6736
ludes	-6737
lying	-6738
osure	-6739
rofit	-6740
roots	-6741
urers	-6742
▁answ	-6743
▁belt	-6744
▁boss	-6745
▁bott	-6746
▁brid	-6747
▁cair	-6748
▁chur	-6749
▁cron	-6750
▁debs	-6751
▁glac	-6752
▁kind	-6753
▁kirk	-6754
▁lose	-6755
▁pair	-6756
▁sacr	-6757
▁semi	-6758
▁stro	-6759
▁toll	-6760
▁twin	-6761
▁unex	-6762
▁wads	-6763
▁ways	-6764
▁wend	-6765
bright	-6766
ellate	-6767
nesday	-6768
ughter	-6769
▁aimed	-6770
▁baker	-6771
▁banks	-6772
▁bever	-6773
▁brick	-6774
▁cable	-6775
▁canal	-6776
▁chris	-6777
▁debut	-6778
▁doubl	-6779
▁egypt	-6780
▁fired	-6781
▁fresh	-6782
▁ideas	-6783
▁irwin	-6784
▁kelly	-6785
▁kings	-6786
▁lakes	-6787
▁laure	-6788
▁mauck	-6789
▁minds	-6790
▁nolan	-6791
▁nonpr	-6792
▁quadr	-6793
▁rapid	-6794
▁rubin	-6795
▁sally	-6796
▁sixty	-6797
▁solic	-6798
▁speed	-6799
▁stood	-6800
actions	-6801
iciency	-6802
▁actors	-6803
▁adjust	-6804
▁allies	-6805
▁assess	-6806
▁burson	-6807
▁corpus	-6808
▁danger	-6809
▁dinner	-6810
▁disapp	-6811
▁enlist	-6812
▁exempt	-6813
▁exists	-6814
▁habeas	-6815
▁hannah	-6816
▁harvey	-6817
▁lessig	-6818
▁manage	-6819
▁midter	-6820
▁planet	-6821
▁remove	-6822
▁sawyer	-6823
▁schwar	-6824
▁search	-6825
▁struck	-6826
▁surviv	-6827
▁topics	-6828
▁willes	-6829
▁achieve	-6830
▁aggress	-6831
▁amnesty	-6832
▁charlie	-6833
▁concert	-6834
▁convinc	-6835
▁fifteen	-6836
▁frances	-6837
▁gallery	-6838
▁granite	-6839
▁illness	-6840
▁injured	-6841
▁keating	-6842
▁norfolk	-6843
▁painted	-6844
▁persian	-6845
▁praised	-6846
▁pursued	-6847
▁resting	-6848
▁retreat	-6849
▁revised	-6850
▁segment	-6851
▁servant	-6852
▁spouses	-6853
▁sustain	-6854
▁twelfth	-6855
▁unusual	-6856
abilities	-6857
▁audience	-6858
▁category	-6859
▁choosing	-6860
▁churches	-6861
▁clemency	-6862
▁currency	-6863
▁garrison	-6864
▁literary	-6865
▁missiles	-6866
▁namesake	-6867
▁negative	-6868
▁obtained	-6869
▁probably	-6870
▁pursuant	-6871
▁relative	-6872
▁scandals	-6873
▁slightly	-6874
▁woodhull	-6875
▁acknowled	-6876
▁appellate	-6877
▁argentina	-6878
▁athletics	-6879
▁connected	-6880
▁decorated	-6881
▁distribut	-6882
▁economist	-6883
▁furniture	-6884
▁inflation	-6885
▁intellect	-6886
▁maintains	-6887
▁nathaniel	-6888
▁negotiate	-6889
▁nonprofit	-6890
▁offensive	-6891
▁pendleton	-6892
▁premiered	-6893
▁principle	-6894
▁statutory	-6895
▁suffering	-6896
▁traveling	-6897
▁wednesday	-6898
▁wentworth	-6899
▁accredited	-6900
▁affiliated	-6901
▁automobile	-6902
▁commandant	-6903
▁conclusion	-6904
▁connection	-6905
▁containing	-6906
▁discussion	-6907
▁excellence	-6908
▁geographic	-6909
▁grassroots	-6910
▁industries	-6911
▁percentage	-6912
▁prosperity	-6913
▁recreation	-6914
▁regulation	-6915
▁unofficial	-6916
▁advertising	-6917
▁connections	-6918
▁establishes	-6919
▁observatory	-6920
▁opportunity	-6921
▁possibility	-6922
▁concurrently	-6923
▁jacksonville	-6924
▁confederation	-6925
▁installations	-6926
▁significantly	-6927
cr	-6928
ih	-6929
ls	-6930
oe	-6931
za	-6932
▁+	-6933
asi	-6934
aza	-6935
bro	-6936
idt	-6937
pin	-6938
ulu	-6939
▁dy	-6940
▁ku	-6941
▁nc	-6942
aces	-6943
aman	-6944
ardt	-6945
atin	-6946
bian	-6947
ethe	-6948
etic	-6949
iatr	-6950
iker	-6951
ikes	-6952
illy	-6953
lass	-6954
mine	-6955
rain	-6956
reys	-6957
ufus	-6958
ugar	-6959
ylan	-6960
▁ali	-6961
▁bun	-6962
▁cbs	-6963
▁cry	-6964
▁gif	-6965
▁hip	-6966
▁ine	-6967
▁lam	-6968
▁loy	-6969
▁lyr	-6970
▁nic	-6971
▁ott	-6972
▁spy	-6973
ading	-6974
aukee	-6975
avana	-6976
earns	-6977
ercul	-6978
iator	-6979
icide	-6980
iffin	-6981
issau	-6982
nered	-6983
olulu	-6984
owers	-6985
sketh	-6986
smith	-6987
space	-6988
▁adam	-6989
▁aged	-6990
▁bass	-6991
▁bind	-6992
▁brew	-6993
▁burn	-6994
▁cant	-6995
▁craw	-6996
▁drop	-6997
▁exit	-6998
▁felt	-6999
▁ferb	-7000
▁file	-7001
▁finn	-7002
▁fore	-7003
▁gift	-7004
▁guil	-7005
▁holl	-7006
▁inde	-7007
▁juan	-7008
▁kath	-7009
▁knox	-7010
▁mcsn	-7011
▁mini	-7012
▁narc	-7013
▁neur	-7014
▁palm	-7015
▁pant	-7016
▁pian	-7017
▁rain	-7018
▁rare	-7019
▁ring	-7020
▁rush	-7021
▁sell	-7022
▁send	-7023
▁stem	-7024
▁uscf	-7025
▁wart	-7026
▁wins	-7027
ampton	-7028
antage	-7029
engers	-7030
giving	-7031
iocese	-7032
ipping	-7033
▁accus	-7034
▁acted	-7035
▁arbit	-7036
▁arose	-7037
▁bases	-7038
▁behav	-7039
▁cabin	-7040
▁cairo	-7041
▁check	-7042
▁coats	-7043
▁crowd	-7044
▁cyrus	-7045
▁edwin	-7046
▁ellen	-7047
▁falls	-7048
▁forth	-7049
▁guide	-7050
▁kaine	-7051
▁kucin	-7052
▁rigid	-7053
▁rufus	-7054
▁weiss	-7055
endered	-7056
igrated	-7057
ilation	-7058
mington	-7059
▁alfred	-7060
▁atmosp	-7061
▁attrib	-7062
▁bissau	-7063
▁chairs	-7064
▁colony	-7065
▁colors	-7066
▁desert	-7067
▁dolvin	-7068
▁funded	-7069
▁fundra	-7070
▁golfer	-7071
▁holmes	-7072
▁inches	-7073
▁inspir	-7074
▁marble	-7075
▁moines	-7076
▁murphy	-7077
▁obtain	-7078
▁postal	-7079
▁rising	-7080
▁spouse	-7081
▁syrian	-7082
▁vetoed	-7083
▁weaver	-7084
▁worker	-7085
building	-7086
ilateral	-7087
▁arrival	-7088
▁augusta	-7089
▁belgium	-7090
▁bombing	-7091
▁closest	-7092
▁concord	-7093
▁courage	-7094
▁customs	-7095
▁degrees	-7096
▁evolved	-7097
▁freeway	-7098
▁fricker	-7099
▁fulfill	-7100
▁glacier	-7101
▁hesketh	-7102
▁hopkins	-7103
▁invited	-7104
▁leonard	-7105
▁midterm	-7106
▁monarch	-7107
▁pattern	-7108
▁periods	-7109
▁streets	-7110
▁subcomm	-7111
▁tribune	-7112
▁tribute	-7113
▁warfare	-7114
erculosis	-7115
igibility	-7116
▁airspace	-7117
▁alliance	-7118
▁bankrupt	-7119
▁benefits	-7120
▁bestowed	-7121
▁bringing	-7122
▁changing	-7123
▁commands	-7124
▁disputed	-7125
▁elbridge	-7126
▁entities	-7127
▁excluded	-7128
▁expected	-7129
▁frequent	-7130
▁frontier	-7131
▁highways	-7132
▁hispanic	-7133
▁honolulu	-7134
▁kucinich	-7135
▁lobbying	-7136
▁medicine	-7137
▁nominate	-7138
▁severely	-7139
▁victoria	-7140
▁abandoned	-7141
▁classical	-7142
▁diagnosed	-7143
▁divisions	-7144
▁edmondson	-7145
▁extension	-7146
▁finishing	-7147
▁household	-7148
▁indonesia	-7149
▁integrity	-7150
▁intention	-7151
▁landscape	-7152
▁perceived	-7153
▁privately	-7154
▁signature	-7155
▁apprentice	-7156
▁continuing	-7157
▁expression	-7158
▁literature	-7159
▁midshipmen	-7160
▁nineteenth	-7161
▁personally	-7162
▁preserving	-7163
▁represents	-7164
▁violations	-7165
▁appropriate	-7166
▁commemorate	-7167
▁legislators	-7168
▁perspective	-7169
▁threatening	-7170
▁considerable	-7171
▁corporations	-7172
▁increasingly	-7173
▁performances	-7174
▁presidencies	-7175
▁tuberculosis	-7176
▁architectural	-7177
▁communication	-7178
▁implementation	-7179
▁charlottesville	-7180
eh	-7181
ki	-7182
sd	-7183
aka	-7184
ali	-7185
amo	-7186
atz	-7187
awa	-7188
bal	-7189
cip	-7190
ext	-7191
gus	-7192
jev	-7193
lar	-7194
lim	-7195
met	-7196
onz	-7197
osa	-7198
oud	-7199
rac	-7200
ube	-7201
▁ov	-7202
▁pt	-7203
▁ty	-7204
alde	-7205
aney	-7206
auth	-7207
book	-7208
case	-7209
empl	-7210
geor	-7211
gery	-7212
hele	-7213
iken	-7214
ilit	-7215
inan	-7216
john	-7217
laim	-7218
oric	-7219
pers	-7220
rist	-7221
▁ago	-7222
▁ast	-7223
▁bip	-7224
▁bos	-7225
▁enr	-7226
▁gut	-7227
▁lot	-7228
▁lov	-7229
▁opt	-7230
▁phi	-7231
▁raf	-7232
▁riv	-7233
▁swe	-7234
▁vor	-7235
aires	-7236
drome	-7237
eless	-7238
etown	-7239
front	-7240
helle	-7241
olics	-7242
ribed	-7243
throp	-7244
uable	-7245
ucker	-7246
▁ally	-7247
▁beat	-7248
▁blin	-7249
▁evan	-7250
▁fish	-7251
▁gamb	-7252
▁hanc	-7253
▁hugh	-7254
▁hung	-7255
▁impr	-7256
▁masc	-7257
▁mild	-7258
▁milw	-7259
▁plus	-7260
▁prez	-7261
▁pure	-7262
▁safe	-7263
▁soap	-7264
▁soil	-7265
▁stev	-7266
▁tact	-7267
▁tool	-7268
▁wire	-7269
agojev	-7270
coming	-7271
luding	-7272
mental	-7273
ultane	-7274
urring	-7275
▁accur	-7276
▁carne	-7277
▁casey	-7278
▁codes	-7279
▁consc	-7280
▁craft	-7281
▁disag	-7282
▁emper	-7283
▁entry	-7284
▁fever	-7285
▁ghost	-7286
▁goods	-7287
▁hosts	-7288
▁islam	-7289
▁items	-7290
▁kevin	-7291
▁loyal	-7292
▁lugar	-7293
▁match	-7294
▁mills	-7295
▁offer	-7296
▁panic	-7297
▁plays	-7298
▁quasi	-7299
▁randy	-7300
▁reach	-7301
▁riley	-7302
▁scene	-7303
▁shown	-7304
▁spark	-7305
▁talks	-7306
▁tampa	-7307
▁urged	-7308
▁usage	-7309
▁wyman	-7310
issance	-7311
tenance	-7312
▁abolaf	-7313
▁anyone	-7314
▁apollo	-7315
▁begins	-7316
▁button	-7317
▁canton	-7318
▁cathed	-7319
▁credit	-7320
▁deemed	-7321
▁enhanc	-7322
▁ethics	-7323
▁export	-7324
▁facial	-7325
▁facing	-7326
▁finals	-7327
▁graves	-7328
▁guilty	-7329
▁handic	-7330
▁incorp	-7331
▁lasted	-7332
▁lowell	-7333
▁mainly	-7334
▁muslim	-7335
▁myrick	-7336
▁noonan	-7337
▁notice	-7338
▁novels	-7339
▁openly	-7340
▁overlo	-7341
▁overth	-7342
▁prayer	-7343
▁rebell	-7344
▁revers	-7345
▁sewall	-7346
▁stayed	-7347
▁steaks	-7348
▁sweden	-7349
▁temple	-7350
▁towers	-7351
▁unions	-7352
▁vesper	-7353
atically	-7354
▁applied	-7355
▁approve	-7356
▁bishops	-7357
▁brigade	-7358
▁britton	-7359
▁carpent	-7360
▁casting	-7361
▁charter	-7362
▁colbert	-7363
▁colored	-7364
▁congreg	-7365
▁context	-7366
▁derived	-7367
▁discrim	-7368
▁diverse	-7369
▁drafted	-7370
▁emancip	-7371
▁fishing	-7372
▁hancock	-7373
▁indians	-7374
▁inspect	-7375
▁jointly	-7376
▁landing	-7377
▁liaison	-7378
▁massive	-7379
▁mcguire	-7380
▁memoirs	-7381
▁minutes	-7382
▁nothing	-7383
▁oakland	-7384
▁printed	-7385
▁railway	-7386
▁recount	-7387
▁renewed	-7388
▁thereby	-7389
▁timmons	-7390
▁trading	-7391
▁treason	-7392
▁underst	-7393
▁weather	-7394
▁willing	-7395
▁windows	-7396
agojevich	-7397
omination	-7398
▁actively	-7399
▁argument	-7400
▁cardinal	-7401
▁codified	-7402
▁crawford	-7403
▁drafting	-7404
▁feminist	-7405
▁focusing	-7406
▁hometown	-7407
▁humorous	-7408
▁kinderho	-7409
▁observed	-7410
▁outgoing	-7411
▁oversees	-7412
▁portions	-7413
▁presides	-7414
▁pressure	-7415
▁promised	-7416
▁reserves	-7417
▁stations	-7418
▁supports	-7419
▁syndrome	-7420
▁tensions	-7421
▁winthrop	-7422
▁catholics	-7423
▁challenge	-7424
▁chartered	-7425
▁columnist	-7426
▁commenced	-7427
▁conflicts	-7428
▁departure	-7429
▁diplomats	-7430
▁encompass	-7431
▁gallantry	-7432
▁gentleman	-7433
▁inherited	-7434
▁milwaukee	-7435
▁partially	-7436
▁patronage	-7437
▁recession	-7438
▁recognize	-7439
▁reformers	-7440
▁requested	-7441
▁requiring	-7442
▁simultane	-7443
▁spokesman	-7444
▁stationed	-7445
▁surrender	-7446
continental	-7447
▁attempting	-7448
▁bipartisan	-7449
▁boundaries	-7450
▁celebrated	-7451
▁challenges	-7452
▁developing	-7453
▁journalism	-7454
▁livingston	-7455
▁organizing	-7456
▁procedures	-7457
▁properties	-7458
▁resistance	-7459
▁subcommitt	-7460
▁authorizing	-7461
▁blagojevich	-7462
▁confederacy	-7463
▁conferences	-7464
▁determining	-7465
▁discussions	-7466
▁exceptional	-7467
▁experienced	-7468
▁grandmother	-7469
▁maintenance	-7470
▁participate	-7471
▁commentators	-7472
▁improvements	-7473
▁legislatures	-7474
▁northeastern	-7475
▁presentation	-7476
▁correspondent	-7477
▁demonstration	-7478
▁manufacturers	-7479
▁participating	-7480
▁proclamations	-7481
▁correspondence	-7482
▁discrimination	-7483
▁organizational	-7484
▁reorganization	-7485
▁administrations	-7486
fo	-7487
tt	-7488
agh	-7489
cel	-7490
cho	-7491
die	-7492
ece	-7493
ela	-7494
esc	-7495
itr	-7496
joy	-7497
omp	-7498
pac	-7499
rez	-7500
vet	-7501
▁cd	-7502
▁dh	-7503
▁ec	-7504
▁ky	-7505
▁lp	-7506
▁mn	-7507
▁ms	-7508
▁oy	-7509
▁pm	-7510
▁uv	-7511
▁va	-7512
aced	-7513
aked	-7514
apes	-7515
atio	-7516
brev	-7517
colm	-7518
feld	-7519
gger	-7520
gian	-7521
ging	-7522
gram	-7523
iani	-7524
iant	-7525
iman	-7526
ipke	-7527
ites	-7528
note	-7529
ores	-7530
phan	-7531
rest	-7532
▁bah	-7533
▁dal	-7534
▁dow	-7535
▁gib	-7536
▁hir	-7537
▁ilo	-7538
▁lbj	-7539
▁lor	-7540
▁mol	-7541
▁nfl	-7542
▁sag	-7543
▁sax	-7544
▁tab	-7545
▁ven	-7546
▁vig	-7547
aguay	-7548
ality	-7549
iques	-7550
maker	-7551
ordan	-7552
phone	-7553
uncan	-7554
urton	-7555
uttle	-7556
▁anim	-7557
▁auto	-7558
▁baby	-7559
▁cany	-7560
▁cash	-7561
▁clim	-7562
▁cook	-7563
▁core	-7564
▁daff	-7565
▁drum	-7566
▁gate	-7567
▁hang	-7568
▁hurr	-7569
▁jazz	-7570
▁karl	-7571
▁kidn	-7572
▁krem	-7573
▁lane	-7574
▁lank	-7575
▁ones	-7576
▁orth	-7577
▁owns	-7578
▁rall	-7579
▁rebu	-7580
▁save	-7581
▁spot	-7582
▁subd	-7583
▁thor	-7584
▁vast	-7585
▁weak	-7586
apping	-7587
author	-7588
berman	-7589
employ	-7590
itable	-7591
ivated	-7592
ospect	-7593
sonian	-7594
▁ahead	-7595
▁aiken	-7596
▁appar	-7597
▁begun	-7598
▁bluff	-7599
▁camer	-7600
▁claud	-7601
▁cloud	-7602
▁clubs	-7603
▁colin	-7604
▁coord	-7605
▁dylan	-7606
▁envoy	-7607
▁gates	-7608
▁glass	-7609
▁hoped	-7610
▁jacqu	-7611
▁lewin	-7612
▁loans	-7613
▁manif	-7614
▁merit	-7615
▁pearl	-7616
▁salem	-7617
▁scout	-7618
▁seeks	-7619
▁sides	-7620
▁spend	-7621
▁swing	-7622
▁wings	-7623
georgia	-7624
issions	-7625
unction	-7626
▁abbrev	-7627
▁albany	-7628
▁bodies	-7629
▁cadets	-7630
▁cattle	-7631
▁ceased	-7632
▁citing	-7633
▁cronin	-7634
▁divide	-7635
▁duncan	-7636
▁extrem	-7637
▁gravel	-7638
▁gulati	-7639
▁height	-7640
▁herman	-7641
▁hotels	-7642
▁legend	-7643
▁massac	-7644
▁mccorm	-7645
▁mormon	-7646
▁motorc	-7647
▁movies	-7648
▁norman	-7649
▁peters	-7650
▁portug	-7651
▁praise	-7652
▁repair	-7653
▁ricans	-7654
▁sailed	-7655
▁sequel	-7656
▁severe	-7657
▁spyros	-7658
▁stores	-7659
▁uvalde	-7660
▁analyst	-7661
▁ancient	-7662
▁artists	-7663
▁banking	-7664
▁belarus	-7665
▁bennett	-7666
▁browder	-7667
▁carlson	-7668
▁contain	-7669
▁damaged	-7670
▁deficit	-7671
▁details	-7672
▁holland	-7673
▁horatio	-7674
▁journey	-7675
▁lawsuit	-7676
▁manages	-7677
▁passing	-7678
▁physics	-7679
▁picture	-7680
▁problem	-7681
▁rangers	-7682
▁reality	-7683
▁reverse	-7684
▁revival	-7685
▁seventy	-7686
▁simpson	-7687
▁spaniel	-7688
▁stearns	-7689
▁suicide	-7690
▁swedish	-7691
▁testing	-7692
▁trained	-7693
▁trustee	-7694
▁uniform	-7695
▁witness	-7696
umberland	-7697
▁abolafia	-7698
▁absolute	-7699
▁activism	-7700
▁adoption	-7701
▁airfield	-7702
▁assuming	-7703
▁carnegie	-7704
▁compared	-7705
▁consumer	-7706
▁defended	-7707
▁emirates	-7708
▁enlisted	-7709
▁entirely	-7710
▁gingrich	-7711
▁hallinan	-7712
▁hurrican	-7713
▁indicted	-7714
▁indirect	-7715
▁michelle	-7716
▁modified	-7717
▁numbered	-7718
▁paraguay	-7719
▁princess	-7720
▁quarters	-7721
▁rankings	-7722
▁reducing	-7723
▁settlers	-7724
▁statutes	-7725
▁subjects	-7726
▁superior	-7727
▁supplies	-7728
▁unemploy	-7729
▁valuable	-7730
▁wildlife	-7731
▁writings	-7732
▁annapolis	-7733
▁arguments	-7734
▁carpenter	-7735
▁certified	-7736
▁convinced	-7737
▁describes	-7738
▁designate	-7739
▁developer	-7740
▁directive	-7741
▁discussed	-7742
▁exercised	-7743
▁humphreys	-7744
▁lieberman	-7745
▁memorials	-7746
▁penalties	-7747
▁pollution	-7748
▁popularly	-7749
▁proponent	-7750
▁rebellion	-7751
▁reception	-7752
▁recurring	-7753
▁replacing	-7754
▁resigning	-7755
▁sculpture	-7756
▁sentenced	-7757
▁stability	-7758
▁surpassed	-7759
▁televised	-7760
▁wadsworth	-7761
▁accordance	-7762
▁accounting	-7763
▁evaluation	-7764
▁ineligible	-7765
▁jacqueline	-7766
▁kinderhook	-7767
▁negotiated	-7768
▁occupation	-7769
▁protecting	-7770
▁regulatory	-7771
▁separately	-7772
▁techniques	-7773
▁circulation	-7774
▁congressmen	-7775
▁contributor	-7776
▁distinguish	-7777
▁exploratory	-7778
▁improvement	-7779
▁journalists	-7780
▁limitations	-7781
▁smithsonian	-7782
▁subordinate	-7783
▁unanimously	-7784
▁coordination	-7785
▁intellectual	-7786
▁introduction	-7787
▁thanksgiving	-7788
▁commemorative	-7789
▁opportunities	-7790
hl	-7791
ato	-7792
boy	-7793
dam	-7794
eav	-7795
hal	-7796
kan	-7797
loe	-7798
mor	-7799
pel	-7800
pic	-7801
pie	-7802
run	-7803
usa	-7804
▁ak	-7805
▁ga	-7806
▁nw	-7807
▁uc	-7808
▁ud	-7809
▁zo	-7810
abul	-7811
afal	-7812
ania	-7813
atch	-7814
care	-7815
eled	-7816
ella	-7817
enne	-7818
entr	-7819
hett	-7820
ibus	-7821
ieth	-7822
ille	-7823
inea	-7824
isms	-7825
iste	-7826
itar	-7827
itus	-7828
lift	-7829
many	-7830
omer	-7831
ooey	-7832
oush	-7833
rons	-7834
will	-7835
wing	-7836
yard	-7837
▁cvn	-7838
▁err	-7839
▁gap	-7840
▁hag	-7841
▁lev	-7842
▁llc	-7843
▁map	-7844
▁mik	-7845
▁omb	-7846
▁orc	-7847
▁peg	-7848
▁ric	-7849
▁shr	-7850
▁sri	-7851
▁uva	-7852
▁wes	-7853
acken	-7854
amage	-7855
angel	-7856
apple	-7857
arant	-7858
astro	-7859
edged	-7860
eding	-7861
endar	-7862
idity	-7863
ijing	-7864
illan	-7865
inian	-7866
inter	-7867
itals	-7868
orses	-7869
ounce	-7870
rator	-7871
sburg	-7872
ulter	-7873
umway	-7874
urray	-7875
▁barn	-7876
▁brun	-7877
▁byrd	-7878
▁cane	-7879
▁cher	-7880
▁clot	-7881
▁cran	-7882
▁ends	-7883
▁flat	-7884
▁giul	-7885
▁goes	-7886
▁harm	-7887
▁horn	-7888
▁iata	-7889
▁joan	-7890
▁kwon	-7891
▁mitc	-7892
▁nunc	-7893
▁otus	-7894
▁pool	-7895
▁pull	-7896
▁rams	-7897
▁salt	-7898
▁says	-7899
▁shad	-7900
▁sink	-7901
▁spur	-7902
▁stay	-7903
▁tend	-7904
▁usga	-7905
▁visa	-7906
▁vive	-7907
▁walk	-7908
▁weld	-7909
▁yout	-7910
amento	-7911
aments	-7912
chison	-7913
lewood	-7914
orates	-7915
ranton	-7916
retion	-7917
stream	-7918
terior	-7919
ursday	-7920
▁accum	-7921
▁allan	-7922
▁apost	-7923
▁apply	-7924
▁avery	-7925
▁balch	-7926
▁bobby	-7927
▁brain	-7928
▁brist	-7929
▁coles	-7930
▁destr	-7931
▁dyess	-7932
▁embar	-7933
▁enjoy	-7934
▁explo	-7935
▁filip	-7936
▁flown	-7937
▁gavel	-7938
▁hatch	-7939
▁indig	-7940
▁jesus	-7941
▁keith	-7942
▁marco	-7943
▁moder	-7944
▁motto	-7945
▁niece	-7946
▁oblig	-7947
▁recru	-7948
▁revel	-7949
▁rmich	-7950
▁shore	-7951
▁	-7952
e	-7953
t	-7954
a	-7955
n	-7956
i	-7957
o	-7958
s	-7959
r	-7960
h	-7961
d	-7962
l	-7963
c	-7964
u	-7965
m	-7966
f	-7967
p	-7968
g	-7969
w	-7970
y	-7971
b	-7972
,	-7973
.	-7974
v	-7975
<	-7976
>	-7977
N	-7978
k	-7979
|	-7980
j	-7981
)	-7982
(	-7983
x	-7984
z	-7985
q	-7986
:	-7987
;	-7988
[	-7989
]	-7990
!	-7991
+	-7992
_	-7993
=	-7994
^	-7995
