<unk>	0
<s>	0
</s>	0
▁t	-0
▁a	-1
he	-2
in	-3
er	-4
▁the	-5
▁,	-6
on	-7
▁s	-8
nd	-9
re	-10
▁w	-11
▁o	-12
ed	-13
is	-14
or	-15
at	-16
▁in	-17
an	-18
▁b	-19
en	-20
▁f	-21
it	-22
ar	-23
▁c	-24
▁and	-25
▁.	-26
al	-27
es	-28
▁of	-29
as	-30
▁p	-31
ing	-32
ic	-33
ro	-34
▁to	-35
▁m	-36
▁h	-37
ion	-38
le	-39
▁d	-40
▁S	-41
▁1	-42
ou	-43
il	-44
▁C	-45
▁A	-46
▁T	-47
ent	-48
st	-49
▁re	-50
am	-51
▁M	-52
el	-53
om	-54
▁is	-55
▁was	-56
▁l	-57
ol	-58
▁n	-59
▁B	-60
ad	-61
ct	-62
▁e	-63
ur	-64
ly	-65
▁on	-66
▁th	-67
▁for	-68
ch	-69
iv	-70
et	-71
▁he	-72
▁19	-73
▁P	-74
▁H	-75
▁-	-76
ir	-77
▁I	-78
ot	-79
ut	-80
▁g	-81
ig	-82
▁be	-83
id	-84
▁2	-85
im	-86
ce	-87
▁as	-88
us	-89
ow	-90
la	-91
ation	-92
ter	-93
▁The	-94
▁D	-95
▁R	-96
▁wh	-97
ra	-98
ith	-99
▁L	-100
▁st	-101
ers	-102
▁with	-103
▁F	-104
un	-105
▁N	-106
▁(	-107
▁)	-108
▁by	-109
▁G	-110
em	-111
▁W	-112
▁at	-113
▁J	-114
▁an	-115
ver	-116
th	-117
▁E	-118
▁al	-119
▁20	-120
ist	-121
ul	-122
rom	-123
ay	-124
her	-125
os	-126
ge	-127
▁his	-128
▁con	-129
est	-130
▁it	-131
um	-132
▁from	-133
ri	-134
▁that	-135
oc	-136
▁O	-137
▁de	-138
▁pro	-139
ber	-140
▁se	-141
ity	-142
▁com	-143
ich	-144
ain	-145
op	-146
▁v	-147
▁U	-148
av	-149
and	-150
od	-151
▁K	-152
ac	-153
art	-154
all	-155
up	-156
pe	-157
ate	-158
res	-159
if	-160
ian	-161
ill	-162
ew	-163
ia	-164
ated	-165
ud	-166
ak	-167
▁or	-168
ess	-169
igh	-170
ies	-171
▁In	-172
ore	-173
ab	-174
ort	-175
ld	-176
▁which	-177
▁St	-178
ard	-179
nt	-180
▁are	-181
ag	-182
▁r	-183
ub	-184
gh	-185
▁ch	-186
ear	-187
ov	-188
orn	-189
ant	-190
qu	-191
▁200	-192
ame	-193
ary	-194
ive	-195
▁k	-196
ap	-197
ip	-198
▁Ch	-199
▁ex	-200
mer	-201
ous	-202
ong	-203
▁le	-204
▁y	-205
▁who	-206
▁whe	-207
▁pla	-208
ish	-209
ally	-210
ell	-211
und	-212
ast	-213
red	-214
ost	-215
▁;	-216
ust	-217
ment	-218
uc	-219
our	-220
▁has	-221
ere	-222
▁sh	-223
▁V	-224
ine	-225
▁but	-226
▁her	-227
ork	-228
irst	-229
▁He	-230
ord	-231
ue	-232
▁un	-233
ie	-234
▁were	-235
▁201	-236
▁18	-237
▁comp	-238
▁Un	-239
so	-240
own	-241
ial	-242
▁first	-243
og	-244
ight	-245
fter	-246
ction	-247
▁not	-248
ep	-249
ther	-250
ran	-251
▁play	-252
te	-253
▁born	-254
▁also	-255
ry	-256
se	-257
▁us	-258
rit	-259
▁te	-260
ome	-261
ire	-262
ave	-263
▁ser	-264
▁ar	-265
▁had	-266
ok	-267
▁year	-268
ure	-269
ff	-270
ater	-271
ond	-272
ass	-273
ide	-274
ical	-275
ice	-276
▁ro	-277
▁one	-278
▁bec	-279
ool	-280
land	-281
any	-282
ng	-283
ign	-284
▁their	-285
▁she	-286
per	-287
▁inc	-288
iz	-289
▁cl	-290
▁cont	-291
ack	-292
▁j	-293
▁res	-294
▁its	-295
▁ap	-296
▁199	-297
▁part	-298
ound	-299
ount	-300
ember	-301
hed	-302
wo	-303
▁int	-304
ition	-305
ugh	-306
ric	-307
are	-308
▁Y	-309
wn	-310
port	-311
chool	-312
ru	-313
▁3	-314
ke	-315
▁after	-316
ime	-317
ree	-318
▁ab	-319
man	-320
ach	-321
▁they	-322
▁ad	-323
ational	-324
ult	-325
▁ac	-326
age	-327
ang	-328
ne	-329
▁198	-330
▁It	-331
out	-332
sh	-333
▁Mar	-334
ased	-335
▁have	-336
pt	-337
▁kn	-338
▁been	-339
ile	-340
ican	-341
▁rec	-342
▁this	-343
▁en	-344
▁Al	-345
▁up	-346
uring	-347
ivers	-348
ence	-349
ates	-350
▁Amer	-351
ild	-352
amp	-353
▁off	-354
ited	-355
▁where	-356
▁work	-357
ug	-358
▁New	-359
▁two	-360
over	-361
▁all	-362
tern	-363
▁Th	-364
ough	-365
00	-366
ite	-367
ib	-368
▁ag	-369
ade	-370
▁him	-371
ck	-372
ied	-373
ory	-374
▁Le	-375
ark	-376
vel	-377
▁per	-378
▁sc	-379
ely	-380
▁dis	-381
oin	-382
▁other	-383
ould	-384
▁when	-385
▁loc	-386
▁Ar	-387
orm	-388
▁197	-389
ubl	-390
▁out	-391
act	-392
ens	-393
lud	-394
aw	-395
ever	-396
oy	-397
les	-398
▁sp	-399
▁serv	-400
urn	-401
ind	-402
▁comm	-403
▁over	-404
ted	-405
▁--	-406
▁into	-407
ations	-408
ath	-409
old	-410
ts	-411
▁known	-412
▁includ	-413
▁De	-414
▁im	-415
▁American	-416
gan	-417
ball	-418
ress	-419
▁des	-420
oot	-421
cted	-422
ons	-423
one	-424
▁ra	-425
uch	-426
▁time	-427
▁tra	-428
io	-429
we	-430
ail	-431
▁new	-432
ces	-433
ob	-434
iss	-435
iversity	-436
ents	-437
▁ev	-438
ced	-439
▁most	-440
▁4	-441
ood	-442
▁act	-443
ase	-444
ors	-445
▁196	-446
▁und	-447
▁can	-448
oll	-449
▁Re	-450
outh	-451
orld	-452
ft	-453
▁gro	-454
▁years	-455
cess	-456
rad	-457
able	-458
▁pre	-459
ilm	-460
▁spe	-461
rough	-462
fer	-463
▁stud	-464
ph	-465
ily	-466
▁found	-467
ose	-468
ance	-469
ward	-470
olle	-471
ren	-472
▁only	-473
ect	-474
▁sec	-475
▁under	-476
ick	-477
▁University	-478
▁pr	-479
▁5	-480
▁prod	-481
▁bu	-482
ince	-483
ton	-484
ss	-485
▁ret	-486
ral	-487
way	-488
▁mov	-489
ious	-490
ve	-491
▁Com	-492
▁then	-493
▁ne	-494
▁later	-495
ans	-496
▁ele	-497
ered	-498
orth	-499
oh	-500
pl	-501
ake	-502
▁during	-503
▁pl	-504
▁Sh	-505
ings	-506
▁man	-507
▁rele	-508
inal	-509
▁cent	-510
ions	-511
▁att	-512
▁ear	-513
▁bet	-514
fore	-515
▁so	-516
▁more	-517
▁cons	-518
▁Eng	-519
▁fam	-520
▁school	-521
▁film	-522
owever	-523
reat	-524
ram	-525
▁became	-526
urre	-527
▁form	-528
ished	-529
▁Ind	-530
ular	-531
ident	-532
▁rep	-533
▁United	-534
eat	-535
▁reg	-536
ook	-537
▁op	-538
aus	-539
▁195	-540
▁194	-541
▁used	-542
▁being	-543
end	-544
oth	-545
ont	-546
form	-547
▁ind	-548
erm	-549
aj	-550
▁there	-551
ision	-552
ener	-553
ah	-554
▁them	-555
▁mus	-556
eld	-557
▁pol	-558
eb	-559
▁publ	-560
▁team	-561
pr	-562
▁through	-563
olog	-564
ional	-565
▁17	-566
▁sup	-567
ics	-568
ason	-569
ict	-570
▁again	-571
▁sub	-572
ock	-573
▁rem	-574
ween	-575
▁co	-576
ins	-577
til	-578
▁some	-579
ife	-580
ix	-581
▁lar	-582
urrent	-583
▁6	-584
ober	-585
▁made	-586
rib	-587
ootball	-588
ived	-589
▁many	-590
ten	-591
▁about	-592
ann	-593
ual	-594
ather	-595
▁me	-596
che	-597
▁She	-598
▁until	-599
▁between	-600
▁sing	-601
▁rel	-602
▁do	-603
▁before	-604
▁ass	-605
▁inter	-606
▁would	-607
▁qu	-608
ouse	-609
▁pe	-610
▁current	-611
▁while	-612
ship	-613
▁call	-614
▁sy	-615
oun	-616
▁Z	-617
ik	-618
▁second	-619
ank	-620
▁dec	-621
rans	-622
ating	-623
arri	-624
▁app	-625
▁end	-626
inn	-627
▁three	-628
ague	-629
▁pres	-630
fess	-631
▁num	-632
▁own	-633
very	-634
▁fl	-635
att	-636
ames	-637
ec	-638
▁well	-639
other	-640
▁School	-641
ace	-642
ollow	-643
▁7	-644
▁An	-645
round	-646
ative	-647
ley	-648
ier	-649
▁ent	-650
▁will	-651
overn	-652
▁Joh	-653
ash	-654
▁inv	-655
▁Sc	-656
air	-657
ury	-658
▁appe	-659
▁lead	-660
▁pop	-661
velop	-662
▁than	-663
▁played	-664
▁ed	-665
▁orig	-666
▁such	-667
ept	-668
▁On	-669
▁May	-670
ee	-671
son	-672
iver	-673
ield	-674
▁Jan	-675
oci	-676
az	-677
▁Brit	-678
als	-679
▁acc	-680
▁am	-681
▁:	-682
▁bro	-683
ually	-684
▁def	-685
▁former	-686
ars	-687
▁record	-688
une	-689
ctor	-690
ale	-691
iam	-692
▁art	-693
bum	-694
▁8	-695
▁however	-696
ities	-697
▁ph	-698
ines	-699
▁John	-700
▁name	-701
led	-702
▁set	-703
▁prov	-704
enn	-705
▁Can	-706
▁dist	-707
▁show	-708
▁including	-709
▁States	-710
▁released	-711
ific	-712
▁writ	-713
▁193	-714
▁start	-715
tend	-716
emb	-717
▁char	-718
ike	-719
▁Fran	-720
ollege	-721
▁Aust	-722
▁16	-723
▁spec	-724
▁high	-725
amed	-726
ired	-727
▁York	-728
▁album	-729
elf	-730
▁Pro	-731
▁10	-732
▁song	-733
▁15	-734
▁family	-735
ower	-736
▁9	-737
▁back	-738
▁four	-739
▁count	-740
▁since	-741
▁day	-742
ister	-743
▁follow	-744
▁football	-745
▁main	-746
▁dire	-747
▁Ju	-748
erv	-749
ople	-750
▁both	-751
▁trans	-752
▁sever	-753
tain	-754
▁develop	-755
▁located	-756
▁sm	-757
▁Te	-758
▁season	-759
▁cap	-760
▁go	-761
▁inst	-762
▁music	-763
ron	-764
▁group	-765
▁Is	-766
▁Q	-767
▁Ph	-768
ey	-769
▁oper	-770
ina	-771
urch	-772
▁pos	-773
▁no	-774
cc	-775
▁Car	-776
▁mod	-777
uary	-778
▁met	-779
▁est	-780
▁called	-781
▁Aug	-782
▁As	-783
▁At	-784
▁sur	-785
▁series	-786
▁Nov	-787
▁Sept	-788
▁National	-789
▁cre	-790
ement	-791
▁August	-792
▁September	-793
▁rece	-794
▁Oct	-795
hen	-796
▁Sp	-797
▁band	-798
▁profess	-799
ting	-800
▁sign	-801
▁Cl	-802
▁child	-803
▁based	-804
stem	-805
000	-806
ures	-807
lish	-808
ern	-809
▁After	-810
ause	-811
▁192	-812
ives	-813
▁January	-814
its	-815
▁run	-816
▁War	-817
▁March	-818
ise	-819
▁October	-820
ilt	-821
▁now	-822
pos	-823
▁em	-824
ll	-825
ists	-826
▁began	-827
▁12	-828
my	-829
ajor	-830
▁South	-831
▁British	-832
▁June	-833
ys	-834
▁suc	-835
▁area	-836
ful	-837
▁mon	-838
uro	-839
der	-840
ject	-841
▁design	-842
▁World	-843
cy	-844
▁against	-845
▁city	-846
▁July	-847
▁near	-848
▁min	-849
▁several	-850
▁old	-851
▁return	-852
▁long	-853
▁feat	-854
▁Apr	-855
▁med	-856
▁early	-857
▁number	-858
aking	-859
ism	-860
▁April	-861
ven	-862
▁air	-863
▁open	-864
▁This	-865
ved	-866
▁currently	-867
mber	-868
ute	-869
▁people	-870
by	-871
▁Ed	-872
rist	-873
▁gener	-874
illa	-875
augh	-876
rid	-877
rand	-878
▁Comm	-879
▁member	-880
▁hist	-881
▁191	-882
▁City	-883
▁world	-884
erson	-885
▁offic	-886
▁Con	-887
▁dif	-888
▁Canad	-889
▁Cal	-890
ized	-891
▁November	-892
▁care	-893
ped	-894
uced	-895
▁bl	-896
▁League	-897
▁Dece	-898
ks	-899
▁col	-900
▁Austral	-901
▁December	-902
▁fin	-903
▁head	-904
▁comple	-905
uss	-906
imes	-907
ially	-908
▁build	-909
▁join	-910
ters	-911
ets	-912
aving	-913
▁prog	-914
ull	-915
ured	-916
though	-917
▁North	-918
ital	-919
▁produ	-920
▁gu	-921
▁you	-922
ract	-923
ai	-924
overnment	-925
▁aut	-926
▁Count	-927
▁Ad	-928
▁Man	-929
▁add	-930
▁small	-931
▁game	-932
▁var	-933
▁Wh	-934
▁son	-935
▁/	-936
ird	-937
▁polit	-938
▁company	-939
,000	-940
▁town	-941
▁Me	-942
ty	-943
▁contin	-944
ised	-945
▁Pr	-946
▁system	-947
▁disc	-948
ution	-949
▁named	-950
ger	-951
por	-952
▁home	-953
▁Feb	-954
▁use	-955
▁state	-956
ently	-957
▁won	-958
ple	-959
ruary	-960
ox	-961
▁may	-962
iew	-963
▁remain	-964
ues	-965
rict	-966
▁February	-967
▁public	-968
▁Ge	-969
ared	-970
▁organ	-971
ural	-972
▁Be	-973
▁father	-974
gest	-975
▁Par	-976
els	-977
▁bel	-978
cept	-979
ternational	-980
▁marri	-981
▁Cent	-982
▁same	-983
▁11	-984
iving	-985
ior	-986
▁14	-987
▁Euro	-988
▁English	-989
rop	-990
▁any	-991
▁Bro	-992
▁prom	-993
▁bus	-994
▁const	-995
▁College	-996
▁served	-997
▁Bar	-998
ology	-999
ants	-1000
▁class	-1001
▁inf	-1002
oman	-1003
▁around	-1004
ross	-1005
▁Col	-1006
▁King	-1007
ene	-1008
▁Lond	-1009
ax	-1010
xt	-1011
ient	-1012
▁London	-1013
▁success	-1014
vent	-1015
iet	-1016
ica	-1017
▁best	-1018
▁major	-1019
▁exp	-1020
▁station	-1021
▁dr	-1022
▁because	-1023
▁13	-1024
▁ob	-1025
▁built	-1026
ible	-1027
ged	-1028
▁US	-1029
▁Will	-1030
ium	-1031
cer	-1032
▁Or	-1033
▁did	-1034
▁car	-1035
▁professional	-1036
▁these	-1037
lev	-1038
iness	-1039
▁Har	-1040
▁left	-1041
▁moved	-1042
▁High	-1043
▁kill	-1044
inc	-1045
rew	-1046
▁eng	-1047
▁single	-1048
erman	-1049
▁mat	-1050
▁program	-1051
ris	-1052
▁hel	-1053
▁player	-1054
ott	-1055
▁club	-1056
ission	-1057
▁commun	-1058
▁ann	-1059
▁along	-1060
▁pass	-1061
ctions	-1062
▁grad	-1063
ove	-1064
ange	-1065
ided	-1066
▁died	-1067
ster	-1068
▁sim	-1069
chn	-1070
▁land	-1071
▁mil	-1072
▁book	-1073
▁death	-1074
eter	-1075
▁occ	-1076
▁Se	-1077
▁For	-1078
ampion	-1079
riend	-1080
ham	-1081
▁last	-1082
ility	-1083
ued	-1084
hes	-1085
▁very	-1086
▁life	-1087
ble	-1088
arm	-1089
▁due	-1090
ately	-1091
▁Christ	-1092
▁Europe	-1093
▁career	-1094
tle	-1095
▁though	-1096
pend	-1097
oard	-1098
▁West	-1099
▁event	-1100
get	-1101
▁2007	-1102
▁2008	-1103
▁term	-1104
ner	-1105
ring	-1106
▁Mus	-1107
ator	-1108
rol	-1109
ony	-1110
resent	-1111
ret	-1112
▁partic	-1113
aid	-1114
tended	-1115
▁took	-1116
ling	-1117
▁differ	-1118
lack	-1119
▁tit	-1120
ined	-1121
ically	-1122
▁we	-1123
▁County	-1124
anc	-1125
▁century	-1126
▁England	-1127
au	-1128
▁estab	-1129
ille	-1130
▁charact	-1131
▁2010	-1132
▁age	-1133
▁eff	-1134
▁local	-1135
▁place	-1136
yl	-1137
▁each	-1138
▁held	-1139
ask	-1140
▁Ass	-1141
▁2006	-1142
▁result	-1143
ford	-1144
ices	-1145
ane	-1146
▁like	-1147
▁ins	-1148
embers	-1149
▁2009	-1150
▁still	-1151
▁government	-1152
▁Geor	-1153
▁although	-1154
▁tr	-1155
▁2011	-1156
ink	-1157
reen	-1158
▁manag	-1159
▁down	-1160
akes	-1161
▁support	-1162
▁often	-1163
ience	-1164
▁ext	-1165
aster	-1166
▁State	-1167
▁Af	-1168
▁consid	-1169
▁deb	-1170
▁law	-1171
▁founded	-1172
▁ref	-1173
du	-1174
▁rest	-1175
▁large	-1176
uck	-1177
mp	-1178
▁El	-1179
▁tri	-1180
▁Fl	-1181
▁origin	-1182
▁war	-1183
rench	-1184
▁young	-1185
▁villa	-1186
▁2012	-1187
▁started	-1188
▁received	-1189
▁Sw	-1190
▁compet	-1191
▁Calif	-1192
illion	-1193
▁national	-1194
▁Am	-1195
isc	-1196
▁Californ	-1197
let	-1198
▁educ	-1199
▁members	-1200
omen	-1201
▁All	-1202
▁His	-1203
▁190	-1204
▁ty	-1205
▁&	-1206
▁Gu	-1207
▁California	-1208
levision	-1209
af	-1210
ments	-1211
▁Indian	-1212
▁mark	-1213
▁Wal	-1214
hor	-1215
▁person	-1216
▁Char	-1217
ival	-1218
▁camp	-1219
ode	-1220
omet	-1221
▁Co	-1222
▁six	-1223
lay	-1224
▁Ang	-1225
ides	-1226
▁German	-1227
▁Rep	-1228
▁French	-1229
▁Mc	-1230
▁short	-1231
raph	-1232
wards	-1233
▁could	-1234
▁playing	-1235
ison	-1236
▁mid	-1237
▁Min	-1238
▁children	-1239
▁William	-1240
▁Pol	-1241
med	-1242
▁vers	-1243
yn	-1244
▁house	-1245
▁gradu	-1246
▁hand	-1247
▁following	-1248
ief	-1249
ney	-1250
▁2013	-1251
ering	-1252
▁business	-1253
▁poin	-1254
▁par	-1255
▁married	-1256
▁dep	-1257
▁popular	-1258
▁perform	-1259
▁role	-1260
ps	-1261
▁north	-1262
▁And	-1263
ulation	-1264
uff	-1265
ves	-1266
▁went	-1267
▁power	-1268
▁25	-1269
con	-1270
ored	-1271
reet	-1272
for	-1273
gy	-1274
eng	-1275
▁just	-1276
▁Bl	-1277
▁line	-1278
ody	-1279
▁rev	-1280
ese	-1281
▁30	-1282
atic	-1283
▁189	-1284
▁Air	-1285
angu	-1286
ning	-1287
▁II	-1288
▁Park	-1289
laim	-1290
ats	-1291
bor	-1292
▁ep	-1293
▁sold	-1294
▁conf	-1295
▁become	-1296
▁Dav	-1297
▁2005	-1298
▁es	-1299
▁third	-1300
▁attack	-1301
▁trad	-1302
rem	-1303
▁five	-1304
▁having	-1305
▁late	-1306
ights	-1307
▁imp	-1308
▁allow	-1309
▁lit	-1310
▁top	-1311
▁beg	-1312
▁Sy	-1313
▁Her	-1314
raft	-1315
▁po	-1316
inning	-1317
oss	-1318
▁Part	-1319
▁present	-1320
▁within	-1321
▁appear	-1322
▁daugh	-1323
adio	-1324
estern	-1325
hem	-1326
▁appro	-1327
omin	-1328
work	-1329
▁av	-1330
alth	-1331
apan	-1332
self	-1333
▁adv	-1334
row	-1335
▁%	-1336
▁cour	-1337
▁Pres	-1338
ays	-1339
▁represent	-1340
▁original	-1341
amb	-1342
ages	-1343
que	-1344
iven	-1345
ung	-1346
▁San	-1347
▁building	-1348
▁str	-1349
▁$	-1350
ians	-1351
key	-1352
▁vis	-1353
▁They	-1354
▁even	-1355
ivision	-1356
▁south	-1357
▁final	-1358
▁television	-1359
▁Phil	-1360
ington	-1361
▁different	-1362
ridge	-1363
▁level	-1364
lished	-1365
▁mother	-1366
▁desc	-1367
▁2014	-1368
▁stand	-1369
▁Japan	-1370
▁friend	-1371
▁sk	-1372
▁water	-1373
▁hum	-1374
▁sl	-1375
rest	-1376
▁prev	-1377
ert	-1378
ampionship	-1379
ien	-1380
▁much	-1381
▁turn	-1382
field	-1383
adem	-1384
▁worked	-1385
hel	-1386
urs	-1387
ges	-1388
▁country	-1389
▁dem	-1390
▁real	-1391
▁Mich	-1392
▁bre	-1393
▁X	-1394
ified	-1395
▁another	-1396
▁character	-1397
▁if	-1398
▁Afric	-1399
▁cr	-1400
▁River	-1401
▁brother	-1402
▁Ab	-1403
▁led	-1404
umb	-1405
itary	-1406
▁India	-1407
▁188	-1408
min	-1409
ively	-1410
▁month	-1411
▁exper	-1412
ature	-1413
▁common	-1414
▁colle	-1415
stit	-1416
ization	-1417
▁Cor	-1418
▁Ital	-1419
▁fe	-1420
▁established	-1421
▁Ro	-1422
▁joined	-1423
▁post	-1424
ining	-1425
ches	-1426
▁2004	-1427
▁langu	-1428
▁published	-1429
osp	-1430
▁Russ	-1431
▁find	-1432
attle	-1433
▁wee	-1434
▁port	-1435
▁repla	-1436
▁requ	-1437
▁village	-1438
side	-1439
▁Ex	-1440
day	-1441
ler	-1442
▁service	-1443
ino	-1444
▁21	-1445
ety	-1446
▁East	-1447
▁aff	-1448
ana	-1449
com	-1450
▁cor	-1451
arent	-1452
▁history	-1453
▁House	-1454
ummer	-1455
▁tw	-1456
▁fac	-1457
▁produced	-1458
▁few	-1459
▁million	-1460
▁debut	-1461
eder	-1462
▁sit	-1463
ze	-1464
▁side	-1465
itions	-1466
▁came	-1467
▁leg	-1468
aul	-1469
▁created	-1470
iod	-1471
pect	-1472
▁Roy	-1473
ocial	-1474
▁det	-1475
▁make	-1476
▁Comp	-1477
▁conc	-1478
empt	-1479
▁daughter	-1480
eth	-1481
irl	-1482
ness	-1483
ched	-1484
▁plays	-1485
cast	-1486
▁Gener	-1487
▁There	-1488
bur	-1489
▁2015	-1490
▁author	-1491
▁During	-1492
▁Sec	-1493
▁largest	-1494
▁24	-1495
▁among	-1496
▁sol	-1497
▁186	-1498
▁wife	-1499
earch	-1500
oon	-1501
▁previous	-1502
▁techn	-1503
alf	-1504
▁every	-1505
▁men	-1506
▁great	-1507
▁see	-1508
▁import	-1509
ray	-1510
▁Australia	-1511
ald	-1512
epend	-1513
alk	-1514
▁La	-1515
▁crit	-1516
▁fre	-1517
▁written	-1518
ara	-1519
▁Ne	-1520
▁dra	-1521
▁elect	-1522
▁report	-1523
▁next	-1524
na	-1525
▁non	-1526
ounc	-1527
▁prim	-1528
ords	-1529
▁Canadian	-1530
▁special	-1531
▁ship	-1532
▁using	-1533
lu	-1534
▁red	-1535
urb	-1536
ruct	-1537
▁control	-1538
vers	-1539
▁clos	-1540
line	-1541
▁1990	-1542
▁what	-1543
▁2000	-1544
▁students	-1545
▁deg	-1546
▁host	-1547
▁Med	-1548
artment	-1549
ape	-1550
ration	-1551
▁considered	-1552
▁Sup	-1553
▁James	-1554
ries	-1555
▁sent	-1556
▁la	-1557
▁22	-1558
▁Br	-1559
▁invol	-1560
▁Gl	-1561
▁chang	-1562
▁returned	-1563
avy	-1564
▁incre	-1565
▁making	-1566
ones	-1567
rick	-1568
▁track	-1569
uk	-1570
ville	-1571
▁period	-1572
▁poss	-1573
par	-1574
▁take	-1575
▁sw	-1576
▁mag	-1577
▁President	-1578
▁working	-1579
▁vide	-1580
▁engine	-1581
▁187	-1582
▁init	-1583
ograph	-1584
▁pain	-1585
▁resp	-1586
▁way	-1587
▁However	-1588
▁1980	-1589
▁nt	-1590
hern	-1591
shire	-1592
▁various	-1593
▁caus	-1594
▁epis	-1595
▁Canada	-1596
yle	-1597
▁When	-1598
▁claim	-1599
▁games	-1600
▁pat	-1601
▁rock	-1602
ani	-1603
ency	-1604
ounced	-1605
ize	-1606
▁Tr	-1607
▁Que	-1608
▁becom	-1609
omb	-1610
aken	-1611
▁Party	-1612
▁cult	-1613
▁contain	-1614
▁One	-1615
▁Reg	-1616
▁General	-1617
ping	-1618
▁does	-1619
▁Lou	-1620
▁order	-1621
▁arch	-1622
▁attempt	-1623
▁formed	-1624
cl	-1625
ael	-1626
▁2003	-1627
▁Church	-1628
▁cover	-1629
▁star	-1630
▁Army	-1631
▁originally	-1632
▁community	-1633
▁attended	-1634
▁equ	-1635
▁23	-1636
▁fact	-1637
orthern	-1638
▁title	-1639
▁Port	-1640
isted	-1641
▁times	-1642
▁version	-1643
etwork	-1644
▁Ac	-1645
outher	-1646
hip	-1647
ivil	-1648
▁International	-1649
▁produc	-1650
▁dest	-1651
▁given	-1652
ead	-1653
ument	-1654
▁histor	-1655
ourn	-1656
▁America	-1657
▁opened	-1658
ality	-1659
iber	-1660
▁Rober	-1661
ruction	-1662
▁women	-1663
▁Island	-1664
conom	-1665
▁Australian	-1666
outhern	-1667
ots	-1668
ront	-1669
irc	-1670
▁himself	-1671
BC	-1672
read	-1673
▁field	-1674
▁0	-1675
ribut	-1676
▁Ser	-1677
ilar	-1678
dom	-1679
▁Dr	-1680
ards	-1681
ense	-1682
ells	-1683
▁iss	-1684
▁appeared	-1685
ases	-1686
▁project	-1687
▁political	-1688
▁get	-1689
▁never	-1690
▁promot	-1691
▁news	-1692
▁population	-1693
▁George	-1694
▁effect	-1695
▁refer	-1696
▁Mal	-1697
rod	-1698
ploy	-1699
▁appoin	-1700
ico	-1701
ms	-1702
▁Rich	-1703
cial	-1704
lin	-1705
arn	-1706
ander	-1707
ouncil	-1708
▁del	-1709
▁Hol	-1710
reg	-1711
▁process	-1712
▁Republ	-1713
ociation	-1714
ached	-1715
▁Em	-1716
▁win	-1717
aff	-1718
astern	-1719
▁Ber	-1720
▁those	-1721
▁France	-1722
▁tem	-1723
▁Pe	-1724
▁general	-1725
▁David	-1726
itor	-1727
▁production	-1728
▁Thom	-1729
▁pract	-1730
▁gr	-1731
▁1970	-1732
▁describ	-1733
▁developed	-1734
▁Gro	-1735
▁eventually	-1736
▁Nor	-1737
ida	-1738
▁Mon	-1739
▁hold	-1740
ording	-1741
▁site	-1742
idd	-1743
oph	-1744
mit	-1745
▁En	-1746
ery	-1747
rated	-1748
▁compos	-1749
▁Dist	-1750
▁2016	-1751
▁Ear	-1752
▁hig	-1753
▁beh	-1754
▁somet	-1755
▁Street	-1756
ta	-1757
▁priv	-1758
▁28	-1759
▁Per	-1760
▁full	-1761
itional	-1762
ata	-1763
sequ	-1764
▁Royal	-1765
▁activ	-1766
▁Ste	-1767
▁body	-1768
ows	-1769
lex	-1770
app	-1771
▁26	-1772
▁27	-1773
▁Sm	-1774
ops	-1775
▁2001	-1776
▁arr	-1777
▁included	-1778
ention	-1779
▁need	-1780
ountain	-1781
▁2002	-1782
▁story	-1783
oe	-1784
▁award	-1785
▁fore	-1786
ician	-1787
▁lab	-1788
▁Angel	-1789
posed	-1790
▁indust	-1791
▁development	-1792
▁Rec	-1793
▁district	-1794
▁Val	-1795
uel	-1796
▁prote	-1797
▁international	-1798
anish	-1799
ole	-1800
ying	-1801
▁val	-1802
▁Dep	-1803
▁military	-1804
▁gl	-1805
▁Cup	-1806
▁live	-1807
▁ren	-1808
ockey	-1809
▁mar	-1810
▁belie	-1811
ociety	-1812
wood	-1813
▁position	-1814
▁similar	-1815
▁ant	-1816
ush	-1817
van	-1818
▁rail	-1819
▁UK	-1820
ories	-1821
ele	-1822
▁interest	-1823
▁Mary	-1824
▁Roman	-1825
▁Res	-1826
▁continued	-1827
▁killed	-1828
▁free	-1829
ama	-1830
▁without	-1831
▁party	-1832
rap	-1833
▁successful	-1834
▁perfor	-1835
▁video	-1836
to	-1837
▁TV	-1838
▁By	-1839
▁Bra	-1840
▁broad	-1841
▁Pal	-1842
▁days	-1843
▁language	-1844
▁fur	-1845
▁Bel	-1846
▁185	-1847
▁pri	-1848
▁west	-1849
ably	-1850
lo	-1851
▁You	-1852
uf	-1853
rug	-1854
ogn	-1855
▁half	-1856
itar	-1857
▁Paul	-1858
used	-1859
▁lost	-1860
▁Red	-1861
▁Miss	-1862
▁announced	-1863
▁coach	-1864
▁region	-1865
▁college	-1866
▁director	-1867
▁influ	-1868
▁Jos	-1869
olic	-1870
craft	-1871
▁independ	-1872
▁usually	-1873
▁release	-1874
go	-1875
▁singer	-1876
▁direct	-1877
▁100	-1878
▁signed	-1879
▁European	-1880
▁works	-1881
sc	-1882
▁recorded	-1883
▁Qu	-1884
▁Mor	-1885
▁church	-1886
▁away	-1887
▁road	-1888
▁Germ	-1889
▁once	-1890
ills	-1891
▁toget	-1892
▁together	-1893
▁mult	-1894
▁radio	-1895
▁inform	-1896
▁Jack	-1897
▁Pat	-1898
▁29	-1899
ipp	-1900
ago	-1901
ream	-1902
▁Pl	-1903
▁right	-1904
rie	-1905
▁disp	-1906
gin	-1907
▁important	-1908
▁Championship	-1909
▁fire	-1910
cts	-1911
▁east	-1912
▁election	-1913
▁1960	-1914
▁stat	-1915
▁Mex	-1916
▁examp	-1917
ained	-1918
▁president	-1919
▁fun	-1920
▁artist	-1921
▁round	-1922
iron	-1923
▁owned	-1924
int	-1925
▁designed	-1926
▁view	-1927
asket	-1928
▁comb	-1929
▁invest	-1930
▁help	-1931
▁dev	-1932
▁Ant	-1933
▁official	-1934
▁Hen	-1935
▁good	-1936
▁Franc	-1937
▁island	-1938
▁include	-1939
▁Ir	-1940
▁Sch	-1941
imately	-1942
▁less	-1943
▁said	-1944
▁Tex	-1945
▁Ap	-1946
eal	-1947
▁elected	-1948
oor	-1949
▁social	-1950
iment	-1951
▁black	-1952
ming	-1953
most	-1954
ising	-1955
▁Wash	-1956
▁actor	-1957
▁Sen	-1958
▁famous	-1959
▁Ag	-1960
▁point	-1961
▁grow	-1962
ensive	-1963
▁human	-1964
▁office	-1965
ports	-1966
iding	-1967
▁lim	-1968
▁Sal	-1969
▁whose	-1970
▁modern	-1971
▁Germany	-1972
▁nov	-1973
▁avail	-1974
▁degree	-1975
▁particular	-1976
▁conne	-1977
▁fail	-1978
▁Kh	-1979
▁Louis	-1980
ought	-1981
ellow	-1982
era	-1983
▁Tra	-1984
cing	-1985
▁fall	-1986
▁performan	-1987
▁Robert	-1988
▁Black	-1989
▁market	-1990
▁parent	-1991
▁Mil	-1992
▁mer	-1993
lear	-1994
▁Sam	-1995
▁ter	-1996
▁Je	-1997
olution	-1998
▁1999	-1999
▁appointed	-2000
▁hit	-2001
▁league	-2002
▁girl	-2003
▁Vir	-2004
▁base	-2005
ademy	-2006
▁District	-2007
▁Dem	-2008
roy	-2009
▁Washington	-2010
▁div	-2011
▁Michael	-2012
▁el	-2013
▁bas	-2014
ournal	-2015
oney	-2016
▁econom	-2017
▁others	-2018
▁Des	-2019
▁phys	-2020
ecut	-2021
elling	-2022
stitute	-2023
▁Scott	-2024
▁vol	-2025
▁test	-2026
ospital	-2027
▁expl	-2028
ius	-2029
▁anim	-2030
▁Company	-2031
reek	-2032
lymp	-2033
▁research	-2034
▁typ	-2035
asketball	-2036
▁across	-2037
▁taken	-2038
▁months	-2039
ston	-2040
▁leading	-2041
▁studied	-2042
▁tot	-2043
▁ident	-2044
▁strong	-2045
▁laun	-2046
ae	-2047
▁Cath	-2048
▁footballer	-2049
ances	-2050
▁vot	-2051
▁seen	-2052
▁education	-2053
ways	-2054
rab	-2055
ware	-2056
ours	-2057
▁Olymp	-2058
ales	-2059
▁fem	-2060
▁meet	-2061
▁Mart	-2062
▁Los	-2063
uit	-2064
▁soon	-2065
▁available	-2066
▁184	-2067
▁Hall	-2068
▁Texas	-2069
▁lived	-2070
▁ground	-2071
eum	-2072
▁throughout	-2073
ma	-2074
▁lo	-2075
▁cast	-2076
▁Mac	-2077
▁No	-2078
▁Charles	-2079
▁Thomas	-2080
▁Football	-2081
▁suff	-2082
ocr	-2083
liam	-2084
aur	-2085
▁ten	-2086
aper	-2087
▁1998	-2088
▁Association	-2089
▁graduated	-2090
ament	-2091
▁ve	-2092
▁Che	-2093
▁proper	-2094
co	-2095
▁tro	-2096
atter	-2097
▁species	-2098
pite	-2099
rote	-2100
▁circ	-2101
▁style	-2102
aut	-2103
▁Christian	-2104
▁discover	-2105
▁Union	-2106
▁tour	-2107
▁Division	-2108
atch	-2109
▁read	-2110
▁model	-2111
liament	-2112
ett	-2113
▁light	-2114
▁1996	-2115
▁bar	-2116
▁mot	-2117
idence	-2118
ological	-2119
▁Mont	-2120
▁low	-2121
▁Alex	-2122
▁particip	-2123
▁Cap	-2124
▁fight	-2125
▁recogn	-2126
▁episode	-2127
aign	-2128
lect	-2129
anted	-2130
▁Law	-2131
unic	-2132
▁Art	-2133
▁capt	-2134
ership	-2135
ya	-2136
ination	-2137
▁surv	-2138
sy	-2139
▁cer	-2140
▁cond	-2141
ript	-2142
ky	-2143
▁grand	-2144
▁hy	-2145
ither	-2146
acher	-2147
▁squ	-2148
▁introd	-2149
iting	-2150
▁1997	-2151
▁Born	-2152
▁employ	-2153
▁sister	-2154
aker	-2155
▁Kingdom	-2156
▁night	-2157
▁50	-2158
▁eight	-2159
ceed	-2160
▁Road	-2161
band	-2162
▁completed	-2163
▁performed	-2164
▁features	-2165
▁further	-2166
ili	-2167
▁situ	-2168
iol	-2169
▁Bay	-2170
▁ord	-2171
annel	-2172
▁1992	-2173
▁Club	-2174
▁Cour	-2175
▁private	-2176
▁services	-2177
▁foc	-2178
▁phot	-2179
▁esc	-2180
ope	-2181
▁mater	-2182
▁wid	-2183
▁Ire	-2184
▁appl	-2185
▁police	-2186
▁example	-2187
▁che	-2188
ique	-2189
▁remained	-2190
▁Mag	-2191
arch	-2192
▁hous	-2193
cher	-2194
▁Chic	-2195
▁sour	-2196
overnor	-2197
▁subsequ	-2198
▁Flor	-2199
oo	-2200
▁Mad	-2201
▁183	-2202
minist	-2203
▁Minister	-2204
▁areas	-2205
▁inj	-2206
rian	-2207
▁Jew	-2208
▁separ	-2209
▁Council	-2210
▁followed	-2211
▁command	-2212
less	-2213
▁1995	-2214
▁should	-2215
▁Ben	-2216
▁close	-2217
▁regular	-2218
inese	-2219
▁winning	-2220
me	-2221
▁Academy	-2222
ivid	-2223
▁gen	-2224
ictor	-2225
▁reve	-2226
ule	-2227
▁race	-2228
▁replaced	-2229
pec	-2230
hood	-2231
▁total	-2232
▁network	-2233
▁Group	-2234
▁how	-2235
▁Stud	-2236
▁With	-2237
▁Great	-2238
▁put	-2239
▁entire	-2240
men	-2241
udd	-2242
▁creat	-2243
▁Angeles	-2244
itz	-2245
uter	-2246
▁Tor	-2247
arily	-2248
▁Carol	-2249
▁travel	-2250
▁instead	-2251
utes	-2252
▁Green	-2253
▁boy	-2254
▁Spanish	-2255
▁bank	-2256
ij	-2257
▁31	-2258
rain	-2259
▁struct	-2260
▁Central	-2261
▁First	-2262
▁Ireland	-2263
▁stri	-2264
▁rank	-2265
bour	-2266
erous	-2267
eep	-2268
▁Tom	-2269
itect	-2270
▁1994	-2271
▁week	-2272
▁Sing	-2273
▁Virgin	-2274
▁plan	-2275
▁Chicago	-2276
▁stage	-2277
▁training	-2278
▁fund	-2279
▁ide	-2280
▁politician	-2281
▁upon	-2282
▁whom	-2283
▁featured	-2284
▁commer	-2285
▁Chinese	-2286
hib	-2287
▁Italian	-2288
be	-2289
▁park	-2290
▁enc	-2291
▁China	-2292
cle	-2293
▁Peter	-2294
▁able	-2295
▁cross	-2296
▁relation	-2297
▁aircraft	-2298
icated	-2299
▁Off	-2300
▁1991	-2301
▁becoming	-2302
▁Institute	-2303
eph	-2304
▁dam	-2305
▁rul	-2306
here	-2307
oice	-2308
ishing	-2309
▁relig	-2310
ufact	-2311
▁parents	-2312
▁look	-2313
▁Frank	-2314
irth	-2315
▁Gr	-2316
▁hon	-2317
▁Western	-2318
▁Richard	-2319
▁sug	-2320
▁Rail	-2321
▁seven	-2322
▁proble	-2323
atre	-2324
▁Del	-2325
atural	-2326
▁schools	-2327
ula	-2328
▁Catholic	-2329
▁my	-2330
▁match	-2331
▁mur	-2332
▁sound	-2333
▁1989	-2334
ned	-2335
▁vict	-2336
▁almost	-2337
▁Center	-2338
▁1986	-2339
▁white	-2340
▁guitar	-2341
▁1993	-2342
▁events	-2343
ades	-2344
▁front	-2345
▁1950	-2346
▁Henry	-2347
▁sometimes	-2348
▁bo	-2349
▁gun	-2350
▁associ	-2351
▁living	-2352
▁past	-2353
▁decided	-2354
rag	-2355
▁Hist	-2356
▁wrote	-2357
ences	-2358
▁1987	-2359
▁Tur	-2360
▁Mel	-2361
ha	-2362
itive	-2363
▁individ	-2364
▁carri	-2365
▁Japanese	-2366
▁Sir	-2367
bert	-2368
▁actress	-2369
asons	-2370
▁Bur	-2371
burg	-2372
iers	-2373
▁Gold	-2374
ores	-2375
▁Russian	-2376
chie	-2377
▁1988	-2378
▁Florida	-2379
nder	-2380
ators	-2381
▁studio	-2382
▁liter	-2383
▁forces	-2384
▁campaign	-2385
fic	-2386
▁Mark	-2387
▁press	-2388
▁Mr	-2389
ude	-2390
▁shows	-2391
▁central	-2392
▁Penn	-2393
▁1984	-2394
▁involved	-2395
▁br	-2396
▁sex	-2397
▁km	-2398
▁Don	-2399
▁raised	-2400
▁Grand	-2401
▁introduced	-2402
icle	-2403
▁spent	-2404
▁cost	-2405
▁acqu	-2406
estival	-2407
▁earl	-2408
▁Bal	-2409
asing	-2410
▁let	-2411
igned	-2412
▁case	-2413
▁leader	-2414
▁films	-2415
▁Paris	-2416
▁1985	-2417
▁Victor	-2418
▁Act	-2419
▁Ham	-2420
▁approx	-2421
rought	-2422
▁must	-2423
▁Sim	-2424
▁grew	-2425
acy	-2426
▁Met	-2427
▁writer	-2428
▁We	-2429
▁Town	-2430
ranch	-2431
▁exist	-2432
of	-2433
▁My	-2434
▁civil	-2435
▁While	-2436
▁Mer	-2437
▁manufact	-2438
▁40	-2439
▁range	-2440
▁Kn	-2441
▁serving	-2442
▁accept	-2443
▁previously	-2444
▁prot	-2445
vin	-2446
▁individual	-2447
itch	-2448
▁gave	-2449
▁Irish	-2450
▁includes	-2451
ids	-2452
▁Sain	-2453
▁African	-2454
▁Africa	-2455
▁bur	-2456
▁novel	-2457
aves	-2458
aching	-2459
▁construction	-2460
▁retired	-2461
▁access	-2462
▁Award	-2463
▁Cong	-2464
▁reb	-2465
▁ever	-2466
▁From	-2467
▁stop	-2468
▁countries	-2469
ka	-2470
▁Swed	-2471
▁study	-2472
▁board	-2473
ificant	-2474
▁room	-2475
ened	-2476
ederal	-2477
▁woman	-2478
ential	-2479
▁Music	-2480
▁anc	-2481
tt	-2482
▁Mass	-2483
▁Scot	-2484
▁described	-2485
incip	-2486
▁far	-2487
off	-2488
▁directed	-2489
atory	-2490
▁songs	-2491
▁Pri	-2492
▁material	-2493
▁mix	-2494
▁contract	-2495
▁Records	-2496
▁2017	-2497
▁1983	-2498
iff	-2499
aged	-2500
▁cou	-2501
ference	-2502
▁Rev	-2503
▁broadcast	-2504
▁prison	-2505
▁health	-2506
▁know	-2507
ki	-2508
aught	-2509
▁treat	-2510
ari	-2511
▁type	-2512
▁capital	-2513
ply	-2514
▁Zeal	-2515
▁break	-2516
▁neigh	-2517
▁love	-2518
▁Ter	-2519
▁sen	-2520
istan	-2521
▁imm	-2522
ota	-2523
▁tre	-2524
▁significant	-2525
▁Lake	-2526
inent	-2527
▁prem	-2528
▁outside	-2529
▁aud	-2530
iction	-2531
▁changed	-2532
olf	-2533
▁battle	-2534
aled	-2535
sych	-2536
▁list	-2537
▁relationship	-2538
▁Hill	-2539
▁impro	-2540
▁Bill	-2541
▁Rock	-2542
ected	-2543
▁center	-2544
▁Democr	-2545
▁journal	-2546
▁destroy	-2547
▁running	-2548
▁architect	-2549
▁teams	-2550
▁Wil	-2551
▁Do	-2552
▁Cro	-2553
hod	-2554
oul	-2555
▁Zealand	-2556
▁White	-2557
unk	-2558
▁organization	-2559
▁space	-2560
▁fourth	-2561
▁1982	-2562
▁movie	-2563
hest	-2564
writ	-2565
▁Court	-2566
▁goal	-2567
▁respons	-2568
▁independent	-2569
eleb	-2570
ala	-2571
▁addition	-2572
▁information	-2573
▁fif	-2574
▁voc	-2575
▁student	-2576
▁army	-2577
▁hard	-2578
▁z	-2579
▁bi	-2580
▁brought	-2581
azine	-2582
▁Department	-2583
▁transfer	-2584
▁cop	-2585
arter	-2586
▁assist	-2587
▁thus	-2588
▁!	-2589
▁performance	-2590
ibr	-2591
▁pur	-2592
▁big	-2593
▁Super	-2594
▁reported	-2595
▁basketball	-2596
board	-2597
▁sett	-2598
ving	-2599
▁1981	-2600
▁deal	-2601
ugby	-2602
vert	-2603
▁frequ	-2604
edy	-2605
hi	-2606
anta	-2607
enced	-2608
itte	-2609
▁specific	-2610
▁Lab	-2611
▁parts	-2612
▁hom	-2613
▁books	-2614
▁colla	-2615
▁taking	-2616
▁cut	-2617
ona	-2618
▁today	-2619
▁mean	-2620
▁ice	-2621
iqu	-2622
ilities	-2623
▁active	-2624
▁Cons	-2625
medi	-2626
apt	-2627
▁condu	-2628
sel	-2629
lands	-2630
▁Atl	-2631
▁purch	-2632
▁food	-2633
▁web	-2634
▁river	-2635
▁fig	-2636
▁takes	-2637
▁181	-2638
▁approximately	-2639
atives	-2640
▁ill	-2641
▁Dire	-2642
▁Society	-2643
▁Day	-2644
elled	-2645
▁execut	-2646
▁Virginia	-2647
viron	-2648
▁commercial	-2649
▁miss	-2650
▁either	-2651
▁1979	-2652
▁cand	-2653
▁accom	-2654
▁generally	-2655
pecially	-2656
ication	-2657
▁Up	-2658
.5	-2659
▁mem	-2660
lam	-2661
▁ran	-2662
▁farm	-2663
▁sele	-2664
▁Serv	-2665
▁king	-2666
▁viol	-2667
▁Columb	-2668
back	-2669
▁doc	-2670
▁Acc	-2671
berg	-2672
▁super	-2673
▁Ke	-2674
▁shot	-2675
ems	-2676
▁Star	-2677
▁industry	-2678
▁birth	-2679
▁182	-2680
▁via	-2681
▁achie	-2682
▁especially	-2683
airs	-2684
▁key	-2685
▁Pet	-2686
icles	-2687
ishop	-2688
ker	-2689
▁fir	-2690
▁Profess	-2691
▁USA	-2692
overs	-2693
rd	-2694
▁Smith	-2695
▁northern	-2696
▁female	-2697
▁hor	-2698
pected	-2699
rey	-2700
rup	-2701
igan	-2702
▁court	-2703
ena	-2704
▁beginning	-2705
▁southern	-2706
ises	-2707
▁mass	-2708
▁rather	-2709
▁Oh	-2710
▁Rob	-2711
▁little	-2712
▁Lu	-2713
▁sch	-2714
▁force	-2715
▁occur	-2716
alls	-2717
▁too	-2718
▁leaving	-2719
unt	-2720
▁quick	-2721
▁Georg	-2722
▁states	-2723
mar	-2724
▁mostly	-2725
za	-2726
▁saw	-2727
▁compan	-2728
▁self	-2729
uture	-2730
olk	-2731
de	-2732
▁Mexico	-2733
FL	-2734
▁teacher	-2735
fit	-2736
▁Kore	-2737
▁intern	-2738
ires	-2739
▁hot	-2740
ria	-2741
head	-2742
▁manager	-2743
ario	-2744
▁instit	-2745
▁occup	-2746
▁players	-2747
▁miles	-2748
▁reached	-2749
aval	-2750
rael	-2751
▁suggest	-2752
▁regard	-2753
▁Spe	-2754
▁attend	-2755
▁movement	-2756
▁money	-2757
▁summer	-2758
▁agre	-2759
▁gold	-2760
▁producer	-2761
▁wind	-2762
▁behind	-2763
▁fav	-2764
unn	-2765
order	-2766
▁Bu	-2767
ylvan	-2768
▁Republic	-2769
▁groups	-2770
▁celeb	-2771
▁ended	-2772
mb	-2773
▁centre	-2774
▁God	-2775
▁Joseph	-2776
ror	-2777
▁Parliament	-2778
▁job	-2779
▁enter	-2780
lim	-2781
▁media	-2782
▁1976	-2783
usband	-2784
▁lives	-2785
▁keep	-2786
▁itself	-2787
▁Wales	-2788
▁plann	-2789
iation	-2790
ump	-2791
▁runs	-2792
▁coast	-2793
▁administ	-2794
▁cat	-2795
▁sem	-2796
ersey	-2797
ressed	-2798
▁above	-2799
ground	-2800
▁come	-2801
▁Chief	-2802
▁writing	-2803
▁Cast	-2804
▁Ma	-2805
▁Second	-2806
▁added	-2807
▁got	-2808
▁Fort	-2809
olar	-2810
val	-2811
west	-2812
▁recently	-2813
ateg	-2814
▁pay	-2815
▁1974	-2816
utch	-2817
rying	-2818
▁pred	-2819
ylvania	-2820
▁subject	-2821
▁Op	-2822
▁Major	-2823
▁pot	-2824
▁Arts	-2825
▁Israel	-2826
▁Force	-2827
▁Battle	-2828
▁1972	-2829
▁1978	-2830
gen	-2831
▁entered	-2832
▁musical	-2833
atin	-2834
face	-2835
▁i	-2836
▁Pak	-2837
arian	-2838
▁except	-2839
▁friends	-2840
▁ste	-2841
▁Lit	-2842
▁primary	-2843
▁box	-2844
▁division	-2845
▁1975	-2846
iety	-2847
▁awarded	-2848
▁subsequently	-2849
▁seat	-2850
▁Im	-2851
▁initially	-2852
▁placed	-2853
aly	-2854
▁Kar	-2855
icy	-2856
▁train	-2857
▁sus	-2858
▁Brown	-2859
▁fla	-2860
▁closed	-2861
▁highest	-2862
eated	-2863
▁operated	-2864
▁related	-2865
▁natural	-2866
▁Du	-2867
▁traditional	-2868
kn	-2869
▁husband	-2870
▁soft	-2871
▁points	-2872
▁Carolina	-2873
ittee	-2874
isco	-2875
▁Arab	-2876
▁Found	-2877
ergy	-2878
▁defend	-2879
▁finished	-2880
▁caused	-2881
▁1977	-2882
▁These	-2883
▁der	-2884
▁cust	-2885
▁change	-2886
ios	-2887
ounter	-2888
mon	-2889
▁Camp	-2890
▁Italy	-2891
▁according	-2892
▁Gra	-2893
BA	-2894
▁Although	-2895
dle	-2896
▁numerous	-2897
▁chief	-2898
vironment	-2899
▁lik	-2900
50	-2901
▁Just	-2902
▁remains	-2903
▁stre	-2904
▁Arch	-2905
▁launched	-2906
▁surround	-2907
▁date	-2908
▁review	-2909
ado	-2910
▁Mo	-2911
ification	-2912
▁dram	-2913
▁science	-2914
▁trib	-2915
▁hockey	-2916
▁better	-2917
▁sil	-2918
▁exc	-2919
asion	-2920
▁appears	-2921
adium	-2922
stand	-2923
ression	-2924
asc	-2925
▁officer	-2926
▁practice	-2927
▁1973	-2928
▁location	-2929
▁stay	-2930
▁constit	-2931
ume	-2932
▁sn	-2933
oma	-2934
ength	-2935
▁princip	-2936
▁To	-2937
▁Greek	-2938
▁maintain	-2939
road	-2940
▁cur	-2941
▁least	-2942
▁Navy	-2943
▁1969	-2944
▁scient	-2945
▁Penns	-2946
▁plant	-2947
▁learn	-2948
aries	-2949
▁represented	-2950
well	-2951
▁competition	-2952
leg	-2953
▁finally	-2954
▁remov	-2955
▁mainly	-2956
ada	-2957
▁Queen	-2958
▁candid	-2959
▁studies	-2960
▁1971	-2961
CA	-2962
▁dou	-2963
istic	-2964
urity	-2965
▁1968	-2966
ements	-2967
▁move	-2968
▁towards	-2969
▁ask	-2970
▁action	-2971
▁But	-2972
▁rights	-2973
▁1940	-2974
▁wide	-2975
hing	-2976
ites	-2977
▁Northern	-2978
oke	-2979
▁Cont	-2980
rief	-2981
▁focus	-2982
▁means	-2983
▁forced	-2984
▁Some	-2985
▁Pennsylvania	-2986
antic	-2987
▁Sov	-2988
▁cred	-2989
▁arrest	-2990
▁provide	-2991
▁dig	-2992
▁primarily	-2993
▁loss	-2994
▁jud	-2995
▁Saint	-2996
▁secret	-2997
▁drop	-2998
▁western	-2999
▁uses	-3000
▁nomin	-3001
ography	-3002
▁Valley	-3003
isl	-3004
▁Old	-3005
▁adop	-3006
▁recording	-3007
▁Emp	-3008
▁Ill	-3009
imate	-3010
unicip	-3011
▁Jer	-3012
▁Midd	-3013
▁Play	-3014
▁180	-3015
▁Trans	-3016
▁critic	-3017
▁senior	-3018
▁Mic	-3019
▁mountain	-3020
istry	-3021
▁Wood	-3022
▁allowed	-3023
cent	-3024
▁phil	-3025
▁editor	-3026
▁defeat	-3027
▁1967	-3028
▁wood	-3029
ano	-3030
▁arm	-3031
odes	-3032
▁native	-3033
▁despite	-3034
▁personal	-3035
▁method	-3036
▁block	-3037
▁oppos	-3038
▁cy	-3039
▁neg	-3040
▁future	-3041
chester	-3042
▁rap	-3043
▁poet	-3044
▁obs	-3045
chan	-3046
▁going	-3047
▁screen	-3048
▁consist	-3049
owers	-3050
▁contribut	-3051
rial	-3052
▁financ	-3053
▁feature	-3054
▁Ox	-3055
▁Haw	-3056
▁Lord	-3057
▁Ohio	-3058
▁majority	-3059
▁shoot	-3060
▁makes	-3061
ym	-3062
ficult	-3063
▁investig	-3064
▁Hot	-3065
▁Fore	-3066
ex	-3067
▁medical	-3068
▁pie	-3069
va	-3070
ye	-3071
▁university	-3072
▁1930	-3073
▁Liber	-3074
▁Bo	-3075
▁defeated	-3076
▁Southern	-3077
▁difficult	-3078
▁length	-3079
▁Den	-3080
▁railway	-3081
▁minor	-3082
yr	-3083
poration	-3084
gn	-3085
inner	-3086
▁referred	-3087
▁Gar	-3088
aps	-3089
▁hospital	-3090
▁appearance	-3091
bury	-3092
▁Sar	-3093
▁pil	-3094
▁tells	-3095
▁Congress	-3096
oring	-3097
▁Cla	-3098
▁provided	-3099
▁ball	-3100
airman	-3101
▁immedi	-3102
▁Since	-3103
erve	-3104
▁foot	-3105
▁account	-3106
iences	-3107
uth	-3108
etts	-3109
▁BBC	-3110
▁opt	-3111
▁Inter	-3112
▁effort	-3113
▁Ram	-3114
▁Ann	-3115
▁dead	-3116
▁oldest	-3117
▁marriage	-3118
▁Scotland	-3119
use	-3120
ga	-3121
▁sla	-3122
▁systems	-3123
▁longer	-3124
wer	-3125
▁Martin	-3126
▁Pla	-3127
▁Jewish	-3128
▁Publ	-3129
▁Kent	-3130
ban	-3131
▁Boy	-3132
▁Techn	-3133
▁Governor	-3134
▁chart	-3135
elt	-3136
▁particularly	-3137
▁Bost	-3138
▁sports	-3139
▁Government	-3140
lying	-3141
▁earned	-3142
▁veh	-3143
▁turned	-3144
▁Lee	-3145
▁multip	-3146
▁professor	-3147
▁formerly	-3148
sec	-3149
▁possible	-3150
▁commonly	-3151
▁newsp	-3152
iger	-3153
▁standard	-3154
▁fle	-3155
aches	-3156
▁Edward	-3157
▁believed	-3158
izing	-3159
ability	-3160
▁label	-3161
▁Sil	-3162
venue	-3163
▁Radio	-3164
▁Jim	-3165
▁Go	-3166
.1	-3167
▁higher	-3168
▁computer	-3169
embly	-3170
▁plat	-3171
▁brief	-3172
den	-3173
ructed	-3174
▁psych	-3175
▁discovered	-3176
hab	-3177
▁Pac	-3178
achus	-3179
▁Fred	-3180
▁heart	-3181
▁Britain	-3182
▁Scottish	-3183
▁always	-3184
▁Jersey	-3185
▁Mur	-3186
▁aver	-3187
▁section	-3188
▁Republican	-3189
▁Ros	-3190
▁passed	-3191
eds	-3192
▁Film	-3193
▁moving	-3194
▁Earth	-3195
▁Ont	-3196
▁Boston	-3197
▁Squ	-3198
▁brand	-3199
umn	-3200
▁quest	-3201
▁Soviet	-3202
▁Camb	-3203
▁Fin	-3204
▁179	-3205
▁associated	-3206
unior	-3207
▁mission	-3208
imb	-3209
mond	-3210
▁contro	-3211
oms	-3212
▁data	-3213
▁pers	-3214
▁thought	-3215
ote	-3216
▁companies	-3217
▁buildings	-3218
gr	-3219
▁serves	-3220
▁happ	-3221
▁transl	-3222
▁leave	-3223
▁staff	-3224
ita	-3225
porary	-3226
▁Most	-3227
▁quickly	-3228
▁object	-3229
▁Massachus	-3230
▁Win	-3231
▁meas	-3232
▁Summer	-3233
▁Francisco	-3234
zil	-3235
▁arg	-3236
▁county	-3237
▁Ontario	-3238
▁prob	-3239
ready	-3240
▁lack	-3241
▁championship	-3242
view	-3243
▁Massachusetts	-3244
▁1964	-3245
▁Sl	-3246
▁lower	-3247
ati	-3248
▁Museum	-3249
▁founder	-3250
uty	-3251
▁emer	-3252
adel	-3253
▁mach	-3254
▁word	-3255
▁Bre	-3256
ux	-3257
▁educated	-3258
▁Carl	-3259
aring	-3260
▁Best	-3261
ands	-3262
▁Bob	-3263
▁Pan	-3264
▁norm	-3265
gl	-3266
ging	-3267
▁fort	-3268
▁earlier	-3269
▁Commun	-3270
▁1945	-3271
▁tourn	-3272
▁Ol	-3273
▁qual	-3274
▁magazine	-3275
▁situated	-3276
▁Professor	-3277
mark	-3278
▁complet	-3279
▁prop	-3280
ault	-3281
▁Columbia	-3282
▁ge	-3283
▁Mill	-3284
▁complete	-3285
heast	-3286
▁Prov	-3287
▁hours	-3288
▁Er	-3289
▁colon	-3290
oid	-3291
isher	-3292
▁1965	-3293
een	-3294
iana	-3295
▁size	-3296
orpor	-3297
▁threat	-3298
irt	-3299
▁Spain	-3300
▁certain	-3301
▁Sk	-3302
▁Syd	-3303
▁widely	-3304
▁sea	-3305
▁already	-3306
▁establish	-3307
▁sal	-3308
▁altern	-3309
▁religious	-3310
▁limited	-3311
▁complex	-3312
▁variety	-3313
▁Mah	-3314
▁opening	-3315
▁seasons	-3316
▁structure	-3317
ingu	-3318
▁draw	-3319
wide	-3320
abeth	-3321
▁nearly	-3322
▁middle	-3323
▁How	-3324
▁lic	-3325
onto	-3326
▁cal	-3327
▁lif	-3328
▁Year	-3329
▁ded	-3330
▁energy	-3331
ura	-3332
▁Jo	-3333
▁concept	-3334
▁Broad	-3335
▁emb	-3336
▁1920	-3337
azz	-3338
▁Inc	-3339
ications	-3340
▁Stan	-3341
▁channel	-3342
▁drug	-3343
▁say	-3344
▁course	-3345
▁document	-3346
▁heavy	-3347
▁instr	-3348
▁rad	-3349
▁Charl	-3350
reme	-3351
▁prior	-3352
▁clear	-3353
▁sat	-3354
▁nine	-3355
▁Big	-3356
▁Empire	-3357
teen	-3358
▁bomb	-3359
▁Brazil	-3360
hold	-3361
enth	-3362
▁insp	-3363
▁Bank	-3364
▁saf	-3365
achel	-3366
▁source	-3367
esh	-3368
ether	-3369
▁culture	-3370
lah	-3371
▁Fer	-3372
ibrary	-3373
idents	-3374
lor	-3375
▁contains	-3376
ini	-3377
▁succeed	-3378
▁management	-3379
uge	-3380
itan	-3381
▁eas	-3382
▁helped	-3383
▁obtain	-3384
▁commission	-3385
ider	-3386
▁purs	-3387
ension	-3388
onst	-3389
mitted	-3390
och	-3391
▁Olympics	-3392
▁1966	-3393
gypt	-3394
▁pick	-3395
▁comes	-3396
▁operations	-3397
het	-3398
▁1963	-3399
▁nearby	-3400
▁technology	-3401
ests	-3402
ette	-3403
▁McC	-3404
▁gra	-3405
orial	-3406
▁wing	-3407
▁function	-3408
▁Sydney	-3409
▁eastern	-3410
▁sched	-3411
▁yet	-3412
▁1962	-3413
▁expand	-3414
▁er	-3415
▁Director	-3416
▁Eliz	-3417
▁Oxford	-3418
▁Secret	-3419
▁larger	-3420
▁failed	-3421
▁concer	-3422
▁equip	-3423
▁Dutch	-3424
▁starting	-3425
▁Sa	-3426
▁headqu	-3427
▁60	-3428
▁murder	-3429
▁Commission	-3430
▁blood	-3431
▁Educ	-3432
▁acting	-3433
urt	-3434
izes	-3435
oper	-3436
▁create	-3437
▁Gal	-3438
▁province	-3439
▁transport	-3440
inois	-3441
▁Egypt	-3442
▁notable	-3443
▁Mos	-3444
▁recent	-3445
ady	-3446
ils	-3447
tainment	-3448
▁cit	-3449
▁required	-3450
▁amount	-3451
▁route	-3452
▁Toronto	-3453
▁Cat	-3454
ented	-3455
▁News	-3456
▁Spr	-3457
▁conv	-3458
uz	-3459
▁poor	-3460
▁arrived	-3461
burgh	-3462
▁themsel	-3463
▁Michigan	-3464
▁visit	-3465
▁themselves	-3466
▁territ	-3467
ras	-3468
▁Wind	-3469
▁Cle	-3470
inary	-3471
onn	-3472
▁face	-3473
▁Prem	-3474
▁Democratic	-3475
▁give	-3476
cel	-3477
▁Illinois	-3478
▁Matt	-3479
▁store	-3480
▁goes	-3481
▁exhib	-3482
ola	-3483
▁ancient	-3484
▁Board	-3485
▁abs	-3486
▁lay	-3487
▁unit	-3488
▁Base	-3489
▁step	-3490
▁property	-3491
▁Cam	-3492
anda	-3493
writer	-3494
▁campus	-3495
▁highly	-3496
▁environment	-3497
▁weap	-3498
▁shown	-3499
▁platform	-3500
▁respect	-3501
▁According	-3502
▁Georgia	-3503
AS	-3504
iant	-3505
rack	-3506
▁legal	-3507
cend	-3508
ansas	-3509
oint	-3510
▁Not	-3511
▁tar	-3512
▁determ	-3513
▁characters	-3514
▁chem	-3515
▁firm	-3516
▁Hy	-3517
▁den	-3518
▁Prince	-3519
etic	-3520
▁Aut	-3521
anced	-3522
▁destroyed	-3523
▁Oper	-3524
▁Mod	-3525
▁meaning	-3526
inct	-3527
▁Dou	-3528
▁Fre	-3529
▁scored	-3530
▁scene	-3531
▁weeks	-3532
▁nar	-3533
▁Philipp	-3534
icted	-3535
gent	-3536
▁pen	-3537
▁Civil	-3538
▁Festival	-3539
▁trade	-3540
▁prevent	-3541
▁selected	-3542
▁anti	-3543
▁issues	-3544
▁Mountain	-3545
pro	-3546
▁artists	-3547
kins	-3548
uten	-3549
▁collection	-3550
▁Jul	-3551
change	-3552
▁Ha	-3553
uries	-3554
▁Class	-3555
▁univers	-3556
▁youth	-3557
▁Middle	-3558
▁Luc	-3559
▁theory	-3560
▁neighbor	-3561
▁actually	-3562
▁Es	-3563
▁Long	-3564
NA	-3565
▁Bh	-3566
iles	-3567
▁Bus	-3568
▁crew	-3569
▁claimed	-3570
▁managed	-3571
duction	-3572
▁cause	-3573
iled	-3574
arters	-3575
▁voice	-3576
▁provides	-3577
▁Cr	-3578
▁noted	-3579
▁suburb	-3580
rel	-3581
▁Histor	-3582
▁concern	-3583
ols	-3584
▁Under	-3585
▁academ	-3586
ties	-3587
▁bridge	-3588
▁becomes	-3589
TV	-3590
raw	-3591
obal	-3592
▁Sun	-3593
right	-3594
▁prominent	-3595
▁officially	-3596
▁1944	-3597
▁du	-3598
▁remaining	-3599
gian	-3600
▁1956	-3601
▁consider	-3602
▁Hel	-3603
▁1,	-3604
▁Line	-3605
▁taught	-3606
20	-3607
HL	-3608
▁tal	-3609
▁federal	-3610
▁Hind	-3611
▁metal	-3612
▁Portug	-3613
▁Raj	-3614
▁problems	-3615
▁Dis	-3616
▁composed	-3617
▁evidence	-3618
▁responsible	-3619
▁speed	-3620
▁settle	-3621
rown	-3622
▁tax	-3623
itt	-3624
▁twent	-3625
▁Tre	-3626
▁rugby	-3627
▁Eastern	-3628
▁financial	-3629
▁Science	-3630
orough	-3631
ulated	-3632
▁programs	-3633
▁bring	-3634
▁Elizabeth	-3635
▁Bet	-3636
▁enough	-3637
▁dom	-3638
▁dance	-3639
ify	-3640
ken	-3641
▁1947	-3642
▁1961	-3643
▁wear	-3644
▁nation	-3645
▁Many	-3646
▁Victoria	-3647
▁contest	-3648
▁Bow	-3649
▁Young	-3650
▁inside	-3651
The	-3652
▁minutes	-3653
inet	-3654
▁revealed	-3655
yan	-3656
phia	-3657
▁1958	-3658
ua	-3659
▁FC	-3660
▁houses	-3661
▁status	-3662
▁Pacific	-3663
omer	-3664
▁Follow	-3665
▁fellow	-3666
▁Philadel	-3667
▁plans	-3668
▁Tw	-3669
▁Max	-3670
▁1942	-3671
ibility	-3672
▁1948	-3673
▁finds	-3674
▁Russia	-3675
▁captured	-3676
▁80	-3677
ares	-3678
usion	-3679
▁Brook	-3680
▁forms	-3681
ipl	-3682
▁terms	-3683
ros	-3684
umed	-3685
igr	-3686
▁troops	-3687
▁dise	-3688
▁Philadelphia	-3689
▁Gh	-3690
▁1959	-3691
▁spir	-3692
bon	-3693
▁uns	-3694
house	-3695
▁Dani	-3696
vey	-3697
▁Two	-3698
▁Its	-3699
▁Leg	-3700
▁Jones	-3701
▁serve	-3702
▁male	-3703
▁older	-3704
▁Islam	-3705
▁therefore	-3706
▁su	-3707
▁offered	-3708
▁cell	-3709
▁walk	-3710
ste	-3711
▁1946	-3712
▁names	-3713
▁Pakistan	-3714
▁link	-3715
▁experience	-3716
▁ens	-3717
atively	-3718
reater	-3719
▁Mat	-3720
uments	-3721
▁Ash	-3722
▁Pre	-3723
▁constructed	-3724
ieuten	-3725
▁changes	-3726
▁Conserv	-3727
hew	-3728
▁Sat	-3729
▁featuring	-3730
bers	-3731
▁accident	-3732
bourne	-3733
▁Jud	-3734
ients	-3735
ricult	-3736
▁average	-3737
alist	-3738
▁done	-3739
▁units	-3740
▁Main	-3741
▁gained	-3742
▁acquired	-3743
▁Hockey	-3744
▁Adam	-3745
▁Mot	-3746
arden	-3747
▁products	-3748
ih	-3749
bs	-3750
▁adj	-3751
lav	-3752
▁autom	-3753
▁deep	-3754
▁Andrew	-3755
▁philos	-3756
▁minister	-3757
edd	-3758
▁Step	-3759
▁Service	-3760
▁1943	-3761
▁wanted	-3762
▁Hum	-3763
▁har	-3764
orning	-3765
▁Following	-3766
▁listed	-3767
uing	-3768
▁Tim	-3769
iest	-3770
▁Dar	-3771
▁increased	-3772
▁solo	-3773
ressive	-3774
▁Jr	-3775
▁ri	-3776
▁eth	-3777
▁younger	-3778
▁multiple	-3779
onic	-3780
▁Sur	-3781
▁street	-3782
▁tradition	-3783
▁batt	-3784
▁sequ	-3785
▁Committee	-3786
▁eld	-3787
obile	-3788
▁Kenn	-3789
▁master	-3790
▁surface	-3791
▁software	-3792
▁activities	-3793
▁Mid	-3794
iano	-3795
▁annual	-3796
iance	-3797
▁shop	-3798
undred	-3799
▁product	-3800
▁Dev	-3801
▁consists	-3802
itted	-3803
▁Ty	-3804
wan	-3805
▁renamed	-3806
▁inn	-3807
▁talk	-3808
▁log	-3809
▁Ray	-3810
▁Show	-3811
occer	-3812
▁bene	-3813
▁bass	-3814
▁promoted	-3815
▁Corporation	-3816
▁premi	-3817
▁supported	-3818
▁Asia	-3819
ieutenant	-3820
▁Ele	-3821
gend	-3822
ully	-3823
▁Tri	-3824
▁install	-3825
▁society	-3826
▁webs	-3827
▁oil	-3828
▁ability	-3829
▁municip	-3830
▁Enter	-3831
mission	-3832
▁Blue	-3833
▁forest	-3834
▁1941	-3835
ograp	-3836
▁belong	-3837
▁mechan	-3838
oned	-3839
▁1957	-3840
cement	-3841
▁collabor	-3842
▁separate	-3843
▁Jac	-3844
BS	-3845
▁immediately	-3846
▁capac	-3847
▁Det	-3848
action	-3849
ador	-3850
▁arran	-3851
▁Os	-3852
▁cities	-3853
ronic	-3854
▁Sund	-3855
▁Railway	-3856
▁tournament	-3857
▁Theatre	-3858
FA	-3859
ube	-3860
▁los	-3861
▁Jeff	-3862
▁affili	-3863
▁purchased	-3864
ounded	-3865
enc	-3866
ously	-3867
▁operating	-3868
▁Sand	-3869
▁page	-3870
▁conver	-3871
▁estate	-3872
oura	-3873
illed	-3874
▁text	-3875
▁quarter	-3876
pan	-3877
▁lines	-3878
▁economic	-3879
▁Av	-3880
▁owner	-3881
▁Jackson	-3882
pre	-3883
ulf	-3884
▁Ok	-3885
aped	-3886
▁captain	-3887
▁1954	-3888
▁meeting	-3889
▁Bang	-3890
▁squad	-3891
aily	-3892
iced	-3893
gs	-3894
▁amb	-3895
▁Muslim	-3896
yer	-3897
pton	-3898
▁citiz	-3899
ental	-3900
illy	-3901
▁roles	-3902
▁Johnson	-3903
gers	-3904
▁Little	-3905
▁temper	-3906
▁stations	-3907
30	-3908
ellig	-3909
ali	-3910
▁produce	-3911
▁ult	-3912
▁fifth	-3913
▁forward	-3914
ctic	-3915
▁?	-3916
▁anal	-3917
oir	-3918
▁depend	-3919
▁online	-3920
▁1955	-3921
▁border	-3922
▁covered	-3923
▁wor	-3924
isation	-3925
▁Mem	-3926
▁prin	-3927
▁presented	-3928
▁goals	-3929
antry	-3930
▁typically	-3931
▁1952	-3932
▁Hung	-3933
▁Tenn	-3934
▁observ	-3935
▁scholar	-3936
▁1951	-3937
▁cases	-3938
▁Tem	-3939
▁dedicated	-3940
▁Love	-3941
▁directly	-3942
▁Manchester	-3943
▁III	-3944
▁domin	-3945
mir	-3946
▁discuss	-3947
▁attention	-3948
▁contact	-3949
▁Tam	-3950
▁begins	-3951
ims	-3952
cting	-3953
▁Kong	-3954
▁System	-3955
gely	-3956
▁hop	-3957
▁Engine	-3958
▁Ell	-3959
▁Minn	-3960
ato	-3961
▁offers	-3962
▁restaur	-3963
▁1953	-3964
▁Centre	-3965
▁Ly	-3966
ocated	-3967
▁thr	-3968
▁NFL	-3969
ledge	-3970
▁adult	-3971
▁rare	-3972
▁increasing	-3973
put	-3974
▁Sea	-3975
gar	-3976
▁Rou	-3977
▁1949	-3978
▁Social	-3979
nes	-3980
▁Coast	-3981
▁depart	-3982
▁electric	-3983
ero	-3984
▁gain	-3985
▁Bir	-3986
itude	-3987
ias	-3988
▁titled	-3989
▁planned	-3990
itation	-3991
▁controvers	-3992
▁Public	-3993
war	-3994
▁Williams	-3995
ione	-3996
▁baseball	-3997
▁Cambridge	-3998
known	-3999
▁couple	-4000
.2	-4001
▁feet	-4002
▁leaves	-4003
▁Education	-4004
▁Ev	-4005
▁Are	-4006
ansion	-4007
▁mention	-4008
▁distance	-4009
ips	-4010
allen	-4011
▁latter	-4012
▁influence	-4013
▁interview	-4014
▁overall	-4015
▁motor	-4016
▁carried	-4017
▁soldiers	-4018
ift	-4019
utions	-4020
▁suffered	-4021
▁Def	-4022
▁intended	-4023
▁Tour	-4024
cean	-4025
▁Cross	-4026
▁giving	-4027
▁removed	-4028
▁historical	-4029
chest	-4030
fort	-4031
▁additional	-4032
▁fell	-4033
▁Station	-4034
▁operation	-4035
▁1939	-4036
▁Assembly	-4037
▁Far	-4038
▁inte	-4039
▁Corn	-4040
▁languages	-4041
▁Alexander	-4042
king	-4043
rupt	-4044
grad	-4045
▁Rome	-4046
▁Univers	-4047
iro	-4048
▁CE	-4049
opher	-4050
ologist	-4051
▁Dan	-4052
▁flight	-4053
▁Later	-4054
▁newspaper	-4055
▁issue	-4056
▁figure	-4057
▁transferred	-4058
ela	-4059
rate	-4060
▁Manag	-4061
wa	-4062
▁£	-4063
▁assistant	-4064
▁Latin	-4065
▁Avenue	-4066
▁Senate	-4067
▁Hong	-4068
oud	-4069
▁Land	-4070
▁below	-4071
▁foreign	-4072
▁178	-4073
ilies	-4074
▁Ari	-4075
pose	-4076
▁Tod	-4077
▁green	-4078
▁victory	-4079
▁corn	-4080
▁continue	-4081
▁bad	-4082
▁fr	-4083
icine	-4084
▁candidate	-4085
ribution	-4086
▁peak	-4087
ashion	-4088
▁Bas	-4089
▁largely	-4090
▁Rh	-4091
▁Ott	-4092
lywood	-4093
▁35	-4094
▁asked	-4095
▁Hospital	-4096
▁escape	-4097
▁department	-4098
vention	-4099
▁stated	-4100
▁adopted	-4101
aded	-4102
astic	-4103
bre	-4104
▁Mount	-4105
▁Prime	-4106
▁museum	-4107
▁Dun	-4108
thing	-4109
ucky	-4110
▁expected	-4111
awa	-4112
▁70	-4113
emeter	-4114
▁confir	-4115
▁Network	-4116
friend	-4117
▁wa	-4118
▁rate	-4119
▁aband	-4120
▁display	-4121
iated	-4122
ees	-4123
▁Ca	-4124
▁nature	-4125
▁Swedish	-4126
▁executive	-4127
▁accepted	-4128
▁incorpor	-4129
▁Sn	-4130
▁estim	-4131
unction	-4132
▁90	-4133
uted	-4134
urer	-4135
▁sum	-4136
▁Good	-4137
▁appearances	-4138
▁here	-4139
▁powerful	-4140
▁color	-4141
▁smaller	-4142
▁Work	-4143
▁hundred	-4144
▁Research	-4145
▁fought	-4146
▁possess	-4147
▁Vol	-4148
▁kind	-4149
▁continues	-4150
▁share	-4151
▁settled	-4152
iring	-4153
▁Inf	-4154
▁Way	-4155
▁episodes	-4156
iga	-4157
▁probably	-4158
▁Cy	-4159
▁Team	-4160
▁buried	-4161
▁decla	-4162
▁Earl	-4163
▁arrested	-4164
▁enem	-4165
▁thous	-4166
▁dog	-4167
▁mixed	-4168
▁spl	-4169
▁alongside	-4170
▁journalist	-4171
▁Ken	-4172
▁Series	-4173
▁true	-4174
thur	-4175
▁arts	-4176
worth	-4177
▁Argent	-4178
▁gas	-4179
▁di	-4180
▁Book	-4181
▁Iran	-4182
▁Chris	-4183
▁Mu	-4184
▁Jean	-4185
cript	-4186
▁expla	-4187
▁edition	-4188
uled	-4189
agon	-4190
▁told	-4191
▁Ak	-4192
▁Fox	-4193
▁Joe	-4194
inated	-4195
ón	-4196
▁Prog	-4197
▁Card	-4198
plement	-4199
▁records	-4200
▁era	-4201
▁dark	-4202
▁charge	-4203
▁Bab	-4204
peror	-4205
▁simply	-4206
▁177	-4207
▁Daniel	-4208
▁feel	-4209
like	-4210
▁diss	-4211
▁heav	-4212
▁pit	-4213
ropol	-4214
▁contem	-4215
▁require	-4216
▁paper	-4217
▁physical	-4218
▁Est	-4219
ection	-4220
▁Premier	-4221
ca	-4222
bec	-4223
▁cle	-4224
▁search	-4225
inem	-4226
▁Jes	-4227
▁Brad	-4228
emetery	-4229
▁Duke	-4230
▁Santa	-4231
▁card	-4232
▁Women	-4233
▁People	-4234
▁tracks	-4235
aters	-4236
▁shortly	-4237
▁Secretary	-4238
▁So	-4239
▁Top	-4240
▁percent	-4241
▁brothers	-4242
bed	-4243
▁stories	-4244
▁speak	-4245
▁decision	-4246
lab	-4247
▁ang	-4248
▁drama	-4249
stone	-4250
▁agent	-4251
ighter	-4252
▁Hon	-4253
▁musician	-4254
▁gives	-4255
▁academic	-4256
▁capacity	-4257
▁tried	-4258
▁recognized	-4259
▁numbers	-4260
▁Head	-4261
lyn	-4262
▁chap	-4263
▁whole	-4264
▁Ve	-4265
▁Wel	-4266
▁matches	-4267
isions	-4268
▁Master	-4269
▁perman	-4270
▁cam	-4271
▁Minnes	-4272
▁wrest	-4273
▁treatment	-4274
ffic	-4275
▁tank	-4276
joy	-4277
mas	-4278
▁Captain	-4279
▁Jon	-4280
▁Open	-4281
▁idea	-4282
▁Die	-4283
▁Mike	-4284
▁subs	-4285
▁recover	-4286
▁serious	-4287
▁Gen	-4288
▁Van	-4289
ounds	-4290
▁medal	-4291
▁reach	-4292
▁Out	-4293
▁Pen	-4294
▁holds	-4295
▁likely	-4296
▁results	-4297
▁Minnesota	-4298
▁performing	-4299
▁policy	-4300
▁conditions	-4301
ns	-4302
ophy	-4303
▁cab	-4304
ensus	-4305
▁BC	-4306
▁Airport	-4307
▁Sol	-4308
▁coming	-4309
ora	-4310
▁Rog	-4311
▁rule	-4312
weight	-4313
▁graduate	-4314
▁CD	-4315
▁digital	-4316
▁Bul	-4317
▁fast	-4318
▁Queens	-4319
▁Represent	-4320
▁albums	-4321
▁Mexican	-4322
▁proposed	-4323
▁reason	-4324
▁unknown	-4325
▁nuc	-4326
▁Tro	-4327
inals	-4328
▁Corps	-4329
▁Stephen	-4330
inity	-4331
▁sevent	-4332
▁counter	-4333
▁returning	-4334
▁ly	-4335
▁500	-4336
▁Lim	-4337
▁partn	-4338
▁Polish	-4339
▁format	-4340
▁Rod	-4341
▁Brig	-4342
▁cultural	-4343
ailed	-4344
▁winner	-4345
ographer	-4346
▁security	-4347
▁herself	-4348
▁portray	-4349
wick	-4350
▁confl	-4351
▁might	-4352
isk	-4353
▁ships	-4354
▁resulting	-4355
▁pan	-4356
▁fict	-4357
▁families	-4358
▁Melbourne	-4359
ails	-4360
ried	-4361
▁theatre	-4362
▁resident	-4363
▁completely	-4364
▁honor	-4365
▁Water	-4366
▁Foundation	-4367
▁worldwide	-4368
▁Turk	-4369
▁increase	-4370
▁Ul	-4371
▁slow	-4372
▁Conference	-4373
▁symb	-4374
onse	-4375
▁descend	-4376
ancy	-4377
▁Khan	-4378
▁Sher	-4379
add	-4380
stant	-4381
▁Az	-4382
▁don	-4383
▁Bridge	-4384
rong	-4385
▁pack	-4386
ricket	-4387
▁claims	-4388
▁killing	-4389
gu	-4390
▁Bern	-4391
▁twenty	-4392
▁sport	-4393
standing	-4394
▁competed	-4395
▁hol	-4396
ouri	-4397
▁Over	-4398
▁behav	-4399
nce	-4400
▁doctor	-4401
▁branch	-4402
▁levels	-4403
▁historic	-4404
▁Revolution	-4405
nds	-4406
hemat	-4407
▁1938	-4408
ila	-4409
▁fighting	-4410
▁36	-4411
▁Men	-4412
rical	-4413
▁twice	-4414
▁allows	-4415
▁Ver	-4416
▁spread	-4417
▁selling	-4418
▁teaching	-4419
▁ver	-4420
▁Castle	-4421
▁Naz	-4422
▁Tay	-4423
▁gets	-4424
▁hosted	-4425
▁initial	-4426
▁Baron	-4427
▁beaut	-4428
▁attacks	-4429
▁growing	-4430
▁bound	-4431
▁floor	-4432
▁Fam	-4433
▁score	-4434
▁Orig	-4435
▁blue	-4436
▁Lew	-4437
ctors	-4438
nding	-4439
▁cars	-4440
▁Berlin	-4441
▁unique	-4442
▁Baseball	-4443
▁hands	-4444
▁double	-4445
▁Arm	-4446
▁Sub	-4447
▁partner	-4448
▁pressure	-4449
aka	-4450
ributed	-4451
▁guitarist	-4452
▁clubs	-4453
istered	-4454
▁bought	-4455
▁Uk	-4456
rative	-4457
▁horse	-4458
iat	-4459
▁Hor	-4460
▁Anton	-4461
▁Games	-4462
▁Awards	-4463
▁attempts	-4464
▁Mir	-4465
▁Their	-4466
range	-4467
▁Viet	-4468
▁Beach	-4469
win	-4470
▁MP	-4471
▁attacked	-4472
▁inhab	-4473
▁offer	-4474
▁legisl	-4475
▁effects	-4476
▁quality	-4477
▁Da	-4478
▁trained	-4479
▁extended	-4480
▁dia	-4481
▁causing	-4482
▁officers	-4483
antly	-4484
▁damage	-4485
▁songwriter	-4486
▁rob	-4487
rence	-4488
▁Di	-4489
▁Wild	-4490
▁trial	-4491
▁providing	-4492
ibly	-4493
▁Highway	-4494
▁needed	-4495
▁website	-4496
pool	-4497
▁Bol	-4498
▁pilot	-4499
▁ath	-4500
▁girls	-4501
ny	-4502
▁Harris	-4503
▁conserv	-4504
▁resulted	-4505
rast	-4506
▁ess	-4507
▁extra	-4508
▁overs	-4509
▁sens	-4510
▁custom	-4511
▁problem	-4512
▁elements	-4513
▁Hal	-4514
ropical	-4515
▁article	-4516
▁cart	-4517
▁champion	-4518
imum	-4519
achelor	-4520
portun	-4521
II	-4522
uate	-4523
yal	-4524
▁Moh	-4525
urban	-4526
▁Anth	-4527
edia	-4528
unte	-4529
▁Offic	-4530
▁enjoy	-4531
▁comedy	-4532
▁allowing	-4533
▁founding	-4534
aya	-4535
▁Mas	-4536
▁burn	-4537
▁kept	-4538
▁tries	-4539
▁chain	-4540
▁hotel	-4541
▁concent	-4542
nam	-4543
▁Ur	-4544
iser	-4545
▁sales	-4546
▁instrument	-4547
▁Nick	-4548
▁Villa	-4549
▁wealth	-4550
▁Channel	-4551
itness	-4552
▁Sus	-4553
▁pict	-4554
▁bird	-4555
▁content	-4556
can	-4557
orney	-4558
▁Pit	-4559
▁Sweden	-4560
fielder	-4561
▁council	-4562
▁Fair	-4563
▁lear	-4564
vement	-4565
▁frequently	-4566
▁representing	-4567
itage	-4568
phy	-4569
▁hour	-4570
▁ut	-4571
▁disease	-4572
uan	-4573
▁Color	-4574
▁Despite	-4575
▁growth	-4576
▁fashion	-4577
▁regional	-4578
▁Nether	-4579
▁participated	-4580
ening	-4581
rugg	-4582
▁succeeded	-4583
▁fictional	-4584
eather	-4585
aling	-4586
▁path	-4587
▁retire	-4588
▁engineering	-4589
inks	-4590
▁beat	-4591
▁ordered	-4592
▁industrial	-4593
▁Der	-4594
orter	-4595
ja	-4596
▁coin	-4597
▁streng	-4598
10	-4599
▁unc	-4600
▁residents	-4601
▁stone	-4602
▁Hun	-4603
velopment	-4604
▁inspired	-4605
▁scheduled	-4606
▁mic	-4607
▁Arthur	-4608
▁organiz	-4609
MS	-4610
resp	-4611
vard	-4612
▁bott	-4613
▁categ	-4614
▁vote	-4615
▁lyric	-4616
▁stars	-4617
gal	-4618
▁pun	-4619
▁sons	-4620
▁Bishop	-4621
▁headquarters	-4622
▁et	-4623
▁direction	-4624
▁32	-4625
ishes	-4626
▁attra	-4627
▁Girl	-4628
▁Field	-4629
▁aired	-4630
▁necess	-4631
▁response	-4632
▁wild	-4633
▁sexual	-4634
▁Olympic	-4635
inking	-4636
▁Colon	-4637
▁surrounding	-4638
▁Life	-4639
▁upper	-4640
▁opportun	-4641
▁1937	-4642
cul	-4643
essee	-4644
ira	-4645
▁Ker	-4646
▁projects	-4647
▁secondary	-4648
hy	-4649
ysis	-4650
▁dyn	-4651
▁earth	-4652
olved	-4653
▁Bell	-4654
roll	-4655
▁kil	-4656
▁types	-4657
▁neighborhood	-4658
AF	-4659
mad	-4660
▁broke	-4661
▁Ath	-4662
▁prep	-4663
▁target	-4664
▁unable	-4665
▁stra	-4666
▁Ah	-4667
▁exam	-4668
ko	-4669
▁Police	-4670
▁creating	-4671
▁Tennessee	-4672
iter	-4673
▁begin	-4674
▁demand	-4675
▁spirit	-4676
▁fans	-4677
▁parish	-4678
ading	-4679
▁resist	-4680
yes	-4681
▁withd	-4682
▁Budd	-4683
▁suit	-4684
40	-4685
▁Lo	-4686
more	-4687
▁Ira	-4688
▁Steve	-4689
ilton	-4690
▁Cub	-4691
▁regarded	-4692
down	-4693
▁reform	-4694
▁condition	-4695
fect	-4696
ée	-4697
▁Pu	-4698
▁Band	-4699
▁Conf	-4700
▁concert	-4701
▁hun	-4702
▁Ob	-4703
▁ven	-4704
mouth	-4705
▁Korean	-4706
▁Times	-4707
▁fully	-4708
▁advert	-4709
urg	-4710
▁Sant	-4711
▁resc	-4712
▁Ba	-4713
uses	-4714
▁strugg	-4715
▁declared	-4716
▁Ta	-4717
▁Bat	-4718
stein	-4719
▁favor	-4720
▁starred	-4721
▁distinct	-4722
▁FM	-4723
▁Greg	-4724
jected	-4725
▁bul	-4726
▁1936	-4727
▁split	-4728
▁question	-4729
▁Song	-4730
▁Wilson	-4731
▁Id	-4732
▁hyd	-4733
AC	-4734
▁pal	-4735
▁Atlantic	-4736
▁organized	-4737
▁fa	-4738
resh	-4739
▁Oak	-4740
▁decl	-4741
▁places	-4742
▁Serb	-4743
▁composer	-4744
omm	-4745
rane	-4746
▁animals	-4747
▁leadership	-4748
▁WW	-4749
▁extrem	-4750
▁machine	-4751
vis	-4752
▁Post	-4753
rance	-4754
▁mess	-4755
▁Technology	-4756
▁experiment	-4757
hens	-4758
▁cerem	-4759
▁facility	-4760
inger	-4761
perial	-4762
eman	-4763
▁basis	-4764
▁sle	-4765
icate	-4766
ropolitan	-4767
▁morning	-4768
▁Kel	-4769
osen	-4770
▁hero	-4771
▁tele	-4772
▁knowledge	-4773
han	-4774
▁Alb	-4775
▁union	-4776
▁Tal	-4777
▁peace	-4778
▁words	-4779
aret	-4780
▁FI	-4781
▁More	-4782
▁cancer	-4783
▁square	-4784
light	-4785
oln	-4786
▁Barb	-4787
▁Tony	-4788
▁Office	-4789
ennis	-4790
▁Chap	-4791
▁That	-4792
▁Kansas	-4793
▁mut	-4794
▁laws	-4795
▁potential	-4796
ption	-4797
▁repe	-4798
▁consum	-4799
▁says	-4800
▁flag	-4801
▁prec	-4802
▁Championships	-4803
.3	-4804
onent	-4805
oration	-4806
▁trains	-4807
iy	-4808
secut	-4809
▁liber	-4810
▁Som	-4811
▁Poland	-4812
▁Missouri	-4813
▁nominated	-4814
▁Ep	-4815
▁principal	-4816
▁agricult	-4817
▁occurred	-4818
aging	-4819
▁Four	-4820
▁expanded	-4821
▁onto	-4822
▁thir	-4823
▁Harry	-4824
▁Ven	-4825
ulpt	-4826
▁Alf	-4827
▁Member	-4828
▁sources	-4829
ella	-4830
nic	-4831
▁facilities	-4832
▁History	-4833
▁joining	-4834
▁code	-4835
▁spons	-4836
▁whether	-4837
▁governor	-4838
itzer	-4839
▁Lady	-4840
▁scale	-4841
▁refused	-4842
AR	-4843
▁1918	-4844
▁crime	-4845
apers	-4846
▁Linc	-4847
▁Conne	-4848
▁issued	-4849
▁transform	-4850
▁Jam	-4851
▁politics	-4852
asty	-4853
regon	-4854
▁Netherlands	-4855
▁Indiana	-4856
▁Elect	-4857
▁critical	-4858
▁guard	-4859
mentary	-4860
▁Harvard	-4861
▁loan	-4862
▁equipment	-4863
▁Light	-4864
▁legend	-4865
uts	-4866
enger	-4867
▁Night	-4868
▁bands	-4869
▁piece	-4870
ownt	-4871
edom	-4872
▁Ra	-4873
▁spring	-4874
umber	-4875
▁1935	-4876
▁tree	-4877
▁Health	-4878
▁300	-4879
▁Maria	-4880
▁Ger	-4881
▁Les	-4882
▁god	-4883
▁income	-4884
▁attempted	-4885
▁ends	-4886
▁Justice	-4887
clus	-4888
▁letter	-4889
ader	-4890
▁Taylor	-4891
▁converted	-4892
▁divor	-4893
▁Oregon	-4894
▁singing	-4895
wich	-4896
▁causes	-4897
▁drive	-4898
▁opera	-4899
▁apparent	-4900
▁Philippines	-4901
▁If	-4902
▁value	-4903
▁Americans	-4904
▁1933	-4905
▁lies	-4906
▁nick	-4907
▁territory	-4908
▁tall	-4909
▁articles	-4910
▁semi	-4911
▁notably	-4912
▁contemporary	-4913
▁Dor	-4914
▁Nap	-4915
▁ring	-4916
▁gar	-4917
▁purpose	-4918
▁mind	-4919
▁spot	-4920
ederation	-4921
▁demonst	-4922
▁connected	-4923
iate	-4924
▁Lar	-4925
▁Bla	-4926
ev	-4927
eller	-4928
▁Forest	-4929
elligence	-4930
▁occasion	-4931
▁starring	-4932
ech	-4933
real	-4934
▁mill	-4935
▁Common	-4936
▁titles	-4937
▁learning	-4938
zy	-4939
▁Pers	-4940
▁scen	-4941
▁granted	-4942
▁achieved	-4943
fted	-4944
▁labor	-4945
▁conducted	-4946
▁literature	-4947
▁Niger	-4948
▁Lincoln	-4949
▁Colorado	-4950
▁individuals	-4951
▁Balt	-4952
▁Marc	-4953
ensed	-4954
▁rapid	-4955
abb	-4956
▁seem	-4957
▁Business	-4958
▁ple	-4959
▁relatively	-4960
lace	-4961
icide	-4962
▁1914	-4963
▁resour	-4964
▁Marg	-4965
▁consisting	-4966
▁45	-4967
roit	-4968
▁Game	-4969
▁flat	-4970
▁refers	-4971
▁Hou	-4972
▁stock	-4973
▁protect	-4974
▁wall	-4975
▁classes	-4976
rich	-4977
▁Brother	-4978
▁receive	-4979
▁Child	-4980
▁newly	-4981
▁weight	-4982
▁sixth	-4983
▁storm	-4984
▁estimated	-4985
sey	-4986
▁Creek	-4987
▁Mun	-4988
▁airport	-4989
▁starts	-4990
▁Hollywood	-4991
▁bal	-4992
▁Gall	-4993
▁critics	-4994
rog	-4995
lers	-4996
▁alternative	-4997
▁Kir	-4998
▁NHL	-4999
▁Stock	-5000
▁Islands	-5001
pass	-5002
▁Korea	-5003
▁Intern	-5004
▁door	-5005
▁guest	-5006
respond	-5007
▁Hay	-5008
igrated	-5009
▁Fire	-5010
▁Maryland	-5011
▁bit	-5012
▁Iraq	-5013
▁Doctor	-5014
▁presence	-5015
▁1934	-5016
▁drum	-5017
▁Dam	-5018
▁singles	-5019
▁Kentucky	-5020
▁losing	-5021
▁painting	-5022
uls	-5023
play	-5024
ighth	-5025
hedral	-5026
▁Route	-5027
▁towns	-5028
▁injury	-5029
aven	-5030
▁Abb	-5031
▁1900	-5032
▁1919	-5033
▁Home	-5034
▁producing	-5035
▁dropped	-5036
▁Pop	-5037
itled	-5038
▁Ford	-5039
▁coal	-5040
▁chairman	-5041
apore	-5042
▁launch	-5043
▁versions	-5044
▁generation	-5045
▁1917	-5046
▁abandoned	-5047
ipe	-5048
▁pet	-5049
▁magn	-5050
.7	-5051
wh	-5052
▁dim	-5053
▁Golden	-5054
▁ending	-5055
▁temple	-5056
ables	-5057
istics	-5058
▁Special	-5059
▁van	-5060
▁Francis	-5061
▁confirmed	-5062
▁Rang	-5063
▁Time	-5064
▁obtained	-5065
▁assigned	-5066
▁crim	-5067
▁Labour	-5068
▁models	-5069
▁trying	-5070
▁positive	-5071
idi	-5072
▁divided	-5073
▁scientific	-5074
▁lot	-5075
▁things	-5076
▁Entertainment	-5077
ivity	-5078
▁creation	-5079
▁Ut	-5080
▁efforts	-5081
▁Vice	-5082
▁alone	-5083
▁cells	-5084
▁Detroit	-5085
▁Independ	-5086
▁Singapore	-5087
▁royal	-5088
▁suppl	-5089
▁rat	-5090
▁nort	-5091
▁Stadium	-5092
▁Wat	-5093
erick	-5094
▁elections	-5095
▁NBA	-5096
▁traffic	-5097
▁activity	-5098
itche	-5099
▁roll	-5100
▁sculpt	-5101
▁holding	-5102
▁Mississ	-5103
▁settlement	-5104
▁Development	-5105
▁fair	-5106
.0	-5107
▁Mov	-5108
▁hall	-5109
▁powers	-5110
▁commander	-5111
▁fish	-5112
akh	-5113
time	-5114
▁vac	-5115
▁iron	-5116
▁paint	-5117
▁column	-5118
ublin	-5119
▁mentioned	-5120
▁Lind	-5121
▁receiving	-5122
ogue	-5123
▁try	-5124
RA	-5125
kes	-5126
▁applied	-5127
boy	-5128
elve	-5129
▁Ast	-5130
▁boys	-5131
▁Of	-5132
▁elev	-5133
▁Marsh	-5134
▁mom	-5135
▁1929	-5136
▁festival	-5137
▁something	-5138
sen	-5139
▁Sports	-5140
▁chosen	-5141
olis	-5142
▁workers	-5143
▁fix	-5144
▁Louisiana	-5145
▁normal	-5146
ji	-5147
▁Att	-5148
▁glass	-5149
▁reserv	-5150
▁silver	-5151
▁influenced	-5152
inson	-5153
▁youngest	-5154
SA	-5155
▁communities	-5156
▁hair	-5157
rat	-5158
ima	-5159
ears	-5160
uese	-5161
press	-5162
▁Ross	-5163
▁vehicle	-5164
▁rules	-5165
▁briefly	-5166
▁request	-5167
iami	-5168
athan	-5169
letic	-5170
▁combat	-5171
▁Another	-5172
uns	-5173
▁Po	-5174
▁Bru	-5175
▁pione	-5176
▁stores	-5177
ulty	-5178
▁theme	-5179
▁Indust	-5180
▁global	-5181
father	-5182
ilding	-5183
▁doing	-5184
▁intro	-5185
▁urban	-5186
▁performances	-5187
▁Int	-5188
▁memory	-5189
▁plants	-5190
19	-5191
▁ast	-5192
▁Leon	-5193
▁dial	-5194
▁saying	-5195
▁reduced	-5196
▁reviews	-5197
ava	-5198
▁paid	-5199
▁Davis	-5200
▁Norwe	-5201
▁multi	-5202
chestra	-5203
▁Cop	-5204
▁bow	-5205
▁prof	-5206
▁Federal	-5207
▁administration	-5208
▁believe	-5209
onsin	-5210
▁tower	-5211
▁AM	-5212
▁spok	-5213
▁Disney	-5214
▁Historic	-5215
▁ir	-5216
▁copies	-5217
▁Miami	-5218
▁End	-5219
▁lake	-5220
▁teen	-5221
▁Brian	-5222
▁aim	-5223
▁midfielder	-5224
▁hab	-5225
▁Wisc	-5226
▁graph	-5227
owntown	-5228
▁Philip	-5229
▁Spring	-5230
▁trav	-5231
▁grade	-5232
▁programming	-5233
▁Han	-5234
▁1928	-5235
aska	-5236
▁comic	-5237
▁billion	-5238
▁Patrick	-5239
water	-5240
▁exclus	-5241
▁slight	-5242
rees	-5243
room	-5244
amber	-5245
▁stadium	-5246
▁Wisconsin	-5247
▁image	-5248
▁Fe	-5249
onia	-5250
▁mayor	-5251
▁racing	-5252
▁cert	-5253
▁agreed	-5254
▁Asian	-5255
▁Medical	-5256
▁Portuguese	-5257
amin	-5258
▁greater	-5259
▁Anthony	-5260
rim	-5261
▁integ	-5262
▁pra	-5263
▁Dublin	-5264
oty	-5265
odies	-5266
▁Pier	-5267
onents	-5268
zz	-5269
▁script	-5270
▁returns	-5271
aces	-5272
ilst	-5273
zona	-5274
▁Other	-5275
iny	-5276
▁1910	-5277
▁supply	-5278
▁nob	-5279
▁Anne	-5280
▁Gree	-5281
▁sess	-5282
▁joint	-5283
▁advanced	-5284
pur	-5285
▁Jane	-5286
omot	-5287
▁getting	-5288
▁constitu	-5289
▁graduating	-5290
ateur	-5291
▁1932	-5292
▁rival	-5293
▁Fle	-5294
ender	-5295
▁soccer	-5296
▁scoring	-5297
estic	-5298
▁Christmas	-5299
▁DV	-5300
▁Lewis	-5301
duce	-5302
▁gang	-5303
▁needs	-5304
▁Diego	-5305
▁Guard	-5306
▁correspond	-5307
▁176	-5308
▁Media	-5309
▁Pun	-5310
▁rural	-5311
FC	-5312
met	-5313
▁users	-5314
▁Turkish	-5315
▁visited	-5316
▁Norwegian	-5317
▁flow	-5318
▁Howard	-5319
▁Arizona	-5320
kin	-5321
▁ce	-5322
vest	-5323
▁implement	-5324
▁containing	-5325
ruit	-5326
▁Alab	-5327
▁Prin	-5328
▁dipl	-5329
▁offices	-5330
▁approach	-5331
▁occupied	-5332
▁architecture	-5333
otic	-5334
▁combined	-5335
▁engineer	-5336
▁brain	-5337
bo	-5338
▁cho	-5339
▁1927	-5340
▁continu	-5341
▁fer	-5342
▁elim	-5343
▁Three	-5344
▁impr	-5345
▁survived	-5346
oted	-5347
▁dism	-5348
▁judge	-5349
▁consult	-5350
▁childhood	-5351
iful	-5352
born	-5353
enna	-5354
▁Rel	-5355
ić	-5356
keep	-5357
▁1924	-5358
▁Order	-5359
heim	-5360
▁Kim	-5361
▁Aff	-5362
▁Alber	-5363
▁nickn	-5364
▁impact	-5365
▁Mississipp	-5366
anth	-5367
▁Ali	-5368
▁Coll	-5369
▁murd	-5370
anna	-5371
▁mis	-5372
▁Hart	-5373
▁extensive	-5374
una	-5375
▁leaders	-5376
▁Kat	-5377
▁junior	-5378
▁1922	-5379
▁aged	-5380
▁daily	-5381
▁Eric	-5382
IA	-5383
▁driver	-5384
▁extremely	-5385
▁alle	-5386
▁rot	-5387
▁winter	-5388
▁Lieutenant	-5389
appe	-5390
▁Bad	-5391
▁Houston	-5392
▁ultimately	-5393
▁pup	-5394
▁mist	-5395
▁humans	-5396
ampions	-5397
▁parliament	-5398
▁ox	-5399
▁bra	-5400
▁1921	-5401
▁1931	-5402
ito	-5403
▁govern	-5404
▁metres	-5405
▁awards	-5406
▁showed	-5407
▁Liver	-5408
▁doll	-5409
▁vent	-5410
▁Hur	-5411
▁1916	-5412
▁Like	-5413
▁Power	-5414
▁Command	-5415
ef	-5416
osis	-5417
▁CEO	-5418
▁want	-5419
▁Clark	-5420
▁Before	-5421
▁centuries	-5422
▁classical	-5423
lahoma	-5424
▁Alabama	-5425
▁SS	-5426
▁kid	-5427
▁lov	-5428
▁touch	-5429
iner	-5430
▁watch	-5431
▁biggest	-5432
stitution	-5433
▁Press	-5434
▁1915	-5435
▁1926	-5436
▁device	-5437
.6	-5438
▁EP	-5439
▁painter	-5440
▁setting	-5441
▁conflict	-5442
▁Bor	-5443
▁rang	-5444
▁Colle	-5445
▁Connectic	-5446
▁successfully	-5447
ads	-5448
▁opp	-5449
▁user	-5450
▁meets	-5451
▁positions	-5452
aug	-5453
▁Montreal	-5454
▁von	-5455
▁table	-5456
▁Province	-5457
▁Connecticut	-5458
▁+	-5459
andy	-5460
▁Ball	-5461
outheast	-5462
▁background	-5463
▁virt	-5464
▁Oklahoma	-5465
▁Tai	-5466
▁developing	-5467
▁tend	-5468
uccess	-5469
▁falls	-5470
▁chemical	-5471
▁association	-5472
▁lawyer	-5473
▁mor	-5474
▁Form	-5475
▁acts	-5476
▁som	-5477
pects	-5478
ancing	-5479
▁franch	-5480
▁lyrics	-5481
▁fiction	-5482
▁mathemat	-5483
roke	-5484
▁flu	-5485
▁calls	-5486
▁Junior	-5487
▁150	-5488
▁Sri	-5489
▁Tar	-5490
▁Test	-5491
▁Econom	-5492
▁felt	-5493
▁swim	-5494
▁Cemetery	-5495
▁Cape	-5496
▁Albert	-5497
▁simple	-5498
▁folk	-5499
▁Domin	-5500
▁turns	-5501
▁portion	-5502
▁Mississippi	-5503
akers	-5504
iques	-5505
▁vess	-5506
▁Gram	-5507
▁Malays	-5508
▁encoura	-5509
▁jazz	-5510
.9	-5511
▁Sab	-5512
▁Supreme	-5513
▁weapons	-5514
▁compared	-5515
▁identified	-5516
▁commissioned	-5517
▁Ron	-5518
▁alt	-5519
▁cas	-5520
▁cong	-5521
▁volunte	-5522
asy	-5523
▁animal	-5524
▁permanent	-5525
▁1925	-5526
▁Vi	-5527
alion	-5528
ulations	-5529
▁bab	-5530
▁dang	-5531
▁Origin	-5532
▁1923	-5533
▁prepar	-5534
haps	-5535
zech	-5536
coming	-5537
▁descent	-5538
▁Bah	-5539
▁meant	-5540
▁authorities	-5541
ager	-5542
▁designated	-5543
▁Tel	-5544
sex	-5545
▁Sav	-5546
inder	-5547
▁reports	-5548
nel	-5549
▁piano	-5550
▁Rom	-5551
▁pow	-5552
▁sym	-5553
▁Free	-5554
▁Gord	-5555
▁incident	-5556
▁arms	-5557
▁sets	-5558
▁write	-5559
▁library	-5560
▁parties	-5561
▁Cas	-5562
▁Czech	-5563
▁retirement	-5564
pet	-5565
▁heavily	-5566
▁Area	-5567
▁save	-5568
▁AD	-5569
itors	-5570
▁sides	-5571
▁Also	-5572
▁decades	-5573
▁Cra	-5574
▁rom	-5575
▁Sunday	-5576
▁pattern	-5577
alle	-5578
hat	-5579
▁Quebec	-5580
idden	-5581
▁Hamilton	-5582
ikh	-5583
ushed	-5584
▁fuel	-5585
▁pair	-5586
▁Liverpool	-5587
.8	-5588
ifying	-5589
▁immigr	-5590
▁address	-5591
▁Both	-5592
▁Drag	-5593
bell	-5594
▁merch	-5595
mingham	-5596
▁Temple	-5597
MA	-5598
erto	-5599
▁Gre	-5600
iable	-5601
▁Walter	-5602
▁distingu	-5603
ses	-5604
oured	-5605
▁seats	-5606
gas	-5607
▁Today	-5608
▁quite	-5609
omy	-5610
▁illust	-5611
▁Regiment	-5612
.4	-5613
▁kilomet	-5614
▁Community	-5615
ooth	-5616
▁fields	-5617
▁orders	-5618
▁Rose	-5619
▁Micro	-5620
▁castle	-5621
,5	-5622
IS	-5623
eral	-5624
olished	-5625
▁deliver	-5626
▁regions	-5627
▁proceed	-5628
▁33	-5629
▁seg	-5630
▁Wars	-5631
▁greatest	-5632
ez	-5633
rect	-5634
rowd	-5635
▁max	-5636
isa	-5637
aved	-5638
▁Jay	-5639
veland	-5640
▁minute	-5641
▁Country	-5642
ba	-5643
▁fat	-5644
iling	-5645
▁Seat	-5646
▁covers	-5647
▁existing	-5648
▁AC	-5649
▁bed	-5650
▁vehicles	-5651
▁controlled	-5652
mod	-5653
ghan	-5654
▁Dall	-5655
▁rough	-5656
▁appearing	-5657
▁Birmingham	-5658
án	-5659
▁Tok	-5660
ryst	-5661
▁Holy	-5662
engers	-5663
▁Dougl	-5664
▁valley	-5665
inth	-5666
▁Hills	-5667
▁reign	-5668
dale	-5669
cow	-5670
▁Jess	-5671
▁hired	-5672
▁formation	-5673
▁household	-5674
▁situation	-5675
apes	-5676
imal	-5677
▁1912	-5678
▁Simon	-5679
▁entitled	-5680
▁operates	-5681
▁extend	-5682
▁Liberal	-5683
▁studying	-5684
▁heard	-5685
▁occas	-5686
▁nuclear	-5687
▁electronic	-5688
▁Jord	-5689
▁height	-5690
▁Cleveland	-5691
▁avoid	-5692
yo	-5693
pson	-5694
▁Family	-5695
▁preserv	-5696
alty	-5697
▁Stand	-5698
▁seems	-5699
▁audience	-5700
▁Sem	-5701
▁engaged	-5702
▁standing	-5703
osed	-5704
▁authority	-5705
osh	-5706
▁incorporated	-5707
▁rich	-5708
▁Basketball	-5709
▁specifically	-5710
▁Circ	-5711
▁twelve	-5712
▁Emperor	-5713
▁looking	-5714
▁Kal	-5715
▁skills	-5716
▁factory	-5717
▁restaurant	-5718
▁supporting	-5719
▁Representatives	-5720
AT	-5721
lan	-5722
▁Fa	-5723
uther	-5724
▁basic	-5725
▁injured	-5726
▁effective	-5727
▁Ho	-5728
▁Su	-5729
idge	-5730
▁steel	-5731
▁Military	-5732
▁possibly	-5733
mes	-5734
▁organizations	-5735
▁34	-5736
▁75	-5737
▁DVD	-5738
▁Web	-5739
▁Whit	-5740
pedition	-5741
▁Lt	-5742
▁lect	-5743
▁views	-5744
coh	-5745
▁Puerto	-5746
rig	-5747
anning	-5748
▁ancest	-5749
▁Nich	-5750
▁Welsh	-5751
▁defensive	-5752
encies	-5753
▁defin	-5754
▁enemy	-5755
▁Program	-5756
bro	-5757
oles	-5758
▁challen	-5759
onym	-5760
▁400	-5761
ivals	-5762
▁..	-5763
▁...	-5764
▁adapt	-5765
▁	-5766
e	-5767
a	-5768
t	-5769
n	-5770
i	-5771
o	-5772
r	-5773
s	-5774
h	-5775
l	-5776
d	-5777
c	-5778
u	-5779
m	-5780
f	-5781
g	-5782
p	-5783
w	-5784
y	-5785
b	-5786
,	-5787
v	-5788
.	-5789
k	-5790
1	-5791
S	-5792
A	-5793
C	-5794
0	-5795
T	-5796
9	-5797
M	-5798
2	-5799
B	-5800
-	-5801
P	-5802
I	-5803
H	-5804
D	-5805
R	-5806
L	-5807
F	-5808
N	-5809
x	-5810
8	-5811
G	-5812
(	-5813
)	-5814
W	-5815
E	-5816
J	-5817
5	-5818
7	-5819
3	-5820
6	-5821
4	-5822
O	-5823
z	-5824
K	-5825
U	-5826
j	-5827
q	-5828
V	-5829
;	-5830
Y	-5831
Z	-5832
:	-5833
Q	-5834
/	-5835
é	-5836
X	-5837
&	-5838
%	-5839
$	-5840
á	-5841
í	-5842
ó	-5843
!	-5844
ü	-5845
ö	-5846
?	-5847
£	-5848
ä	-5849
è	-5850
ć	-5851
ō	-5852
\	-5853
+	-5854
ç	-5855
ñ	-5856
ā	-5857
ø	-5858
š	-5859
а	-5860
ú	-5861
ã	-5862
°	-5863
É	-5864
о	-5865
и	-5866
ł	-5867
ا	-5868
č	-5869
â	-5870
ë	-5871
ş	-5872
е	-5873
å	-5874
р	-5875
ô	-5876
ū	-5877
’	-5878
н	-5879
à	-5880
ı	-5881
в	-5882
α	-5883
ل	-5884
ă	-5885
л	-5886
م	-5887
к	-5888
с	-5889
ž	-5890
ī	-5891
ر	-5892
æ	-5893
ن	-5894
_	-5895
т	-5896
ń	-5897
ο	-5898
Á	-5899
ê	-5900
ي	-5901
€	-5902
و	-5903
⁄	-5904
ß	-5905
ा	-5906
د	-5907
ï	-5908
Š	-5909
ð	-5910
Ö	-5911
ς	-5912
×	-5913
́	-5914
д	-5915
ب	-5916
ρ	-5917
ğ	-5918
~	-5919
र	-5920
−	-5921
μ	-5922
ν	-5923
ی	-5924
ι	-5925
س	-5926
्	-5927
`	-5928
м	-5929
ε	-5930
у	-5931
ř	-5932
ý	-5933
τ	-5934
Č	-5935
ع	-5936
î	-5937
β	-5938
ح	-5939
ч	-5940
^	-5941
Ó	-5942
ș	-5943
λ	-5944
σ	-5945
İ	-5946
Ž	-5947
κ	-5948
ò	-5949
Đ	-5950
ě	-5951
ś	-5952
й	-5953
Å	-5954
י	-5955
ि	-5956
ē	-5957
ت	-5958
ę	-5959
ţ	-5960
đ	-5961
γ	-5962
®	-5963
η	-5964
ه	-5965
π	-5966
ì	-5967
г	-5968
@	-5969
п	-5970
ी	-5971
С	-5972
б	-5973
क	-5974
न	-5975
ו	-5976
ج	-5977
я	-5978
ћ	-5979
ف	-5980
Ł	-5981
ة	-5982
म	-5983
ר	-5984
ą	-5985
М	-5986
்	-5987
Æ	-5988
ù	-5989
ė	-5990
û	-5991
Ō	-5992
ल	-5993
Ç	-5994
ά	-5995
ő	-5996
ʻ	-5997
大	-5998
А	-5999
ь	-6000
া	-6001
υ	-6002
Ş	-6003
Б	-6004
К	-6005
ش	-6006
า	-6007
ż	-6008
ə	-6009
П	-6010
õ	-6011
ร	-6012
व	-6013
Ø	-6014
ί	-6015
В	-6016
δ	-6017
त	-6018
א	-6019
य	-6020
द	-6021
ु	-6022
′	-6023
中	-6024
ق	-6025
з	-6026
स	-6027
े	-6028
ω	-6029
Ś	-6030
ц	-6031
ה	-6032
ग	-6033
ं	-6034
ל	-6035
ज	-6036
प	-6037
്	-6038
Н	-6039
ز	-6040
ư	-6041
ό	-6042
ț	-6043
ш	-6044
ы	-6045
Î	-6046
ň	-6047
Í	-6048
خ	-6049
ह	-6050
θ	-6051
ー	-6052
Р	-6053
±	-6054
Σ	-6055
ो	-6056
ệ	-6057
ơ	-6058
্	-6059
→	-6060
ك	-6061
Ü	-6062
ב	-6063
נ	-6064
Г	-6065
ி	-6066
น	-6067
­	-6068
ύ	-6069
מ	-6070
ص	-6071
Κ	-6072
Д	-6073
ʿ	-6074
φ	-6075
ź	-6076
О	-6077
子	-6078
学	-6079
ṣ	-6080
ṭ	-6081
山	-6082
х	-6083
έ	-6084
ա	-6085
র	-6086
ン	-6087
§	-6088
Ż	-6089
Α	-6090
ד	-6091
க	-6092
ễ	-6093
海	-6094
田	-6095
œ	-6096
ή	-6097
ת	-6098
Þ	-6099
И	-6100
ک	-6101
Ä	-6102
ј	-6103
श	-6104
ả	-6105
¥	-6106
ม	-6107
ạ	-6108
ர	-6109
ง	-6110
ย	-6111
ṇ	-6112
‐	-6113
国	-6114
Δ	-6115
ŏ	-6116
Γ	-6117
Л	-6118
ว	-6119
Т	-6120
ब	-6121
ہ	-6122
ण	-6123
ப	-6124
ா	-6125
新	-6126
ש	-6127
ন	-6128
Λ	-6129
χ	-6130
พ	-6131
ิ	-6132
公	-6133
ů	-6134
Π	-6135
ম	-6136
天	-6137
Ú	-6138
ǎ	-6139
Ф	-6140
ж	-6141
ط	-6142
ั	-6143
เ	-6144
ル	-6145
院	-6146
ส	-6147
ა	-6148
南	-6149
學	-6150
文	-6151
ח	-6152
ע	-6153
್	-6154
ḥ	-6155
人	-6156
ˈ	-6157
Φ	-6158
ड	-6159
ட	-6160
ம	-6161
王	-6162
西	-6163
ɪ	-6164
ώ	-6165
ג	-6166
ס	-6167
য	-6168
த	-6169
ర	-6170
ท	-6171
ị	-6172
ŭ	-6173
ى	-6174
ு	-6175
安	-6176
ņ	-6177
ǔ	-6178
अ	-6179
ু	-6180
ะ	-6181
道	-6182
¡	-6183
ি	-6184
ก	-6185
小	-6186
李	-6187
ÿ	-6188
ф	-6189
ן	-6190
ष	-6191
ా	-6192
ล	-6193
ุ	-6194
ế	-6195
ス	-6196
一	-6197
北	-6198
州	-6199
Ā	-6200
Μ	-6201
ק	-6202
غ	-6203
گ	-6204
ব	-6205
ี	-6206
ồ	-6207
の	-6208
三	-6209
皇	-6210
金	-6211
高	-6212
پ	-6213
్	-6214
ต	-6215
上	-6216
이	-6217
З	-6218
פ	-6219
أ	-6220
ट	-6221
ক	-6222
ল	-6223
ി	-6224
ช	-6225
華	-6226
ŵ	-6227
ζ	-6228
ё	-6229
і	-6230
ض	-6231
স	-6232
ী	-6233
อ	-6234
่	-6235
์	-6236
ი	-6237
Ḥ	-6238
家	-6239
市	-6240
會	-6241
ǐ	-6242
Ν	-6243
ո	-6244
च	-6245
দ	-6246
ు	-6247
പ	-6248
し	-6249
会	-6250
馬	-6251
Τ	-6252
ն	-6253
ಾ	-6254
ห	-6255
ầ	-6256
₤	-6257
東	-6258
水	-6259
社	-6260
美	-6261
ť	-6262
ũ	-6263
ː	-6264
Β	-6265
Ц	-6266
آ	-6267
জ	-6268
ด	-6269
ắ	-6270
本	-6271
林	-6272
武	-6273
У	-6274
ր	-6275
भ	-6276
ू	-6277
ರ	-6278
ര	-6279
ാ	-6280
ờ	-6281
†	-6282
ラ	-6283
之	-6284
光	-6285
國	-6286
日	-6287
長	-6288
À	-6289
Ñ	-6290
ġ	-6291
Θ	-6292
হ	-6293
ന	-6294
ე	-6295
ọ	-6296
ん	-6297
京	-6298
司	-6299
和	-6300
民	-6301
白	-6302
þ	-6303
Ω	-6304
ז	-6305
ख	-6306
ய	-6307
ல	-6308
മ	-6309
‍	-6310
太	-6311
川	-6312
明	-6313
村	-6314
港	-6315
ħ	-6316
Е	-6317
ਾ	-6318
්	-6319
、	-6320
リ	-6321
口	-6322
城	-6323
平	-6324
野	-6325
Ι	-6326
ξ	-6327
ю	-6328
ِ	-6329
ত	-6330
়	-6331
ા	-6332
ి	-6333
ള	-6334
ു	-6335
ク	-6336
ト	-6337
东	-6338
法	-6339
石	-6340
神	-6341
ɔ	-6342
ט	-6343
َ	-6344
چ	-6345
़	-6346
ந	-6347
వ	-6348
บ	-6349
ố	-6350
ộ	-6351
⟨	-6352
⟩	-6353
・	-6354
元	-6355
成	-6356
星	-6357
校	-6358
部	-6359
陳	-6360
성	-6361
ŋ	-6362
ɑ	-6363
ʼ	-6364
Ε	-6365
Ο	-6366
Ш	-6367
ध	-6368
୍	-6369
క	-6370
న	-6371
ക	-6372
ട	-6373
ത	-6374
ู	-6375
ア	-6376
タ	-6377
寺	-6378
江	-6379
玉	-6380
立	-6381
花	-6382
門	-6383
香	-6384
상	-6385
ľ	-6386
Ţ	-6387
Х	-6388
ם	-6389
צ	-6390
ث	-6391
ে	-6392
ள	-6393
வ	-6394
ි	-6395
แ	-6396
ṅ	-6397
み	-6398
シ	-6399
ジ	-6400
島	-6401
教	-6402
書	-6403
有	-6404
正	-6405
生	-6406
路	-6407
黃	-6408
정	-6409
ъ	-6410
э	-6411
њ	-6412
ւ	-6413
ָ	-6414
ौ	-6415
গ	-6416
ச	-6417
ை	-6418
ం	-6419
ದ	-6420
ಿ	-6421
സ	-6422
რ	-6423
ṛ	-6424
ấ	-6425
と	-6426
イ	-6427
原	-6428
台	-6429
周	-6430
士	-6431
年	-6432
理	-6433
英	-6434
青	-6435
黄	-6436
대	-6437
Ρ	-6438
إ	-6439
थ	-6440
ਲ	-6441
ਸ	-6442
ਿ	-6443
ಕ	-6444
ป	-6445
ศ	-6446
้	-6447
ậ	-6448
ữ	-6449
か	-6450
ド	-6451
九	-6452
二	-6453
信	-6454
利	-6455
孝	-6456
愛	-6457
方	-6458
木	-6459
河	-6460
洲	-6461
良	-6462
藤	-6463
陈	-6464
雲	-6465
김	-6466
지	-6467
ĭ	-6468
ļ	-6469
ի	-6470
כ	-6471
ئ	-6472
ூ	-6473
ಲ	-6474
ല	-6475
ლ	-6476
ề	-6477
Ἀ	-6478
ῖ	-6479
ῦ	-6480
加	-6481
工	-6482
式	-6483
清	-6484
灣	-6485
行	-6486
동	-6487
주	-6488
Â	-6489
Ć	-6490
ɛ	-6491
ʃ	-6492
ʔ	-6493
̊	-6494
Η	-6495
Χ	-6496
Ж	-6497
ּ	-6498
ھ	-6499
শ	-6500
ਨ	-6501
ੋ	-6502
ર	-6503
ன	-6504
మ	-6505
ค	-6506
ไ	-6507
ํ	-6508
ნ	-6509
ḍ	-6510
ṃ	-6511
‰	-6512
う	-6513
ち	-6514
カ	-6515
モ	-6516
不	-6517
华	-6518
吳	-6519
地	-6520
堂	-6521
張	-6522
德	-6523
政	-6524
治	-6525
真	-6526
義	-6527
軍	-6528
郎	-6529
기	-6530
÷	-6531
ĕ	-6532
ų	-6533
ʾ	-6534
Ч	-6535
ե	-6536
յ	-6537
ظ	-6538
ई	-6539
उ	-6540
ো	-6541
ର	-6542
ಯ	-6543
ು	-6544
യ	-6545
വ	-6546
ල	-6547
จ	-6548
₹	-6549
∞	-6550
≈	-6551
☆	-6552
ⴰ	-6553
《	-6554
》	-6555
た	-6556
ィ	-6557
ウ	-6558
グ	-6559
ナ	-6560
主	-6561
井	-6562
仁	-6563
基	-6564
夫	-6565
徐	-6566
心	-6567
松	-6568
流	-6569
肉	-6570
龍	-6571
민	-6572
원	-6573
자	-6574
학	-6575
호	-6576
©	-6577
Ħ	-6578
ǒ	-6579
Ζ	-6580
Ј	-6581
Я	-6582
щ	-6583
կ	-6584
ַ	-6585
ء	-6586
ذ	-6587
চ	-6588
ਮ	-6589
య	-6590
ವ	-6591
න	-6592
ව	-6593
ු	-6594
ญ	-6595
ณ	-6596
โ	-6597
་	-6598
ვ	-6599
ს	-6600
ụ	-6601
ứ	-6602
√	-6603
≤	-6604
い	-6605
ズ	-6606
ッ	-6607
フ	-6608
ム	-6609
史	-6610
哈	-6611
女	-6612
孫	-6613
宮	-6614
帝	-6615
我	-6616
時	-6617
朱	-6618
株	-6619
沙	-6620
物	-6621
百	-6622
的	-6623
福	-6624
空	-6625
色	-6626
郭	-6627
限	-6628
龙	-6629
경	-6630
리	-6631
선	-6632
우	-6633
한	-6634
¢	-6635
ʊ	-6636
̈	-6637
Ξ	-6638
ψ	-6639
ђ	-6640
ִ	-6641
ँ	-6642
ळ	-6643
ै	-6644
ট	-6645
ண	-6646
డ	-6647
ద	-6648
ప	-6649
ల	-6650
శ	-6651
റ	-6652
ර	-6653
ස	-6654
ข	-6655
ธ	-6656
ภ	-6657
ẩ	-6658
ớ	-6659
♭	-6660
ⵎ	-6661
く	-6662
に	-6663
り	-6664
エ	-6665
キ	-6666
ャ	-6667
傅	-6668
八	-6669
出	-6670
力	-6671
嘉	-6672
坡	-6673
宗	-6674
富	-6675
张	-6676
族	-6677
是	-6678
業	-6679
津	-6680
洪	-6681
科	-6682
竹	-6683
第	-6684
線	-6685
角	-6686
運	-6687
都	-6688
酒	-6689
銀	-6690
集	-6691
국	-6692
박	-6693
아	-6694
어	-6695
유	-6696
윤	-6697
È	-6698
ĩ	-6699
Ř	-6700
Ț	-6701
Ю	-6702
ُ	-6703
ّ	-6704
ٹ	-6705
आ	-6706
ठ	-6707
फ	-6708
আ	-6709
প	-6710
ফ	-6711
ਰ	-6712
ସ	-6713
ற	-6714
త	-6715
స	-6716
ಟ	-6717
ತ	-6718
ಮ	-6719
ಹ	-6720
ം	-6721
ප	-6722
უ	-6723
ስ	-6724
―	-6725
‚	-6726
☠	-6727
き	-6728
こ	-6729
さ	-6730
つ	-6731
な	-6732
ゃ	-6733
コ	-6734
ニ	-6735
マ	-6736
乐	-6737
代	-6738
何	-6739
全	-6740
勇	-6741
医	-6742
后	-6743
善	-6744
四	-6745
园	-6746
官	-6747
巴	-6748
常	-6749
店	-6750
府	-6751
康	-6752
梅	-6753
洋	-6754
浩	-6755
為	-6756
督	-6757
秋	-6758
程	-6759
芳	-6760
葉	-6761
言	-6762
記	-6763
詩	-6764
通	-6765
那	-6766
阿	-6767
隆	-6768
際	-6769
雪	-6770
韓	-6771
頭	-6772
風	-6773
고	-6774
나	-6775
니	-6776
도	-6777
사	-6778
신	-6779
장	-6780
전	-6781
현	-6782
¿	-6783
Ġ	-6784
ģ	-6785
ķ	-6786
Ľ	-6787
ŷ	-6788
ƒ	-6789
Ș	-6790
ʌ	-6791
Ψ	-6792
Э	-6793
ց	-6794
ְ	-6795
ؤ	-6796
ृ	-6797
ਕ	-6798
ਜ	-6799
ੰ	-6800
લ	-6801
વ	-6802
ା	-6803
ି	-6804
ங	-6805
ழ	-6806
ெ	-6807
ಗ	-6808
ಡ	-6809
ೆ	-6810
ണ	-6811
ถ	-6812
ድ	-6813
‒	-6814
₱	-6815
』	-6816
ら	-6817
る	-6818
オ	-6819
セ	-6820
テ	-6821
デ	-6822
ノ	-6823
ロ	-6824
ワ	-6825
世	-6826
事	-6827
任	-6828
体	-6829
俊	-6830
六	-6831
军	-6832
刘	-6833
功	-6834
千	-6835
博	-6836
古	-6837
商	-6838
園	-6839
圓	-6840
土	-6841
字	-6842
定	-6843
宜	-6844
尹	-6845
岡	-6846
師	-6847
延	-6848
建	-6849
後	-6850
志	-6851
忠	-6852
慶	-6853
才	-6854
春	-6855
楊	-6856
歌	-6857
毛	-6858
氏	-6859
永	-6860
洞	-6861
渡	-6862
澤	-6863
爾	-6864
版	-6865
特	-6866
珠	-6867
瑞	-6868
盟	-6869
研	-6870
老	-6871
联	-6872
聖	-6873
臺	-6874
船	-6875
虎	-6876
街	-6877
見	-6878
許	-6879
語	-6880
超	-6881
足	-6882
車	-6883
速	-6884
醫	-6885
里	-6886
附	-6887
陽	-6888
面	-6889
館	-6890
馆	-6891
马	-6892
鴨	-6893
교	-6894
남	-6895
미	-6896
산	-6897
삼	-6898
씨	-6899
연	-6900
하	-6901
ű	-6902
ɐ	-6903
̀	-6904
̱	-6905
ΐ	-6906
Ђ	-6907
І	-6908
ї	-6909
љ	-6910
Қ	-6911
մ	-6912
ֹ	-6913
ު	-6914
इ	-6915
অ	-6916
খ	-6917
ৰ	-6918
ਆ	-6919
ਦ	-6920
ਬ	-6921
ੀ	-6922
ી	-6923
ଡ	-6924
ନ	-6925
ୁ	-6926
େ	-6927
இ	-6928
ோ	-6929
ో	-6930
ಂ	-6931
ಣ	-6932
ಸ	-6933
ജ	-6934
ശ	-6935
ീ	-6936
ග	-6937
ට	-6938
ො	-6939
ผ	-6940
າ	-6941
თ	-6942
ን	-6943
ḵ	-6944
ṯ	-6945
ằ	-6946
ặ	-6947
ỉ	-6948
ủ	-6949
ỳ	-6950
ỹ	-6951
ῆ	-6952
‡	-6953
≥	-6954
「	-6955
ゴ	-6956
チ	-6957
ブ	-6958
プ	-6959
ヨ	-6960
レ	-6961
下	-6962
丸	-6963
久	-6964
五	-6965
仔	-6966
佛	-6967
兰	-6968
共	-6969
前	-6970
劉	-6971
化	-6972
区	-6973
十	-6974
半	-6975
县	-6976
可	-6977
合	-6978
吉	-6979
名	-6980
場	-6981
多	-6982
夜	-6983
尉	-6984
尔	-6985
尚	-6986
广	-6987
広	-6988
庭	-6989
影	-6990
慧	-6991
戴	-6992
所	-6993
排	-6994
昭	-6995
景	-6996
晴	-6997
月	-6998
术	-6999
棋	-7000
火	-7001
用	-7002
發	-7003
盛	-7004
目	-7005
知	-7006
秀	-7007
究	-7008
經	-7009
群	-7010
能	-7011
自	-7012
話	-7013
语	-7014
谷	-7015
豪	-7016
輔	-7017
迪	-7018
遠	-7019
鄭	-7020
鉄	-7021
鎮	-7022
长	-7023
間	-7024
雄	-7025
雷	-7026
麥	-7027
구	-7028
드	-7029
문	-7030
보	-7031
비	-7032
수	-7033
악	-7034
의	-7035
제	-7036
종	-7037
～	-7038
Ð	-7039
Ğ	-7040
į	-7041
ȟ	-7042
̃	-7043
Ά	-7044
ϊ	-7045
Љ	-7046
ҳ	-7047
Ա	-7048
Մ	-7049
գ	-7050
թ	-7051
լ	-7052
ս	-7053
ץ	-7054
ڈ	-7055
ަ	-7056
ި	-7057
ް	-7058
ए	-7059
घ	-7060
ञ	-7061
ং	-7062
উ	-7063
ঞ	-7064
ণ	-7065
ਖ	-7066
ਵ	-7067
ੁ	-7068
ં	-7069
ે	-7070
ଦ	-7071
அ	-7072
ொ	-7073
గ	-7074
ీ	-7075
ే	-7076
ನ	-7077
ಪ	-7078
ೇ	-7079
ං	-7080
ක	-7081
ම	-7082
ซ	-7083
ื	-7084
ར	-7085
ာ	-7086
ბ	-7087
დ	-7088
მ	-7089
ხ	-7090
መ	-7091
ር	-7092
ḷ	-7093
Ṣ	-7094
ẓ	-7095
ẽ	-7096
ỗ	-7097
ợ	-7098
ἔ	-7099
ἰ	-7100
∈	-7101
ⵏ	-7102
ⵓ	-7103
〈	-7104
〉	-7105
」	-7106
『	-7107
ぬ	-7108
ま	-7109
ろ	-7110
わ	-7111
サ	-7112
ダ	-7113
バ	-7114
ボ	-7115
ュ	-7116
ョ	-7117
云	-7118
令	-7119
伯	-7120
侯	-7121
保	-7122
修	-7123
兆	-7124
克	-7125
内	-7126
再	-7127
分	-7128
剛	-7129
升	-7130
卢	-7131
卫	-7132
唐	-7133
团	-7134
圍	-7135
圖	-7136
團	-7137
塔	-7138
壽	-7139
夏	-7140
央	-7141
奇	-7142
婦	-7143
寿	-7144
將	-7145
展	-7146
峰	-7147
师	-7148
干	-7149
幸	-7150
幹	-7151
廣	-7152
形	-7153
彦	-7154
律	-7155
情	-7156
惠	-7157
戰	-7158
戲	-7159
手	-7160
放	-7161
斯	-7162
昌	-7163
智	-7164
朝	-7165
朴	-7166
杨	-7167
果	-7168
桥	-7169
梁	-7170
樹	-7171
次	-7172
沢	-7173
泉	-7174
波	-7175
泰	-7176
淡	-7177
湖	-7178
源	-7179
漢	-7180
潘	-7181
瀬	-7182
烈	-7183
熊	-7184
片	-7185
球	-7186
电	-7187
直	-7188
相	-7189
省	-7190
級	-7191
編	-7192
红	-7193
级	-7194
维	-7195
翼	-7196
者	-7197
聯	-7198
育	-7199
萬	-7200
董	-7201
蘇	-7202
術	-7203
解	-7204
諸	-7205
謝	-7206
豊	-7207
邦	-7208
錢	-7209
陸	-7210
风	-7211
黎	-7212
黨	-7213
강	-7214
범	-7215
영	-7216
은	-7217
인	-7218
파	-7219
화	-7220
회	-7221
￼	-7222
Ò	-7223
Ď	-7224
Ī	-7225
ǀ	-7226
ɒ	-7227
ɾ	-7228
ʉ	-7229
ʒ	-7230
̂	-7231
Έ	-7232
Υ	-7233
Џ	-7234
ғ	-7235
ұ	-7236
Գ	-7237
հ	-7238
վ	-7239
տ	-7240
،	-7241
ژ	-7242
ܐ	-7243
ܝ	-7244
ܢ	-7245
އ	-7246
ދ	-7247
ढ	-7248
ই	-7249
ঙ	-7250
ধ	-7251
ভ	-7252
ৱ	-7253
ખ	-7254
ન	-7255
િ	-7256
્	-7257
ଗ	-7258
ଧ	-7259
ମ	-7260
ஷ	-7261
ே	-7262
ట	-7263
ೀ	-7264
അ	-7265
ഡ	-7266
ബ	-7267
ൂ	-7268
െ	-7269
ോ	-7270
ൻ	-7271
ർ	-7272
ත	-7273
බ	-7274
ය	-7275
ษ	-7276
็	-7277
ས	-7278
ོ	-7279
က	-7280
်	-7281
გ	-7282
კ	-7283
ჭ	-7284
ላ	-7285
ራ	-7286
ት	-7287
አ	-7288
ា	-7289
Ṭ	-7290
ể	-7291
ừ	-7292
ἐ	-7293
ὐ	-7294
ῶ	-7295
‬	-7296
∴	-7297
♥	-7298
♯	-7299
ⵉ	-7300
〜	-7301
お	-7302
ぐ	-7303
じ	-7304
す	-7305
ず	-7306
は	-7307
ひ	-7308
ほ	-7309
ェ	-7310
ツ	-7311
ハ	-7312
パ	-7313
ミ	-7314
ヴ	-7315
万	-7316
丹	-7317
乙	-7318
书	-7319
交	-7320
仪	-7321
仲	-7322
伊	-7323
伍	-7324
作	-7325
使	-7326
倫	-7327
健	-7328
傳	-7329
兒	-7330
兴	-7331
典	-7332
凤	-7333
助	-7334
勒	-7335
勝	-7336
包	-7337
區	-7338
友	-7339
吴	-7340
呂	-7341
命	-7342
喜	-7343
堅	-7344
夢	-7345
夷	-7346
奈	-7347
奥	-7348
好	-7349
威	-7350
孙	-7351
孺	-7352
宇	-7353
宋	-7354
宏	-7355
宝	-7356
射	-7357
就	-7358
尾	-7359
局	-7360
屋	-7361
岐	-7362
岛	-7363
峽	-7364
崇	-7365
希	-7366
弁	-7367
弘	-7368
弟	-7369
当	-7370
彭	-7371
得	-7372
微	-7373
念	-7374
思	-7375
性	-7376
总	-7377
恒	-7378
恩	-7379
想	-7380
拳	-7381
振	-7382
支	-7383
普	-7384
晶	-7385
曾	-7386
来	-7387
柏	-7388
柱	-7389
柳	-7390
栗	-7391
桃	-7392
樂	-7393
橋	-7394
機	-7395
欣	-7396
汉	-7397
活	-7398
浪	-7399
消	-7400
灵	-7401
熟	-7402
父	-7403
琴	-7404
界	-7405
盧	-7406
祐	-7407
種	-7408
站	-7409
竜	-7410
範	-7411
米	-7412
糧	-7413
紀	-7414
纸	-7415
羅	-7416
羽	-7417
翔	-7418
耳	-7419
胡	-7420
興	-7421
航	-7422
芬	-7423
芸	-7424
若	-7425
茶	-7426
草	-7427
荣	-7428
菜	-7429
落	-7430
蓮	-7431
蔡	-7432
融	-7433
衛	-7434
襄	-7435
誠	-7436
警	-7437
變	-7438
豆	-7439
费	-7440
赤	-7441
農	-7442
邓	-7443
郡	-7444
録	-7445
鍾	-7446
鐵	-7447
雅	-7448
電	-7449
霍	-7450
霖	-7451
音	-7452
順	-7453
飛	-7454
首	-7455
駅	-7456
鬼	-7457
鳳	-7458
麗	-7459
黑	-7460
다	-7461
랑	-7462
로	-7463
면	-7464
방	-7465
법	-7466
생	-7467
석	-7468
송	-7469
스	-7470
승	-7471
에	-7472
여	-7473
예	-7474
오	-7475
운	-7476
조	-7477
중	-7478
진	-7479
촌	-7480
통	-7481
플	-7482
훈	-7483
Ã	-7484
Ì	-7485
ĉ	-7486
Ķ	-7487
Ő	-7488
Œ	-7489
ŕ	-7490
Ŭ	-7491
ǃ	-7492
ɡ	-7493
ɳ	-7494
ʹ	-7495
ˌ	-7496
̣	-7497
̧	-7498
͡	-7499
қ	-7500
ү	-7501
Ս	-7502
խ	-7503
ղ	-7504
պ	-7505
ֶ	-7506
ף	-7507
ٔ	-7508
ٰ	-7509
ٽ	-7510
ڀ	-7511
ڑ	-7512
ڪ	-7513
ۆ	-7514
ے	-7515
ܡ	-7516
މ	-7517
ފ	-7518
ङ	-7519
०	-7520
ছ	-7521
ঠ	-7522
ৌ	-7523
ਘ	-7524
ਪ	-7525
ਹ	-7526
ੇ	-7527
ੈ	-7528
ક	-7529
ગ	-7530
ચ	-7531
જ	-7532
ધ	-7533
પ	-7534
મ	-7535
ય	-7536
શ	-7537
હ	-7538
ପ	-7539
ବ	-7540
ଲ	-7541
ஸ	-7542
ீ	-7543
ణ	-7544
బ	-7545
ూ	-7546
ె	-7547
ొ	-7548
ಚ	-7549
ಬ	-7550
ಶ	-7551
ಷ	-7552
എ	-7553
ഗ	-7554
േ	-7555
ෂ	-7556
ී	-7557
ฑ	-7558
ฟ	-7559
ເ	-7560
ལ	-7561
ི	-7562
တ	-7563
မ	-7564
္	-7565
ო	-7566
ძ	-7567
ቅ	-7568
ና	-7569
ያ	-7570
្	-7571
ḇ	-7572
ḡ	-7573
ṁ	-7574
ẖ	-7575
Ọ	-7576
ở	-7577
ự	-7578
Ἰ	-7579
∀	-7580
⊃	-7581
⊕	-7582
☉	-7583
ⵍ	-7584
ⵙ	-7585
え	-7586
げ	-7587
て	-7588
び	-7589
め	-7590
も	-7591
よ	-7592
れ	-7593
を	-7594
ァ	-7595
ォ	-7596
ザ	-7597
ソ	-7598
ネ	-7599
ペ	-7600
メ	-7601
丁	-7602
丽	-7603
也	-7604
于	-7605
亞	-7606
亨	-7607
亭	-7608
今	-7609
他	-7610
以	-7611
份	-7612
伝	-7613
伴	-7614
佐	-7615
余	-7616
佩	-7617
侍	-7618
便	-7619
倭	-7620
偕	-7621
傑	-7622
先	-7623
党	-7624
农	-7625
冰	-7626
准	-7627
別	-7628
到	-7629
制	-7630
刺	-7631
动	-7632
動	-7633
務	-7634
协	-7635
協	-7636
双	-7637
发	-7638
句	-7639
叶	-7640
否	-7641
吾	-7642
告	-7643
哲	-7644
喊	-7645
喬	-7646
因	-7647
圣	-7648
场	-7649
坊	-7650
型	-7651
執	-7652
塘	-7653
塞	-7654
墩	-7655
壹	-7656
外	-7657
如	-7658
婉	-7659
孔	-7660
季	-7661
孤	-7662
孩	-7663
宁	-7664
容	-7665
寧	-7666
少	-7667
尙	-7668
尺	-7669
尼	-7670
居	-7671
属	-7672
岳	-7673
己	-7674
库	-7675
強	-7676
归	-7677
御	-7678
徽	-7679
怒	-7680
怡	-7681
恵	-7682
感	-7683
慎	-7684
懋	-7685
战	-7686
戸	-7687
房	-7688
承	-7689
技	-7690
播	-7691
攻	-7692
敏	-7693
敬	-7694
旅	-7695
昇	-7696
晋	-7697
更	-7698
杰	-7699
树	-7700
楽	-7701
標	-7702
権	-7703
気	-7704
池	-7705
浦	-7706
渤	-7707
游	-7708
準	-7709
潔	-7710
無	-7711
照	-7712
燕	-7713
爱	-7714
牧	-7715
玄	-7716
琪	-7717
甫	-7718
由	-7719
甲	-7720
男	-7721
町	-7722
異	-7723
盈	-7724
県	-7725
睿	-7726
碧	-7727
祖	-7728
祥	-7729
禄	-7730
禮	-7731
笑	-7732
簡	-7733
紅	-7734
維	-7735
縣	-7736
纪	-7737
经	-7738
网	-7739
罗	-7740
耀	-7741
股	-7742
胜	-7743
臣	-7744
茄	-7745
菲	-7746
萍	-7747
蔣	-7748
號	-7749
虹	-7750
蠻	-7751
衣	-7752
要	-7753
視	-7754
誰	-7755
话	-7756
谢	-7757
財	-7758
賈	-7759
賓	-7760
赵	-7761
起	-7762
越	-7763
趙	-7764
輪	-7765
逸	-7766
郑	-7767
酥	-7768
重	-7769
鈴	-7770
鍋	-7771
镇	-7772
阮	-7773
靖	-7774
韩	-7775
頁	-7776
領	-7777
飯	-7778
養	-7779
驻	-7780
體	-7781
魏	-7782
麻	-7783
黒	-7784
개	-7785
두	-7786
디	-7787
몽	-7788
묘	-7789
배	-7790
백	-7791
부	-7792
북	-7793
블	-7794
새	-7795
서	-7796
숙	-7797
식	-7798
업	-7799
엽	-7800
요	-7801
용	-7802
욱	-7803
재	-7804
준	-7805
찬	-7806
창	-7807
평	-7808
합	-7809
해	-7810
홍	-7811
활	-7812
희	-7813
¬	-7814
Ô	-7815
Ă	-7816
ď	-7817
Ē	-7818
ĝ	-7819
ĵ	-7820
Ť	-7821
ƛ	-7822
ǂ	-7823
ǣ	-7824
ǫ	-7825
ɖ	-7826
ɫ	-7827
ɬ	-7828
ɵ	-7829
ɿ	-7830
ʐ	-7831
ʕ	-7832
ˋ	-7833
̌	-7834
Ή	-7835
ϛ	-7836
Ѕ	-7837
Њ	-7838
Й	-7839
є	-7840
ў	-7841
џ	-7842
Ѳ	-7843
Ҷ	-7844
ә	-7845
Կ	-7846
Հ	-7847
Ն	-7848
Ռ	-7849
Վ	-7850
՚	-7851
՛	-7852
բ	-7853
դ	-7854
զ	-7855
չ	-7856
ջ	-7857
ռ	-7858
֙	-7859
ֵ	-7860
״	-7861
٠	-7862
٣	-7863
ڬ	-7864
ڻ	-7865
ە	-7866
ܕ	-7867
ܘ	-7868
ܙ	-7869
ܟ	-7870
ܠ	-7871
ܥ	-7872
ހ	-7873
ށ	-7874
ާ	-7875
ޫ	-7876
छ	-7877
झ	-7878
ॅ	-7879
এ	-7880
ও	-7881
ড	-7882
থ	-7883
ৈ	-7884
ਂ	-7885
ਅ	-7886
ਣ	-7887
ਤ	-7888
ਯ	-7889
਼	-7890
੍	-7891
ੱ	-7892
અ	-7893
આ	-7894
ણ	-7895
ત	-7896
ભ	-7897
સ	-7898
କ	-7899
ଟ	-7900
଼	-7901
ୟ	-7902
ஆ	-7903
ஜ	-7904
ஞ	-7905
అ	-7906
చ	-7907
ఛ	-7908
జ	-7909
ధ	-7910
భ	-7911
ష	-7912
ಎ	-7913
ಫ	-7914
ೂ	-7915
ೃ	-7916
ഏ	-7917
ഓ	-7918
ഞ	-7919
ധ	-7920
ഷ	-7921
ൽ	-7922
ඉ	-7923
ජ	-7924
ඩ	-7925
හ	-7926
ළ	-7927
ා	-7928
ฏ	-7929
฿	-7930
ນ	-7931
ລ	-7932
ວ	-7933
່	-7934
ག	-7935
ང	-7936
ད	-7937
ན	-7938
བ	-7939
ྲ	-7940
င	-7941
ရ	-7942
ု	-7943
း	-7944
ျ	-7945
ფ	-7946
ქ	-7947
ყ	-7948
შ	-7949
ც	-7950
ለ	-7951
ል	-7952
ሙ	-7953
ማ	-7954
ም	-7955
ሳ	-7956
ቄ	-7957
በ	-7958
ባ	-7959
ቱ	-7960
ዑ	-7961
ዕ	-7962
ዜ	-7963
ዮ	-7964
ዳ	-7965
ጋ	-7966
ᜒ	-7967
ក	-7968
ទ	-7969
ប	-7970
យ	-7971
ḗ	-7972
Ḩ	-7973
Ḫ	-7974
ṙ	-7975
Ẓ	-7976
ẫ	-7977
ẵ	-7978
ổ	-7979
ἄ	-7980
Ἑ	-7981
Ἕ	-7982
ἡ	-7983
ὁ	-7984
ὄ	-7985
ὑ	-7986
Ὑ	-7987
ὰ	-7988
‟	-7989
₩	-7990
←	-7991
↔	-7992
∼	-7993
≠	-7994
≪	-7995
⊂	-7996
⊗	-7997
⋅	-7998
◊	-7999
☃	-8000
♠	-8001
✝	-8002
❤	-8003
ⴷ	-8004
ⵔ	-8005
あ	-8006
が	-8007
け	-8008
せ	-8009
そ	-8010
ぞ	-8011
だ	-8012
っ	-8013
で	-8014
ば	-8015
ぷ	-8016
ぼ	-8017
ゅ	-8018
ゆ	-8019
ガ	-8020
ケ	-8021
ビ	-8022
ピ	-8023
ホ	-8024
ヤ	-8025
ㄧ	-8026
七	-8027
丈	-8028
与	-8029
丙	-8030
丰	-8031
乡	-8032
亚	-8033
仏	-8034
仙	-8035
企	-8036
伏	-8037
休	-8038
伦	-8039
佑	-8040
你	-8041
俄	-8042
俗	-8043
倉	-8044
假	-8045
偉	-8046
儀	-8047
儿	-8048
內	-8049
具	-8050
円	-8051
冠	-8052
冷	-8053
刀	-8054
列	-8055
初	-8056
刮	-8057
剣	-8058
副	-8059
劃	-8060
劇	-8061
务	-8062
勃	-8063
卓	-8064
单	-8065
卜	-8066
卦	-8067
卷	-8068
卿	-8069
厝	-8070
厦	-8071
及	-8072
反	-8073
叔	-8074
变	-8075
叡	-8076
右	-8077
各	-8078
向	-8079
君	-8080
呐	-8081
呼	-8082
品	-8083
啾	-8084
器	-8085
嚴	-8086
固	-8087
在	-8088
垣	-8089
域	-8090
埠	-8091
埼	-8092
報	-8093
塚	-8094
声	-8095
头	-8096
奉	-8097
奎	-8098
奕	-8099
妃	-8100
妹	-8101
始	-8102
姓	-8103
姜	-8104
姫	-8105
姬	-8106
娱	-8107
媛	-8108
嫚	-8109
嬌	-8110
孟	-8111
守	-8112
実	-8113
宣	-8114
宾	-8115
寒	-8116
寶	-8117
專	-8118
導	-8119
尖	-8120
尧	-8121
屯	-8122
屿	-8123
岁	-8124
崎	-8125
崗	-8126
嵐	-8127
嵩	-8128
嶺	-8129
左	-8130
巳	-8131
幽	-8132
庆	-8133
应	-8134
底	-8135
度	-8136
座	-8137
庫	-8138
庵	-8139
廉	-8140
强	-8141
彥	-8142
彩	-8143
彬	-8144
役	-8145
從	-8146
徳	-8147
徵	-8148
必	-8149
忍	-8150
恋	-8151
悅	-8152
惟	-8153
惡	-8154
慈	-8155
憂	-8156
憲	-8157
戏	-8158
扬	-8159
拉	-8160
拐	-8161
拿	-8162
指	-8163
揚	-8164
故	-8165
數	-8166
斌	-8167
斎	-8168
斗	-8169
斛	-8170
断	-8171
施	-8172
旗	-8173
早	-8174
旭	-8175
时	-8176
易	-8177
映	-8178
晃	-8179
晖	-8180
曆	-8181
曰	-8182
曲	-8183
曼	-8184
最	-8185
朋	-8186
朗	-8187
未	-8188
朵	-8189
机	-8190
杉	-8191
杖	-8192
杜	-8193
束	-8194
条	-8195
杭	-8196
极	-8197
根	-8198
案	-8199
梦	-8200
森	-8201
極	-8202
榎	-8203
樑	-8204
横	-8205
橫	-8206
欲	-8207
歐	-8208
死	-8209
段	-8210
殺	-8211
母	-8212
氹	-8213
汁	-8214
汪	-8215
沈	-8216
沐	-8217
沔	-8218
沖	-8219
沫	-8220
沸	-8221
油	-8222
泥	-8223
洛	-8224
派	-8225
浅	-8226
济	-8227
浙	-8228
浜	-8229
涵	-8230
淋	-8231
淑	-8232
渭	-8233
湯	-8234
湾	-8235
満	-8236
溪	-8237
滨	-8238
漠	-8239
漫	-8240
潤	-8241
潮	-8242
濃	-8243
濠	-8244
灶	-8245
然	-8246
熙	-8247
熱	-8248
營	-8249
爆	-8250
爸	-8251
牌	-8252
独	-8253
猿	-8254
獄	-8255
獎	-8256
环	-8257
玲	-8258
珍	-8259
珩	-8260
班	-8261
瑪	-8262
瑶	-8263
璜	-8264
環	-8265
瓜	-8266
瓦	-8267
甘	-8268
画	-8269
畑	-8270
留	-8271
畫	-8272
皓	-8273
益	-8274
盤	-8275
眉	-8276
看	-8277
破	-8278
碼	-8279
祝	-8280
祭	-8281
禅	-8282
禪	-8283
秉	-8284
秘	-8285
穆	-8286
窟	-8287
窯	-8288
章	-8289
端	-8290
笠	-8291
符	-8292
等	-8293
筍	-8294
算	-8295
節	-8296
粉	-8297
精	-8298
系	-8299
紐	-8300
組	-8301
結	-8302
統	-8303
縄	-8304
總	-8305
纯	-8306
纳	-8307
线	-8308
置	-8309
署	-8310
罷	-8311
聲	-8312
聶	-8313
肥	-8314
肴	-8315
脚	-8316
腐	-8317
臨	-8318
至	-8319
舊	-8320
舞	-8321
般	-8322
艷	-8323
芝	-8324
芦	-8325
茂	-8326
范	-8327
荀	-8328
荷	-8329
莱	-8330
菅	-8331
菊	-8332
萊	-8333
著	-8334
葛	-8335
蒙	-8336
蒲	-8337
蓋	-8338
蕭	-8339
藍	-8340
藏	-8341
蘭	-8342
蛔	-8343
蝦	-8344
蝶	-8345
表	-8346
袁	-8347
被	-8348
裕	-8349
親	-8350
觀	-8351
訓	-8352
訣	-8353
認	-8354
談	-8355
證	-8356
譜	-8357
議	-8358
让	-8359
访	-8360
调	-8361
谱	-8362
谶	-8363
象	-8364
豬	-8365
貞	-8366
貨	-8367
買	-8368
贝	-8369
赛	-8370
走	-8371
身	-8372
載	-8373
輝	-8374
輿	-8375
轨	-8376
辭	-8377
达	-8378
连	-8379
迷	-8380
送	-8381
造	-8382
連	-8383
進	-8384
遂	-8385
遊	-8386
達	-8387
選	-8388
邑	-8389
邱	-8390
鄧	-8391
鄯	-8392
配	-8393
采	-8394
銘	-8395
鏞	-8396
鐡	-8397
钰	-8398
開	-8399
閣	-8400
闇	-8401
闻	-8402
队	-8403
际	-8404
陣	-8405
陶	-8406
隊	-8407
隧	-8408
雕	-8409
難	-8410
雨	-8411
霄	-8412
震	-8413
霞	-8414
露	-8415
静	-8416
靜	-8417
革	-8418
韶	-8419
韻	-8420
顶	-8421
飞	-8422
骨	-8423
魂	-8424
魔	-8425
魯	-8426
鲍	-8427
鲲	-8428
鳥	-8429
鳴	-8430
鵝	-8431
鸡	-8432
鸿	-8433
鹏	-8434
鹿	-8435
麟	-8436
麵	-8437
鼎	-8438
齊	-8439
검	-8440
계	-8441
권	-8442
귀	-8443
길	-8444
는	-8445
당	-8446
데	-8447
라	-8448
랙	-8449
레	-8450
려	-8451
록	-8452
롱	-8453
류	-8454
를	-8455
립	-8456
마	-8457
맨	-8458
먹	-8459
명	-8460
무	-8461
물	-8462
벳	-8463
변	-8464
빼	-8465
소	-8466
시	-8467
실	-8468
안	-8469
알	-8470
애	-8471
양	-8472
엘	-8473
울	-8474
월	-8475
음	-8476
일	-8477
임	-8478
집	-8479
천	-8480
청	-8481
초	-8482
컵	-8483
케	-8484
크	-8485
타	-8486
탄	-8487
태	-8488
터	-8489
토	-8490
티	-8491
폴	-8492
행	-8493
향	-8494
허	-8495
협	-8496
환	-8497
황	-8498
흥	-8499
	-8500
	-8501
😁	-8502
¦	-8503
Ê	-8504
Ï	-8505
Õ	-8506
Ý	-8507
Ą	-8508
Ċ	-8509
ċ	-8510
Ė	-8511
Ě	-8512
Į	-8513
Ū	-8514
Ů	-8515
Ɔ	-8516
Ƶ	-8517
ƿ	-8518
ǁ	-8519
Ǐ	-8520
ǚ	-8521
ǜ	-8522
ǧ	-8523
Ǯ	-8524
ǯ	-8525
ǽ	-8526
ɓ	-8527
ɕ	-8528
ɘ	-8529
ɝ	-8530
ɤ	-8531
ɦ	-8532
ɹ	-8533
ʀ	-8534
ʁ	-8535
ʂ	-8536
ʄ	-8537
ʈ	-8538
ʋ	-8539
ʤ	-8540
ʧ	-8541
ˁ	-8542
˂	-8543
˃	-8544
ˇ	-8545
̄	-8546
̍	-8547
̓	-8548
̪	-8549
̲	-8550
Ί	-8551
Ό	-8552
ΰ	-8553
ϗ	-8554
Ϙ	-8555
ϙ	-8556
Ϟ	-8557
ϟ	-8558
Ѓ	-8559
Є	-8560
Ў	-8561
Ъ	-8562
ѓ	-8563
ќ	-8564
Ѣ	-8565
ґ	-8566
Ғ	-8567
ҡ	-8568
Ҧ	-8569
ҫ	-8570
Ҭ	-8571
ҷ	-8572
ӏ	-8573
ӕ	-8574
ӧ	-8575
Ө	-8576
Բ	-8577
Ի	-8578
Ղ	-8579
Տ	-8580
Փ	-8581
Օ	-8582
է	-8583
ը	-8584
ծ	-8585
ձ	-8586
ճ	-8587
շ	-8588
ք	-8589
օ	-8590
֔	-8591
ֱ	-8592
ׁ	-8593
ך	-8594
ـ	-8595
ْ	-8596
٢	-8597
ڊ	-8598
ڌ	-8599
ږ	-8600
ښ	-8601
ڤ	-8602
ڴ	-8603
ڵ	-8604
ں	-8605
ڼ	-8606
ۃ	-8607
ۻ	-8608
ܒ	-8609
ܪ	-8610
ܫ	-8611
ܲ	-8612
ܵ	-8613
ܹ	-8614
ܼ	-8615
ܿ	-8616
ނ	-8617
ރ	-8618
ބ	-8619
ޅ	-8620
ކ	-8621
ތ	-8622
ގ	-8623
ސ	-8624
ޝ	-8625
ީ	-8626
ޭ	-8627
ऊ	-8628
ऐ	-8629
ऑ	-8630
ओ	-8631
ऱ	-8632
ऴ	-8633
ॉ	-8634
॓	-8635
।	-8636
१	-8637
२	-8638
४	-8639
६	-8640
ঁ	-8641
ষ	-8642
ূ	-8643
ৃ	-8644
ਗ	-8645
ਚ	-8646
ਛ	-8647
ਟ	-8648
ਡ	-8649
ੂ	-8650
ઉ	-8651
ઘ	-8652
છ	-8653
ટ	-8654
ઠ	-8655
ડ	-8656
દ	-8657
ુ	-8658
ો	-8659
ૌ	-8660
ଂ	-8661
ଅ	-8662
ଆ	-8663
ଉ	-8664
ଓ	-8665
ଙ	-8666
ଚ	-8667
ଜ	-8668
ଝ	-8669
ଫ	-8670
ଭ	-8671
ଳ	-8672
ଶ	-8673
ହ	-8674
ୀ	-8675
ୋ	-8676
ୌ	-8677
உ	-8678
ஐ	-8679
ஓ	-8680
ః	-8681
ఉ	-8682
ఖ	-8683
ఘ	-8684
ఞ	-8685
థ	-8686
ళ	-8687
హ	-8688
ಉ	-8689
ಓ	-8690
ಘ	-8691
ಥ	-8692
ಭ	-8693
ಳ	-8694
ೈ	-8695
ೊ	-8696
ೋ	-8697
ೌ	-8698
ആ	-8699
ഉ	-8700
ച	-8701
ഫ	-8702
ഴ	-8703
ഹ	-8704
ൃ	-8705
ൈ	-8706
ൊ	-8707
ൾ	-8708
අ	-8709
ණ	-8710
ද	-8711
ධ	-8712
ශ	-8713
ේ	-8714
ෝ	-8715
ฆ	-8716
ฉ	-8717
ฐ	-8718
ฬ	-8719
ฮ	-8720
ึ	-8721
ใ	-8722
๋	-8723
ກ	-8724
ຂ	-8725
ຄ	-8726
ງ	-8727
ຈ	-8728
ຍ	-8729
ຕ	-8730
ທ	-8731
ບ	-8732
ມ	-8733
ສ	-8734
ົ	-8735
ແ	-8736
ໂ	-8737
້	-8738
ໍ	-8739
ཀ	-8740
ཅ	-8741
ཕ	-8742
མ	-8743
ེ	-8744
ྒ	-8745
ྗ	-8746
ྡ	-8747
ྫ	-8748
ྱ	-8749
ခ	-8750
ဆ	-8751
ည	-8752
ဒ	-8753
ဓ	-8754
န	-8755
ဖ	-8756
ဘ	-8757
ယ	-8758
လ	-8759
သ	-8760
ဥ	-8761
ူ	-8762
ေ	-8763
ံ	-8764
ှ	-8765
ၾ	-8766
პ	-8767
ჟ	-8768
ტ	-8769
ჩ	-8770
წ	-8771
ჯ	-8772
ჳ	-8773
ሁ	-8774
ሃ	-8775
ሊ	-8776
ሓ	-8777
ሕ	-8778
ሞ	-8779
ረ	-8780
ሪ	-8781
ሰ	-8782
ሱ	-8783
ሲ	-8784
ሶ	-8785
ሸ	-8786
ሻ	-8787
ሽ	-8788
ቂ	-8789
ቆ	-8790
ቢ	-8791
ተ	-8792
ታ	-8793
ነ	-8794
ኔ	-8795
ኢ	-8796
ኣ	-8797
ኤ	-8798
ኩ	-8799
ዊ	-8800
ዋ	-8801
ው	-8802
ዓ	-8803
ዝ	-8804
የ	-8805
ዩ	-8806
ዱ	-8807
ጉ	-8808
ጌ	-8809
ግ	-8810
ጥ	-8811
ጵ	-8812
ፅ	-8813
ፍ	-8814
፡	-8815
ᑌ	-8816
ᑎ	-8817
ᓑ	-8818
ᔕ	-8819
ᗪ	-8820
ᘔ	-8821
ᙇ	-8822
ᚂ	-8823
ᚼ	-8824
ᜆ	-8825
ᜈ	-8826
ᜉ	-8827
ᜐ	-8828
គ	-8829
ថ	-8830
ម	-8831
រ	-8832
វ	-8833
ស	-8834
អ	-8835
ុ	-8836
ែ	-8837
Ḍ	-8838
ḏ	-8839
ḣ	-8840
ḩ	-8841
Ḳ	-8842
ḳ	-8843
Ḵ	-8844
Ṅ	-8845
ṉ	-8846
Ấ	-8847
Ẹ	-8848
ẹ	-8849
Ẽ	-8850
Ế	-8851
ỏ	-8852
Ứ	-8853
ἀ	-8854
Ἁ	-8855
ἢ	-8856
Ἠ	-8857
ἱ	-8858
ἴ	-8859
ἵ	-8860
ὀ	-8861
Ὀ	-8862
ὒ	-8863
Ὠ	-8864
ὴ	-8865
ὶ	-8866
ὸ	-8867
ᾰ	-8868
ᾶ	-8869
ῇ	-8870
Ῥ	-8871
ῳ	-8872
‪	-8873
‿	-8874
⁂	-8875
₢	-8876
₦	-8877
₫	-8878
℮	-8879
ↆ	-8880
↵	-8881
⇒	-8882
∃	-8883
∇	-8884
∉	-8885
∑	-8886
∗	-8887
∝	-8888
∧	-8889
∨	-8890
∩	-8891
∫	-8892
∵	-8893
≃	-8894
⊆	-8895
⊥	-8896
⏃	-8897
␢	-8898
─	-8899
┼	-8900
☨	-8901
☭	-8902
♎	-8903
♙	-8904
♟	-8905
♪	-8906
✸	-8907
✻	-8908
⠔	-8909
⠖	-8910
⨁	-8911
Ⰲ	-8912
Ⱁ	-8913
Ⱇ	-8914
ⴱ	-8915
ⴳ	-8916
ⴼ	-8917
ⵄ	-8918
ⵖ	-8919
ⵟ	-8920
ぃ	-8921
ぎ	-8922
ご	-8923
づ	-8924
ど	-8925
ね	-8926
ふ	-8927
ぶ	-8928
ぽ	-8929
む	-8930
や	-8931
ょ	-8932
ギ	-8933
ゲ	-8934
ゼ	-8935
ゾ	-8936
ヅ	-8937
ユ	-8938
ヷ	-8939
ㄊ	-8940
ㄗ	-8941
ㇱ	-8942
且	-8943
丘	-8944
业	-8945
为	-8946
丼	-8947
乃	-8948
了	-8949
互	-8950
些	-8951
亜	-8952
亥	-8953
亮	-8954
亲	-8955
仍	-8956
从	-8957
仑	-8958
付	-8959
们	-8960
仿	-8961
优	-8962
传	-8963
伶	-8964
伸	-8965
似	-8966
但	-8967
低	-8968
佳	-8969
佻	-8970
侔	-8971
依	-8972
促	-8973
俱	-8974
候	-8975
倩	-8976
倬	-8977
偓	-8978
做	-8979
偲	-8980
傘	-8981
備	-8982
傩	-8983
傲	-8984
僕	-8985
儉	-8986
優	-8987
儺	-8988
兀	-8989
充	-8990
免	-8991
児	-8992
兜	-8993
入	-8994
关	-8995
兵	-8996
其	-8997
兼	-8998
冀	-8999
冉	-9000
冥	-9001
冲	-9002
决	-9003
况	-9004
凉	-9005
凌	-9006
凪	-9007
凯	-9008
凰	-9009
凱	-9010
凸	-9011
刃	-9012
切	-9013
刊	-9014
划	-9015
创	-9016
别	-9017
刷	-9018
券	-9019
刹	-9020
則	-9021
剡	-9022
剧	-9023
割	-9024
創	-9025
劳	-9026
勉	-9027
勢	-9028
勤	-9029
勳	-9030
勸	-9031
匙	-9032
匡	-9033
匯	-9034
卒	-9035
単	-9036
卞	-9037
占	-9038
卡	-9039
卯	-9040
印	-9041
即	-9042
卻	-9043
厂	-9044
厘	-9045
厲	-9046
厳	-9047
去	-9048
又	-9049
取	-9050
受	-9051
叟	-9052
只	-9053
号	-9054
同	-9055
吐	-9056
吔	-9057
吡	-9058
吧	-9059
吹	-9060
呉	-9061
味	-9062
咀	-9063
咒	-9064
咖	-9065
咬	-9066
咸	-9067
哉	-9068
員	-9069
哥	-9070
哨	-9071
唱	-9072
啓	-9073
啟	-9074
啶	-9075
営	-9076
嗣	-9077
嘜	-9078
回	-9079
団	-9080
圃	-9081
圆	-9082
圧	-9083
圭	-9084
址	-9085
坂	-9086
均	-9087
坐	-9088
坝	-9089
坤	-9090
坪	-9091
埔	-9092
培	-9093
堤	-9094
堵	-9095
塀	-9096
塢	-9097
塩	-9098
塱	-9099
境	-9100
増	-9101
墘	-9102
墙	-9103
壇	-9104
壟	-9105
壮	-9106
夕	-9107
夙	-9108
失	-9109
奔	-9110
套	-9111
妍	-9112
妖	-9113
妟	-9114
妮	-9115
妲	-9116
妻	-9117
姉	-9118
姿	-9119
娄	-9120
娘	-9121
娜	-9122
娥	-9123
婚	-9124
嫻	-9125
嬴	-9126
孖	-9127
孚	-9128
孛	-9129
宙	-9130
客	-9131
室	-9132
宪	-9133
宫	-9134
宰	-9135
寄	-9136
密	-9137
寇	-9138
察	-9139
寨	-9140
寬	-9141
寻	-9142
対	-9143
専	-9144
尊	-9145
层	-9146
屏	-9147
履	-9148
屬	-9149
岗	-9150
岚	-9151
岩	-9152
岭	-9153
岸	-9154
峯	-9155
崑	-9156
崔	-9157
崙	-9158
嵬	-9159
巡	-9160
巧	-9161
巨	-9162
巪	-9163
已	-9164
巷	-9165
巻	-9166
布	-9167
帆	-9168
帘	-9169
帥	-9170
带	-9171
帰	-9172
帳	-9173
幡	-9174
幻	-9175
幼	-9176
庄	-9177
床	-9178
序	-9179
庚	-9180
廃	-9181
廟	-9182
廢	-9183
廻	-9184
开	-9185
异	-9186
弐	-9187
弓	-9188
引	-9189
弥	-9190
弦	-9191
彌	-9192
彎	-9193
录	-9194
彪	-9195
彰	-9196
彼	-9197
征	-9198
徒	-9199
復	-9200
快	-9201
怀	-9202
怪	-9203
恪	-9204
恭	-9205
息	-9206
悦	-9207
悪	-9208
惇	-9209
惕	-9210
惣	-9211
惲	-9212
愉	-9213
愷	-9214
愿	-9215
慬	-9216
應	-9217
懐	-9218
懷	-9219
戀	-9220
戊	-9221
戌	-9222
戒	-9223
戟	-9224
戦	-9225
戯	-9226
扁	-9227
打	-9228
托	-9229
找	-9230
投	-9231
折	-9232
报	-9233
抹	-9234
押	-9235
抽	-9236
拒	-9237
拓	-9238
拝	-9239
持	-9240
按	-9241
捲	-9242
捻	-9243
掃	-9244
授	-9245
掌	-9246
掞	-9247
控	-9248
揆	-9249
握	-9250
揮	-9251
援	-9252
摩	-9253
撤	-9254
撲	-9255
擁	-9256
擂	-9257
操	-9258
攝	-9259
攣	-9260
收	-9261
攸	-9262
改	-9263
效	-9264
敕	-9265
敖	-9266
敞	-9267
散	-9268
整	-9269
斋	-9270
料	-9271
於	-9272
旨	-9273
旻	-9274
昕	-9275
晏	-9276
晓	-9277
晗	-9278
晚	-9279
晟	-9280
暁	-9281
暹	-9282
曉	-9283
曜	-9284
曹	-9285
服	-9286
望	-9287
期	-9288
札	-9289
朮	-9290
权	-9291
杏	-9292
材	-9293
杷	-9294
杼	-9295
板	-9296
枇	-9297
析	-9298
柔	-9299
查	-9300
柴	-9301
柿	-9302
标	-9303
栢	-9304
核	-9305
格	-9306
桂	-9307
桐	-9308
桑	-9309
桜	-9310
桶	-9311
梨	-9312
棒	-9313
棣	-9314
椒	-9315
椿	-9316
楞	-9317
楼	-9318
榕	-9319
榜	-9320
榮	-9321
槍	-9322
様	-9323
槻	-9324
樊	-9325
檜	-9326
檢	-9327
櫟	-9328
權	-9329
欽	-9330
歆	-9331
止	-9332
步	-9333
歸	-9334
殷	-9335
毁	-9336
毅	-9337
毎	-9338
毓	-9339
比	-9340
气	-9341
氣	-9342
汀	-9343
求	-9344
汐	-9345
汝	-9346
污	-9347
汤	-9348
決	-9349
沉	-9350
沼	-9351
泊	-9352
泗	-9353
泛	-9354
洗	-9355
浐	-9356
浮	-9357
浸	-9358
润	-9359
涯	-9360
涼	-9361
淄	-9362
淮	-9363
深	-9364
淵	-9365
淸	-9366
淼	-9367
渍	-9368
湘	-9369
溫	-9370
滕	-9371
滿	-9372
潁	-9373
潜	-9374
潭	-9375
澎	-9376
澗	-9377
澧	-9378
澳	-9379
激	-9380
濟	-9381
濡	-9382
瀚	-9383
灞	-9384
炒	-9385
炭	-9386
炳	-9387
炸	-9388
点	-9389
烏	-9390
烧	-9391
热	-9392
焚	-9393
焦	-9394
焱	-9395
煌	-9396
煎	-9397
煒	-9398
煤	-9399
燈	-9400
燎	-9401
燒	-9402
爪	-9403
爭	-9404
爵	-9405
爺	-9406
牆	-9407
牛	-9408
牡	-9409
狄	-9410
狮	-9411
猪	-9412
猫	-9413
猷	-9414
獨	-9415
獲	-9416
獻	-9417
玠	-9418
珊	-9419
珪	-9420
現	-9421
琛	-9422
瑋	-9423
瑜	-9424
瑩	-9425
瑱	-9426
璇	-9427
璈	-9428
璋	-9429
璘	-9430
璧	-9431
瓶	-9432
甄	-9433
甜	-9434
產	-9435
申	-9436
當	-9437
疆	-9438
疊	-9439
病	-9440
症	-9441
痙	-9442
瘦	-9443
登	-9444
皆	-9445
皮	-9446
盖	-9447
盗	-9448
監	-9449
盾	-9450
眼	-9451
着	-9452
矣	-9453
码	-9454
砂	-9455
砕	-9456
碑	-9457
碩	-9458
磊	-9459
磐	-9460
磕	-9461
磨	-9462
礁	-9463
示	-9464
礼	-9465
祜	-9466
祠	-9467
祿	-9468
禍	-9469
禧	-9470
禹	-9471
禾	-9472
秦	-9473
秧	-9474
秩	-9475
秭	-9476
积	-9477
税	-9478
稚	-9479
稲	-9480
稽	-9481
窈	-9482
窗	-9483
窝	-9484
窦	-9485
竇	-9486
笔	-9487
笛	-9488
笹	-9489
筋	-9490
策	-9491
筠	-9492
简	-9493
箇	-9494
管	-9495
箭	-9496
簪	-9497
簿	-9498
籠	-9499
粟	-9500
紂	-9501
約	-9502
紋	-9503
納	-9504
純	-9505
紡	-9506
経	-9507
絕	-9508
給	-9509
絳	-9510
綠	-9511
網	-9512
綸	-9513
綾	-9514
綿	-9515
緄	-9516
総	-9517
縦	-9518
縱	-9519
績	-9520
繁	-9521
織	-9522
繼	-9523
纜	-9524
纬	-9525
纵	-9526
纶	-9527
纽	-9528
组	-9529
绍	-9530
络	-9531
统	-9532
绿	-9533
缗	-9534
罰	-9535
羲	-9536
翁	-9537
習	-9538
翰	-9539
考	-9540
而	-9541
耐	-9542
耶	-9543
耿	-9544
聂	-9545
聞	-9546
聡	-9547
聴	-9548
職	-9549
聽	-9550
肃	-9551
肇	-9552
肝	-9553
背	-9554
胎	-9555
胤	-9556
胸	-9557
脂	-9558
脷	-9559
腺	-9560
腾	-9561
膊	-9562
膺	-9563
膽	-9564
臂	-9565
致	-9566
與	-9567
舍	-9568
舎	-9569
舒	-9570
舘	-9571
舺	-9572
艋	-9573
艾	-9574
芈	-9575
芎	-9576
芙	-9577
芹	-9578
苗	-9579
茅	-9580
茹	-9581
荊	-9582
荒	-9583
莎	-9584
莞	-9585
莫	-9586
莲	-9587
菩	-9588
菱	-9589
萄	-9590
萧	-9591
萩	-9592
萱	-9593
葡	-9594
蒋	-9595
蒼	-9596
蓄	-9597
蓉	-9598
蓥	-9599
蔵	-9600
蕃	-9601
蕴	-9602
薇	-9603
薩	-9604
藩	-9605
藪	-9606
虏	-9607
處	-9608
虚	-9609
蚁	-9610
蚌	-9611
蛇	-9612
蛉	-9613
蛮	-9614
蜂	-9615
蜻	-9616
蝙	-9617
蝠	-9618
蝴	-9619
螺	-9620
蟠	-9621
蟹	-9622
蠶	-9623
血	-9624
衡	-9625
衢	-9626
袭	-9627
袴	-9628
裁	-9629
補	-9630
裳	-9631
裴	-9632
製	-9633
褌	-9634
褙	-9635
覧	-9636
観	-9637
见	-9638
計	-9639
設	-9640
証	-9641
訾	-9642
詒	-9643
詔	-9644
詞	-9645
詡	-9646
誨	-9647
說	-9648
誼	-9649
調	-9650
論	-9651
諝	-9652
謎	-9653
謙	-9654
謡	-9655
護	-9656
讀	-9657
讓	-9658
计	-9659
讯	-9660
记	-9661
许	-9662
设	-9663
试	-9664
诗	-9665
诚	-9666
请	-9667
诺	-9668
谊	-9669
谦	-9670
豐	-9671
貴	-9672
費	-9673
貿	-9674
賀	-9675
資	-9676
賊	-9677
賜	-9678
賞	-9679
賢	-9680
賣	-9681
質	-9682
賴	-9683
賽	-9684
贓	-9685
质	-9686
贵	-9687
赖	-9688
赢	-9689
赫	-9690
趣	-9691
距	-9692
蹴	-9693
軸	-9694
軽	-9695
輕	-9696
轎	-9697
车	-9698
软	-9699
轻	-9700
辛	-9701
辯	-9702
辰	-9703
辽	-9704
近	-9705
这	-9706
进	-9707
迦	-9708
迫	-9709
迭	-9710
迹	-9711
逼	-9712
遐	-9713
遗	-9714
遜	-9715
遥	-9716
遮	-9717
遷	-9718
遼	-9719
邊	-9720
邯	-9721
邳	-9722
邵	-9723
郄	-9724
郝	-9725
鄉	-9726
鄒	-9727
鄲	-9728
鄺	-9729
酣	-9730
酪	-9731
釈	-9732
量	-9733
釜	-9734
鈺	-9735
鉉	-9736
鉞	-9737
鉤	-9738
鉴	-9739
鉶	-9740
銅	-9741
鋒	-9742
錄	-9743
錦	-9744
錬	-9745
錯	-9746
鎌	-9747
鎕	-9748
鎬	-9749
鏊	-9750
鏚	-9751
鏡	-9752
鐘	-9753
鐸	-9754
钟	-9755
钦	-9756
钧	-9757
钮	-9758
铁	-9759
锋	-9760
锡	-9761
閩	-9762
闕	-9763
闘	-9764
门	-9765
闯	-9766
闳	-9767
闵	-9768
闽	-9769
阁	-9770
阪	-9771
防	-9772
阳	-9773
陀	-9774
陆	-9775
陕	-9776
陞	-9777
陰	-9778
陵	-9779
隋	-9780
階	-9781
隱	-9782
隻	-9783
離	-9784
零	-9785
需	-9786
霆	-9787
霧	-9788
霸	-9789
霹	-9790
靂	-9791
靈	-9792
靚	-9793
非	-9794
韵	-9795
頂	-9796
須	-9797
頒	-9798
頸	-9799
頻	-9800
頼	-9801
題	-9802
顏	-9803
願	-9804
顯	-9805
项	-9806
顾	-9807
领	-9808
食	-9809
餃	-9810
餘	-9811
馮	-9812
馴	-9813
駒	-9814
駕	-9815
駿	-9816
騎	-9817
騰	-9818
驃	-9819
驊	-9820
驍	-9821
驟	-9822
骅	-9823
骆	-9824
骰	-9825
髯	-9826
鬆	-9827
鬪	-9828
鱼	-9829
鲤	-9830
鳄	-9831
鴉	-9832
鵬	-9833
鶴	-9834
麒	-9835
麦	-9836
麴	-9837
黙	-9838
點	-9839
黻	-9840
鼓	-9841
齋	-9842
齐	-9843
龘	-9844
龢	-9845
Ꜣ	-9846
ꜣ	-9847
가	-9848
감	-9849
갱	-9850
거	-9851
곡	-9852
곤	-9853
공	-9854
곽	-9855
관	-9856
광	-9857
굴	-9858
궁	-9859
그	-9860
꺽	-9861
끼	-9862
내	-9863
너	-9864
녀	-9865
년	-9866
노	-9867
놈	-9868
눈	-9869
능	-9870
닛	-9871
단	-9872
더	-9873
덕	-9874
독	-9875
돌	-9876
됐	-9877
들	-9878
등	-9879
따	-9880
때	-9881
뜨	-9882
래	-9883
랜	-9884
랩	-9885
렙	-9886
렬	-9887
루	-9888
름	-9889
릉	-9890
릭	-9891
린	-9892
림	-9893
링	-9894
만	-9895
말	-9896
메	-9897
멜	-9898
모	-9899
뱀	-9900
버	-9901
베	-9902
벨	-9903
본	-9904
봉	-9905
불	-9906
붉	-9907
뷰	-9908
빗	-9909
빙	-9910
빠	-9911
뽕	-9912
설	-9913
세	-9914
셀	-9915
션	-9916
속	-9917
순	-9918
슈	-9919
슨	-9920
슴	-9921
습	-9922
싶	-9923
앙	-9924
앨	-9925
억	-9926
언	-9927
엑	-9928
엿	-9929
왜	-9930
움	-9931
워	-9932
위	-9933
으	-9934
읍	-9935
응	-9936
익	-9937
입	-9938
있	-9939
작	-9940
잠	-9941
잭	-9942
쟁	-9943
좌	-9944
즈	-9945
직	-9946
짬	-9947
차	-9948
체	-9949
최	-9950
축	-9951
춘	-9952
출	-9953
치	-9954
칠	-9955
카	-9956
커	-9957
코	-9958
쾌	-9959
퀸	-9960
큰	-9961
탐	-9962
탕	-9963
테	-9964
투	-9965
트	-9966
튼	-9967
팝	-9968
퍼	-9969
펫	-9970
폐	-9971
푸	-9972
품	-9973
프	-9974
피	-9975
픽	-9976
핑	-9977
할	-9978
함	-9979
험	-9980
형	-9981
홀	-9982
효	-9983
훼	-9984
히	-9985
𐎄	-9986
𐎅	-9987
𐎆	-9988
𐎹	-9989
𒀸	-9990
𒁺	-9991
𒋗	-9992
🌐	-9993
🍗	-9994
👆	-9995
💔	-9996
