<unk>	0
<s>	0
</s>	0

	0
▁t	-0
▁a	-1
he	-2
in	-3
er	-4
▁the	-5
▁,	-6
on	-7
▁s	-8
nd	-9
re	-10
▁w	-11
▁o	-12
ed	-13
is	-14
or	-15
at	-16
▁in	-17
an	-18
▁b	-19
en	-20
▁f	-21
it	-22
ar	-23
▁c	-24
▁and	-25
▁.	-26
al	-27
es	-28
▁of	-29
as	-30
▁p	-31
ing	-32
ic	-33
ro	-34
▁to	-35
▁m	-36
▁h	-37
ion	-38
le	-39
▁d	-40
▁S	-41
▁1	-42
ou	-43
il	-44
▁C	-45
▁A	-46
▁T	-47
ent	-48
st	-49
▁re	-50
am	-51
▁M	-52
el	-53
om	-54
▁is	-55
▁was	-56
▁l	-57
ol	-58
▁n	-59
▁B	-60
ad	-61
ct	-62
▁e	-63
ur	-64
ly	-65
▁on	-66
▁th	-67
▁for	-68
ch	-69
iv	-70
et	-71
▁he	-72
▁19	-73
▁P	-74
▁H	-75
▁-	-76
ir	-77
▁I	-78
ot	-79
ut	-80
▁g	-81
ig	-82
▁be	-83
id	-84
▁2	-85
im	-86
ce	-87
▁as	-88
us	-89
ow	-90
la	-91
ation	-92
ter	-93
▁The	-94
▁D	-95
▁R	-96
▁wh	-97
ra	-98
ith	-99
▁L	-100
▁st	-101
ers	-102
▁with	-103
▁F	-104
un	-105
▁N	-106
▁(	-107
▁)	-108
▁by	-109
▁G	-110
em	-111
▁W	-112
▁at	-113
▁J	-114
▁an	-115
ver	-116
th	-117
▁E	-118
▁al	-119
▁20	-120
ist	-121
ul	-122
rom	-123
ay	-124
her	-125
os	-126
ge	-127
▁his	-128
▁con	-129
est	-130
▁it	-131
um	-132
▁from	-133
ri	-134
▁that	-135
oc	-136
▁O	-137
▁de	-138
▁pro	-139
ber	-140
▁se	-141
ity	-142
▁com	-143
ich	-144
ain	-145
op	-146
▁v	-147
▁U	-148
av	-149
and	-150
od	-151
▁K	-152
ac	-153
art	-154
all	-155
up	-156
pe	-157
ate	-158
res	-159
if	-160
ian	-161
ill	-162
ew	-163
ia	-164
ated	-165
ud	-166
ak	-167
▁or	-168
ess	-169
igh	-170
ies	-171
▁In	-172
ore	-173
ab	-174
ort	-175
ld	-176
▁which	-177
▁St	-178
ard	-179
nt	-180
▁are	-181
ag	-182
▁r	-183
ub	-184
gh	-185
▁ch	-186
ear	-187
ov	-188
orn	-189
ant	-190
qu	-191
▁200	-192
ame	-193
ary	-194
ive	-195
▁k	-196
ap	-197
ip	-198
▁Ch	-199
▁ex	-200
mer	-201
ous	-202
ong	-203
▁le	-204
▁y	-205
▁who	-206
▁whe	-207
▁pla	-208
ish	-209
ally	-210
ell	-211
und	-212
ast	-213
red	-214
ost	-215
▁;	-216
ust	-217
ment	-218
uc	-219
our	-220
▁has	-221
ere	-222
▁sh	-223
▁V	-224
ine	-225
▁but	-226
▁her	-227
ork	-228
irst	-229
▁He	-230
ord	-231
ue	-232
▁un	-233
ie	-234
▁were	-235
▁201	-236
▁18	-237
▁comp	-238
▁Un	-239
so	-240
own	-241
ial	-242
▁first	-243
og	-244
ight	-245
fter	-246
ction	-247
▁not	-248
ep	-249
ther	-250
ran	-251
▁play	-252
te	-253
▁born	-254
▁also	-255
ry	-256
se	-257
▁us	-258
rit	-259
▁te	-260
ome	-261
ire	-262
ave	-263
▁ser	-264
▁ar	-265
▁had	-266
ok	-267
▁year	-268
ure	-269
ff	-270
ater	-271
ond	-272
ass	-273
ide	-274
ical	-275
ice	-276
▁ro	-277
▁one	-278
▁bec	-279
ool	-280
land	-281
any	-282
ng	-283
ign	-284
▁their	-285
▁she	-286
per	-287
▁inc	-288
iz	-289
▁cl	-290
▁cont	-291
ack	-292
▁j	-293
▁res	-294
▁its	-295
▁ap	-296
▁199	-297
▁part	-298
ound	-299
ount	-300
ember	-301
hed	-302
wo	-303
▁int	-304
ition	-305
ugh	-306
ric	-307
are	-308
▁Y	-309
wn	-310
port	-311
chool	-312
ru	-313
▁3	-314
ke	-315
▁after	-316
ime	-317
ree	-318
▁ab	-319
man	-320
ach	-321
▁they	-322
▁ad	-323
ational	-324
ult	-325
▁ac	-326
age	-327
ang	-328
ne	-329
▁198	-330
▁It	-331
out	-332
sh	-333
▁Mar	-334
ased	-335
▁have	-336
pt	-337
▁kn	-338
▁been	-339
ile	-340
ican	-341
▁rec	-342
▁this	-343
▁en	-344
▁Al	-345
▁up	-346
uring	-347
ivers	-348
ence	-349
ates	-350
▁Amer	-351
ild	-352
amp	-353
▁off	-354
ited	-355
▁where	-356
▁work	-357
ug	-358
▁New	-359
▁two	-360
over	-361
▁all	-362
tern	-363
▁Th	-364
ough	-365
00	-366
ite	-367
ib	-368
▁ag	-369
ade	-370
▁him	-371
ck	-372
ied	-373
ory	-374
▁Le	-375
ark	-376
vel	-377
▁per	-378
▁sc	-379
ely	-380
▁dis	-381
oin	-382
▁other	-383
ould	-384
▁when	-385
▁loc	-386
▁Ar	-387
orm	-388
▁197	-389
ubl	-390
▁out	-391
act	-392
ens	-393
lud	-394
aw	-395
ever	-396
oy	-397
les	-398
▁sp	-399
▁serv	-400
urn	-401
ind	-402
▁comm	-403
▁over	-404
ted	-405
▁--	-406
▁into	-407
ations	-408
ath	-409
old	-410
ts	-411
▁known	-412
▁includ	-413
▁De	-414
▁im	-415
▁American	-416
gan	-417
ball	-418
ress	-419
▁des	-420
oot	-421
cted	-422
ons	-423
one	-424
▁ra	-425
uch	-426
▁time	-427
▁tra	-428
io	-429
we	-430
ail	-431
▁new	-432
ces	-433
ob	-434
iss	-435
iversity	-436
ents	-437
▁ev	-438
ced	-439
▁most	-440
▁4	-441
ood	-442
▁act	-443
ase	-444
ors	-445
▁196	-446
▁und	-447
▁can	-448
oll	-449
▁Re	-450
outh	-451
orld	-452
ft	-453
▁gro	-454
▁years	-455
cess	-456
rad	-457
able	-458
▁pre	-459
ilm	-460
▁spe	-461
rough	-462
fer	-463
▁stud	-464
ph	-465
ily	-466
▁found	-467
ose	-468
ance	-469
ward	-470
olle	-471
ren	-472
▁only	-473
ect	-474
▁sec	-475
▁under	-476
ick	-477
▁University	-478
▁pr	-479
▁5	-480
▁prod	-481
▁bu	-482
ince	-483
ton	-484
ss	-485
▁ret	-486
ral	-487
way	-488
▁mov	-489
ious	-490
ve	-491
▁Com	-492
▁then	-493
▁ne	-494
▁later	-495
ans	-496
▁ele	-497
ered	-498
orth	-499
oh	-500
pl	-501
ake	-502
▁during	-503
▁pl	-504
▁Sh	-505
ings	-506
▁man	-507
▁rele	-508
inal	-509
▁cent	-510
ions	-511
▁att	-512
▁ear	-513
▁bet	-514
fore	-515
▁so	-516
▁more	-517
▁cons	-518
▁Eng	-519
▁fam	-520
▁school	-521
▁film	-522
owever	-523
reat	-524
ram	-525
▁became	-526
urre	-527
▁form	-528
ished	-529
▁Ind	-530
ular	-531
ident	-532
▁rep	-533
▁United	-534
eat	-535
▁reg	-536
ook	-537
▁op	-538
aus	-539
▁195	-540
▁194	-541
▁used	-542
▁being	-543
end	-544
oth	-545
ont	-546
form	-547
▁ind	-548
erm	-549
aj	-550
▁there	-551
ision	-552
ener	-553
ah	-554
▁them	-555
▁mus	-556
eld	-557
▁pol	-558
eb	-559
▁publ	-560
▁team	-561
pr	-562
▁through	-563
olog	-564
ional	-565
▁17	-566
▁sup	-567
ics	-568
ason	-569
ict	-570
▁again	-571
▁sub	-572
ock	-573
▁rem	-574
ween	-575
▁co	-576
ins	-577
til	-578
▁some	-579
ife	-580
ix	-581
▁lar	-582
urrent	-583
▁6	-584
ober	-585
▁made	-586
rib	-587
ootball	-588
ived	-589
▁many	-590
ten	-591
▁about	-592
ann	-593
ual	-594
ather	-595
▁me	-596
che	-597
▁She	-598
▁until	-599
▁between	-600
▁sing	-601
▁rel	-602
▁do	-603
▁before	-604
▁ass	-605
▁inter	-606
▁would	-607
▁qu	-608
ouse	-609
▁pe	-610
▁current	-611
▁while	-612
ship	-613
▁call	-614
▁sy	-615
oun	-616
▁Z	-617
ik	-618
▁second	-619
ank	-620
▁dec	-621
rans	-622
ating	-623
arri	-624
▁app	-625
▁end	-626
inn	-627
▁three	-628
ague	-629
▁pres	-630
fess	-631
▁num	-632
▁own	-633
very	-634
▁fl	-635
att	-636
ames	-637
ec	-638
▁well	-639
other	-640
▁School	-641
ace	-642
ollow	-643
▁7	-644
▁An	-645
round	-646
ative	-647
ley	-648
ier	-649
▁ent	-650
▁will	-651
overn	-652
▁Joh	-653
ash	-654
▁inv	-655
▁Sc	-656
air	-657
ury	-658
▁appe	-659
▁lead	-660
▁pop	-661
velop	-662
▁than	-663
▁played	-664
▁ed	-665
▁orig	-666
▁such	-667
ept	-668
▁On	-669
▁May	-670
ee	-671
son	-672
iver	-673
ield	-674
▁Jan	-675
oci	-676
az	-677
▁Brit	-678
als	-679
▁acc	-680
▁am	-681
▁:	-682
▁bro	-683
ually	-684
▁def	-685
▁former	-686
ars	-687
▁record	-688
une	-689
ctor	-690
ale	-691
iam	-692
▁art	-693
bum	-694
▁8	-695
▁however	-696
ities	-697
▁ph	-698
ines	-699
▁John	-700
▁name	-701
led	-702
▁set	-703
▁prov	-704
enn	-705
▁Can	-706
▁dist	-707
▁show	-708
▁including	-709
▁States	-710
▁released	-711
ific	-712
▁writ	-713
▁193	-714
▁start	-715
tend	-716
emb	-717
▁char	-718
ike	-719
▁Fran	-720
ollege	-721
▁Aust	-722
▁16	-723
▁spec	-724
▁high	-725
amed	-726
ired	-727
▁York	-728
▁album	-729
elf	-730
▁Pro	-731
▁10	-732
▁song	-733
▁15	-734
▁family	-735
ower	-736
▁9	-737
▁back	-738
▁four	-739
▁count	-740
▁since	-741
▁day	-742
ister	-743
▁follow	-744
▁football	-745
▁main	-746
▁dire	-747
▁Ju	-748
erv	-749
ople	-750
▁both	-751
▁trans	-752
▁sever	-753
tain	-754
▁develop	-755
▁located	-756
▁sm	-757
▁Te	-758
▁season	-759
▁cap	-760
▁go	-761
▁inst	-762
▁music	-763
ron	-764
▁group	-765
▁Is	-766
▁Q	-767
▁Ph	-768
ey	-769
▁oper	-770
ina	-771
urch	-772
▁pos	-773
▁no	-774
cc	-775
▁Car	-776
▁mod	-777
uary	-778
▁met	-779
▁est	-780
▁called	-781
▁Aug	-782
▁As	-783
▁At	-784
▁sur	-785
▁series	-786
▁Nov	-787
▁Sept	-788
▁National	-789
▁cre	-790
ement	-791
▁August	-792
▁September	-793
▁rece	-794
▁Oct	-795
hen	-796
▁Sp	-797
▁band	-798
▁profess	-799
ting	-800
▁sign	-801
▁Cl	-802
▁child	-803
▁based	-804
stem	-805
000	-806
ures	-807
lish	-808
ern	-809
▁After	-810
ause	-811
▁192	-812
ives	-813
▁January	-814
its	-815
▁run	-816
▁War	-817
▁March	-818
ise	-819
▁October	-820
ilt	-821
▁now	-822
pos	-823
▁em	-824
ll	-825
ists	-826
▁began	-827
▁12	-828
my	-829
ajor	-830
▁South	-831
▁British	-832
▁June	-833
ys	-834
▁suc	-835
▁area	-836
ful	-837
▁mon	-838
uro	-839
der	-840
ject	-841
▁design	-842
▁World	-843
cy	-844
▁against	-845
▁city	-846
▁July	-847
▁near	-848
▁min	-849
▁several	-850
▁old	-851
▁return	-852
▁long	-853
▁feat	-854
▁Apr	-855
▁med	-856
▁early	-857
▁number	-858
aking	-859
ism	-860
▁April	-861
ven	-862
▁air	-863
▁open	-864
▁This	-865
ved	-866
▁currently	-867
mber	-868
ute	-869
▁people	-870
by	-871
▁Ed	-872
rist	-873
▁gener	-874
illa	-875
augh	-876
rid	-877
rand	-878
▁Comm	-879
▁member	-880
▁hist	-881
▁191	-882
▁City	-883
▁world	-884
erson	-885
▁offic	-886
▁Con	-887
▁dif	-888
▁Canad	-889
▁Cal	-890
ized	-891
▁November	-892
▁care	-893
ped	-894
uced	-895
▁bl	-896
▁League	-897
▁Dece	-898
ks	-899
▁col	-900
▁Austral	-901
▁December	-902
▁fin	-903
▁head	-904
▁comple	-905
uss	-906
imes	-907
ially	-908
▁build	-909
▁join	-910
ters	-911
ets	-912
aving	-913
▁prog	-914
ull	-915
ured	-916
though	-917
▁North	-918
ital	-919
▁produ	-920
▁gu	-921
▁you	-922
ract	-923
ai	-924
overnment	-925
▁aut	-926
▁Count	-927
▁Ad	-928
▁Man	-929
▁add	-930
▁small	-931
▁game	-932
▁var	-933
▁Wh	-934
▁son	-935
▁/	-936
ird	-937
▁polit	-938
▁company	-939
,000	-940
▁town	-941
▁Me	-942
ty	-943
▁contin	-944
ised	-945
▁Pr	-946
▁system	-947
▁disc	-948
ution	-949
▁named	-950
ger	-951
por	-952
▁home	-953
▁Feb	-954
▁use	-955
▁state	-956
ently	-957
▁won	-958
ple	-959
ruary	-960
ox	-961
▁may	-962
iew	-963
▁remain	-964
ues	-965
rict	-966
▁February	-967
▁public	-968
▁Ge	-969
ared	-970
▁organ	-971
ural	-972
▁Be	-973
▁father	-974
gest	-975
▁Par	-976
els	-977
▁bel	-978
cept	-979
ternational	-980
▁marri	-981
▁Cent	-982
▁same	-983
▁11	-984
iving	-985
ior	-986
▁14	-987
▁Euro	-988
▁English	-989
rop	-990
▁any	-991
▁Bro	-992
▁prom	-993
▁bus	-994
▁const	-995
▁College	-996
▁served	-997
▁Bar	-998
ology	-999
ants	-1000
▁class	-1001
▁inf	-1002
oman	-1003
▁around	-1004
ross	-1005
▁Col	-1006
▁King	-1007
ene	-1008
▁Lond	-1009
ax	-1010
xt	-1011
ient	-1012
▁London	-1013
▁success	-1014
vent	-1015
iet	-1016
ica	-1017
▁best	-1018
▁major	-1019
▁exp	-1020
▁station	-1021
▁dr	-1022
▁because	-1023
▁13	-1024
▁ob	-1025
▁built	-1026
ible	-1027
ged	-1028
▁US	-1029
▁Will	-1030
ium	-1031
cer	-1032
▁Or	-1033
▁did	-1034
▁car	-1035
▁professional	-1036
▁these	-1037
lev	-1038
iness	-1039
▁Har	-1040
▁left	-1041
▁moved	-1042
▁High	-1043
▁kill	-1044
inc	-1045
rew	-1046
▁eng	-1047
▁single	-1048
erman	-1049
▁mat	-1050
▁program	-1051
ris	-1052
▁hel	-1053
▁player	-1054
ott	-1055
▁club	-1056
ission	-1057
▁commun	-1058
▁ann	-1059
▁along	-1060
▁pass	-1061
ctions	-1062
▁grad	-1063
ove	-1064
ange	-1065
ided	-1066
▁died	-1067
ster	-1068
▁sim	-1069
chn	-1070
▁land	-1071
▁mil	-1072
▁book	-1073
▁death	-1074
eter	-1075
▁occ	-1076
▁Se	-1077
▁For	-1078
ampion	-1079
riend	-1080
ham	-1081
▁last	-1082
ility	-1083
ued	-1084
hes	-1085
▁very	-1086
▁life	-1087
ble	-1088
arm	-1089
▁due	-1090
ately	-1091
▁Christ	-1092
▁Europe	-1093
▁career	-1094
tle	-1095
▁though	-1096
pend	-1097
oard	-1098
▁West	-1099
▁event	-1100
get	-1101
▁2007	-1102
▁2008	-1103
▁term	-1104
ner	-1105
ring	-1106
▁Mus	-1107
ator	-1108
rol	-1109
ony	-1110
resent	-1111
ret	-1112
▁partic	-1113
aid	-1114
tended	-1115
▁took	-1116
ling	-1117
▁differ	-1118
lack	-1119
▁tit	-1120
ined	-1121
ically	-1122
▁we	-1123
▁County	-1124
anc	-1125
▁century	-1126
▁England	-1127
au	-1128
▁estab	-1129
ille	-1130
▁charact	-1131
▁2010	-1132
▁age	-1133
▁eff	-1134
▁local	-1135
▁place	-1136
yl	-1137
▁each	-1138
▁held	-1139
ask	-1140
▁Ass	-1141
▁2006	-1142
▁result	-1143
ford	-1144
ices	-1145
ane	-1146
▁like	-1147
▁ins	-1148
embers	-1149
▁2009	-1150
▁still	-1151
▁government	-1152
▁Geor	-1153
▁although	-1154
▁tr	-1155
▁2011	-1156
ink	-1157
reen	-1158
▁manag	-1159
▁down	-1160
akes	-1161
▁support	-1162
▁often	-1163
ience	-1164
▁ext	-1165
aster	-1166
▁State	-1167
▁Af	-1168
▁consid	-1169
▁deb	-1170
▁law	-1171
▁founded	-1172
▁ref	-1173
du	-1174
▁rest	-1175
▁large	-1176
uck	-1177
mp	-1178
▁El	-1179
▁tri	-1180
▁Fl	-1181
▁origin	-1182
▁war	-1183
rench	-1184
▁young	-1185
▁villa	-1186
▁2012	-1187
▁started	-1188
▁received	-1189
▁Sw	-1190
▁compet	-1191
▁Calif	-1192
illion	-1193
▁national	-1194
▁Am	-1195
isc	-1196
▁Californ	-1197
let	-1198
▁educ	-1199
▁members	-1200
omen	-1201
▁All	-1202
▁His	-1203
▁190	-1204
▁ty	-1205
▁&	-1206
▁Gu	-1207
▁California	-1208
levision	-1209
af	-1210
ments	-1211
▁Indian	-1212
▁mark	-1213
▁Wal	-1214
hor	-1215
▁person	-1216
▁Char	-1217
ival	-1218
▁camp	-1219
ode	-1220
omet	-1221
▁Co	-1222
▁six	-1223
lay	-1224
▁Ang	-1225
ides	-1226
▁German	-1227
▁Rep	-1228
▁French	-1229
▁Mc	-1230
▁short	-1231
raph	-1232
wards	-1233
▁could	-1234
▁playing	-1235
ison	-1236
▁mid	-1237
▁Min	-1238
▁children	-1239
▁William	-1240
▁Pol	-1241
med	-1242
▁vers	-1243
yn	-1244
▁house	-1245
▁gradu	-1246
▁hand	-1247
▁following	-1248
ief	-1249
ney	-1250
▁2013	-1251
ering	-1252
▁business	-1253
▁poin	-1254
▁par	-1255
▁married	-1256
▁dep	-1257
▁popular	-1258
▁perform	-1259
▁role	-1260
ps	-1261
▁north	-1262
▁And	-1263
ulation	-1264
uff	-1265
ves	-1266
▁went	-1267
▁power	-1268
▁25	-1269
con	-1270
ored	-1271
reet	-1272
for	-1273
gy	-1274
eng	-1275
▁just	-1276
▁Bl	-1277
▁line	-1278
ody	-1279
▁rev	-1280
ese	-1281
▁30	-1282
atic	-1283
▁189	-1284
▁Air	-1285
angu	-1286
ning	-1287
▁II	-1288
▁Park	-1289
laim	-1290
ats	-1291
bor	-1292
▁ep	-1293
▁sold	-1294
▁conf	-1295
▁become	-1296
▁Dav	-1297
▁2005	-1298
▁es	-1299
▁third	-1300
▁attack	-1301
▁trad	-1302
rem	-1303
▁five	-1304
▁having	-1305
▁late	-1306
ights	-1307
▁imp	-1308
▁allow	-1309
▁lit	-1310
▁top	-1311
▁beg	-1312
▁Sy	-1313
▁Her	-1314
raft	-1315
▁po	-1316
inning	-1317
oss	-1318
▁Part	-1319
▁present	-1320
▁within	-1321
▁appear	-1322
▁daugh	-1323
adio	-1324
estern	-1325
hem	-1326
▁appro	-1327
omin	-1328
work	-1329
▁av	-1330
alth	-1331
apan	-1332
self	-1333
▁adv	-1334
row	-1335
▁%	-1336
▁cour	-1337
▁Pres	-1338
ays	-1339
▁represent	-1340
▁original	-1341
amb	-1342
ages	-1343
que	-1344
iven	-1345
ung	-1346
▁San	-1347
▁building	-1348
▁str	-1349
▁$	-1350
ians	-1351
key	-1352
▁vis	-1353
▁They	-1354
▁even	-1355
ivision	-1356
▁south	-1357
▁final	-1358
▁television	-1359
▁Phil	-1360
ington	-1361
▁different	-1362
ridge	-1363
▁level	-1364
lished	-1365
▁mother	-1366
▁desc	-1367
▁2014	-1368
▁stand	-1369
▁Japan	-1370
▁friend	-1371
▁sk	-1372
▁water	-1373
▁hum	-1374
▁sl	-1375
rest	-1376
▁prev	-1377
ert	-1378
ampionship	-1379
ien	-1380
▁much	-1381
▁turn	-1382
field	-1383
adem	-1384
▁worked	-1385
hel	-1386
urs	-1387
ges	-1388
▁country	-1389
▁dem	-1390
▁real	-1391
▁Mich	-1392
▁bre	-1393
▁X	-1394
ified	-1395
▁another	-1396
▁character	-1397
▁if	-1398
▁Afric	-1399
▁cr	-1400
▁River	-1401
▁brother	-1402
▁Ab	-1403
▁led	-1404
umb	-1405
itary	-1406
▁India	-1407
▁188	-1408
min	-1409
ively	-1410
▁month	-1411
▁exper	-1412
ature	-1413
▁common	-1414
▁colle	-1415
stit	-1416
ization	-1417
▁Cor	-1418
▁Ital	-1419
▁fe	-1420
▁established	-1421
▁Ro	-1422
▁joined	-1423
▁post	-1424
ining	-1425
ches	-1426
▁2004	-1427
▁langu	-1428
▁published	-1429
osp	-1430
▁Russ	-1431
▁find	-1432
attle	-1433
▁wee	-1434
▁port	-1435
▁repla	-1436
▁requ	-1437
▁village	-1438
side	-1439
▁Ex	-1440
day	-1441
ler	-1442
▁service	-1443
ino	-1444
▁21	-1445
ety	-1446
▁East	-1447
▁aff	-1448
ana	-1449
com	-1450
▁cor	-1451
arent	-1452
▁history	-1453
▁House	-1454
ummer	-1455
▁tw	-1456
▁fac	-1457
▁produced	-1458
▁few	-1459
▁million	-1460
▁debut	-1461
eder	-1462
▁sit	-1463
ze	-1464
▁side	-1465
itions	-1466
▁came	-1467
▁leg	-1468
aul	-1469
▁created	-1470
iod	-1471
pect	-1472
▁Roy	-1473
ocial	-1474
▁det	-1475
▁make	-1476
▁Comp	-1477
▁conc	-1478
empt	-1479
▁daughter	-1480
eth	-1481
irl	-1482
ness	-1483
ched	-1484
▁plays	-1485
cast	-1486
▁Gener	-1487
▁There	-1488
bur	-1489
▁2015	-1490
▁author	-1491
▁During	-1492
▁Sec	-1493
▁largest	-1494
▁24	-1495
▁among	-1496
▁sol	-1497
▁186	-1498
▁wife	-1499
earch	-1500
oon	-1501
▁previous	-1502
▁techn	-1503
alf	-1504
▁every	-1505
▁men	-1506
▁great	-1507
▁see	-1508
▁import	-1509
ray	-1510
▁Australia	-1511
ald	-1512
epend	-1513
alk	-1514
▁La	-1515
▁crit	-1516
▁fre	-1517
▁written	-1518
ara	-1519
▁Ne	-1520
▁dra	-1521
▁elect	-1522
▁report	-1523
▁next	-1524
na	-1525
▁non	-1526
ounc	-1527
▁prim	-1528
ords	-1529
▁Canadian	-1530
▁special	-1531
▁ship	-1532
▁using	-1533
lu	-1534
▁red	-1535
urb	-1536
ruct	-1537
▁control	-1538
vers	-1539
▁clos	-1540
line	-1541
▁1990	-1542
▁what	-1543
▁2000	-1544
▁students	-1545
▁deg	-1546
▁host	-1547
▁Med	-1548
artment	-1549
ape	-1550
ration	-1551
▁considered	-1552
▁Sup	-1553
▁James	-1554
ries	-1555
▁sent	-1556
▁la	-1557
▁22	-1558
▁Br	-1559
▁invol	-1560
▁Gl	-1561
▁chang	-1562
▁returned	-1563
avy	-1564
▁incre	-1565
▁making	-1566
ones	-1567
rick	-1568
▁track	-1569
uk	-1570
ville	-1571
▁period	-1572
▁poss	-1573
par	-1574
▁take	-1575
▁sw	-1576
▁mag	-1577
▁President	-1578
▁working	-1579
▁vide	-1580
▁engine	-1581
▁187	-1582
▁init	-1583
ograph	-1584
▁pain	-1585
▁resp	-1586
▁way	-1587
▁However	-1588
▁1980	-1589
▁nt	-1590
hern	-1591
shire	-1592
▁various	-1593
▁caus	-1594
▁epis	-1595
▁Canada	-1596
yle	-1597
▁When	-1598
▁claim	-1599
▁games	-1600
▁pat	-1601
▁rock	-1602
ani	-1603
ency	-1604
ounced	-1605
ize	-1606
▁Tr	-1607
▁Que	-1608
▁becom	-1609
omb	-1610
aken	-1611
▁Party	-1612
▁cult	-1613
▁contain	-1614
▁One	-1615
▁Reg	-1616
▁General	-1617
ping	-1618
▁does	-1619
▁Lou	-1620
▁order	-1621
▁arch	-1622
▁attempt	-1623
▁formed	-1624
cl	-1625
ael	-1626
▁2003	-1627
▁Church	-1628
▁cover	-1629
▁star	-1630
▁Army	-1631
▁originally	-1632
▁community	-1633
▁attended	-1634
▁equ	-1635
▁23	-1636
▁fact	-1637
orthern	-1638
▁title	-1639
▁Port	-1640
isted	-1641
▁times	-1642
▁version	-1643
etwork	-1644
▁Ac	-1645
outher	-1646
hip	-1647
ivil	-1648
▁International	-1649
▁produc	-1650
▁dest	-1651
▁given	-1652
ead	-1653
ument	-1654
▁histor	-1655
ourn	-1656
▁America	-1657
▁opened	-1658
ality	-1659
iber	-1660
▁Rober	-1661
ruction	-1662
▁women	-1663
▁Island	-1664
conom	-1665
▁Australian	-1666
outhern	-1667
ots	-1668
ront	-1669
irc	-1670
▁himself	-1671
BC	-1672
read	-1673
▁field	-1674
▁0	-1675
ribut	-1676
▁Ser	-1677
ilar	-1678
dom	-1679
▁Dr	-1680
ards	-1681
ense	-1682
ells	-1683
▁iss	-1684
▁appeared	-1685
ases	-1686
▁project	-1687
▁political	-1688
▁get	-1689
▁never	-1690
▁promot	-1691
▁news	-1692
▁population	-1693
▁George	-1694
▁effect	-1695
▁refer	-1696
▁Mal	-1697
rod	-1698
ploy	-1699
▁appoin	-1700
ico	-1701
ms	-1702
▁Rich	-1703
cial	-1704
lin	-1705
arn	-1706
ander	-1707
ouncil	-1708
▁del	-1709
▁Hol	-1710
reg	-1711
▁process	-1712
▁Republ	-1713
ociation	-1714
ached	-1715
▁Em	-1716
▁win	-1717
aff	-1718
astern	-1719
▁Ber	-1720
▁those	-1721
▁France	-1722
▁tem	-1723
▁Pe	-1724
▁general	-1725
▁David	-1726
itor	-1727
▁production	-1728
▁Thom	-1729
▁pract	-1730
▁gr	-1731
▁1970	-1732
▁describ	-1733
▁developed	-1734
▁Gro	-1735
▁eventually	-1736
▁Nor	-1737
ida	-1738
▁Mon	-1739
▁hold	-1740
ording	-1741
▁site	-1742
idd	-1743
oph	-1744
mit	-1745
▁En	-1746
ery	-1747
rated	-1748
▁compos	-1749
▁Dist	-1750
▁2016	-1751
▁Ear	-1752
▁hig	-1753
▁beh	-1754
▁somet	-1755
▁Street	-1756
ta	-1757
▁priv	-1758
▁28	-1759
▁Per	-1760
▁full	-1761
itional	-1762
ata	-1763
sequ	-1764
▁Royal	-1765
▁activ	-1766
▁Ste	-1767
▁body	-1768
ows	-1769
lex	-1770
app	-1771
▁26	-1772
▁27	-1773
▁Sm	-1774
ops	-1775
▁2001	-1776
▁arr	-1777
▁included	-1778
ention	-1779
▁need	-1780
ountain	-1781
▁2002	-1782
▁story	-1783
oe	-1784
▁award	-1785
▁fore	-1786
ician	-1787
▁lab	-1788
▁Angel	-1789
posed	-1790
▁indust	-1791
▁development	-1792
▁Rec	-1793
▁district	-1794
▁Val	-1795
uel	-1796
▁prote	-1797
▁international	-1798
anish	-1799
ole	-1800
ying	-1801
▁val	-1802
▁Dep	-1803
▁military	-1804
▁gl	-1805
▁Cup	-1806
▁live	-1807
▁ren	-1808
ockey	-1809
▁mar	-1810
▁belie	-1811
ociety	-1812
wood	-1813
▁position	-1814
▁similar	-1815
▁ant	-1816
ush	-1817
van	-1818
▁rail	-1819
▁UK	-1820
ories	-1821
ele	-1822
▁interest	-1823
▁Mary	-1824
▁Roman	-1825
▁Res	-1826
▁continued	-1827
▁killed	-1828
▁free	-1829
ama	-1830
▁without	-1831
▁party	-1832
rap	-1833
▁successful	-1834
▁perfor	-1835
▁video	-1836
to	-1837
▁TV	-1838
▁By	-1839
▁Bra	-1840
▁broad	-1841
▁Pal	-1842
▁days	-1843
▁language	-1844
▁fur	-1845
▁Bel	-1846
▁185	-1847
▁pri	-1848
▁west	-1849
ably	-1850
lo	-1851
▁You	-1852
uf	-1853
rug	-1854
ogn	-1855
▁half	-1856
itar	-1857
▁Paul	-1858
used	-1859
▁lost	-1860
▁Red	-1861
▁Miss	-1862
▁announced	-1863
▁coach	-1864
▁region	-1865
▁college	-1866
▁director	-1867
▁influ	-1868
▁Jos	-1869
olic	-1870
craft	-1871
▁independ	-1872
▁usually	-1873
▁release	-1874
go	-1875
▁singer	-1876
▁direct	-1877
▁100	-1878
▁signed	-1879
▁European	-1880
▁works	-1881
sc	-1882
▁recorded	-1883
▁Qu	-1884
▁Mor	-1885
▁church	-1886
▁away	-1887
▁road	-1888
▁Germ	-1889
▁once	-1890
ills	-1891
▁toget	-1892
▁together	-1893
▁mult	-1894
▁radio	-1895
▁inform	-1896
▁Jack	-1897
▁Pat	-1898
▁29	-1899
ipp	-1900
ago	-1901
ream	-1902
▁Pl	-1903
▁right	-1904
rie	-1905
▁disp	-1906
gin	-1907
▁important	-1908
▁Championship	-1909
▁fire	-1910
cts	-1911
▁east	-1912
▁election	-1913
▁1960	-1914
▁stat	-1915
▁Mex	-1916
▁examp	-1917
ained	-1918
▁president	-1919
▁fun	-1920
▁artist	-1921
▁round	-1922
iron	-1923
▁owned	-1924
int	-1925
▁designed	-1926
▁view	-1927
asket	-1928
▁comb	-1929
▁invest	-1930
▁help	-1931
▁dev	-1932
▁Ant	-1933
▁official	-1934
▁Hen	-1935
▁good	-1936
▁Franc	-1937
▁island	-1938
▁include	-1939
▁Ir	-1940
▁Sch	-1941
imately	-1942
▁less	-1943
▁said	-1944
▁Tex	-1945
▁Ap	-1946
eal	-1947
▁elected	-1948
oor	-1949
▁social	-1950
iment	-1951
▁black	-1952
ming	-1953
most	-1954
ising	-1955
▁Wash	-1956
▁actor	-1957
▁Sen	-1958
▁famous	-1959
▁Ag	-1960
▁point	-1961
▁grow	-1962
ensive	-1963
▁human	-1964
▁office	-1965
ports	-1966
iding	-1967
▁lim	-1968
▁Sal	-1969
▁whose	-1970
▁modern	-1971
▁Germany	-1972
▁nov	-1973
▁avail	-1974
▁degree	-1975
▁particular	-1976
▁conne	-1977
▁fail	-1978
▁Kh	-1979
▁Louis	-1980
ought	-1981
ellow	-1982
era	-1983
▁Tra	-1984
cing	-1985
▁fall	-1986
▁performan	-1987
▁Robert	-1988
▁Black	-1989
▁market	-1990
▁parent	-1991
▁Mil	-1992
▁mer	-1993
lear	-1994
▁Sam	-1995
▁ter	-1996
▁Je	-1997
olution	-1998
▁1999	-1999
▁appointed	-2000
▁hit	-2001
▁league	-2002
▁girl	-2003
▁Vir	-2004
▁base	-2005
ademy	-2006
▁District	-2007
▁Dem	-2008
roy	-2009
▁Washington	-2010
▁div	-2011
▁Michael	-2012
▁el	-2013
▁bas	-2014
ournal	-2015
oney	-2016
▁econom	-2017
▁others	-2018
▁Des	-2019
▁phys	-2020
ecut	-2021
elling	-2022
stitute	-2023
▁Scott	-2024
▁vol	-2025
▁test	-2026
ospital	-2027
▁expl	-2028
ius	-2029
▁anim	-2030
▁Company	-2031
reek	-2032
lymp	-2033
▁research	-2034
▁typ	-2035
asketball	-2036
▁across	-2037
▁taken	-2038
▁months	-2039
ston	-2040
▁leading	-2041
▁studied	-2042
▁tot	-2043
▁ident	-2044
▁strong	-2045
▁laun	-2046
ae	-2047
▁Cath	-2048
▁footballer	-2049
ances	-2050
▁vot	-2051
▁seen	-2052
▁education	-2053
ways	-2054
rab	-2055
ware	-2056
ours	-2057
▁Olymp	-2058
ales	-2059
▁fem	-2060
▁meet	-2061
▁Mart	-2062
▁Los	-2063
uit	-2064
▁soon	-2065
▁available	-2066
▁184	-2067
▁Hall	-2068
▁Texas	-2069
▁lived	-2070
▁ground	-2071
eum	-2072
▁throughout	-2073
ma	-2074
▁lo	-2075
▁cast	-2076
▁Mac	-2077
▁No	-2078
▁Charles	-2079
▁Thomas	-2080
▁Football	-2081
▁suff	-2082
ocr	-2083
liam	-2084
aur	-2085
▁ten	-2086
aper	-2087
▁1998	-2088
▁Association	-2089
▁graduated	-2090
ament	-2091
▁ve	-2092
▁Che	-2093
▁proper	-2094
co	-2095
▁tro	-2096
atter	-2097
▁species	-2098
pite	-2099
rote	-2100
▁circ	-2101
▁style	-2102
aut	-2103
▁Christian	-2104
▁discover	-2105
▁Union	-2106
▁tour	-2107
▁Division	-2108
atch	-2109
▁read	-2110
▁model	-2111
liament	-2112
ett	-2113
▁light	-2114
▁1996	-2115
▁bar	-2116
▁mot	-2117
idence	-2118
ological	-2119
▁Mont	-2120
▁low	-2121
▁Alex	-2122
▁particip	-2123
▁Cap	-2124
▁fight	-2125
▁recogn	-2126
▁episode	-2127
aign	-2128
lect	-2129
anted	-2130
▁Law	-2131
unic	-2132
▁Art	-2133
▁capt	-2134
ership	-2135
ya	-2136
ination	-2137
▁surv	-2138
sy	-2139
▁cer	-2140
▁cond	-2141
ript	-2142
ky	-2143
▁grand	-2144
▁hy	-2145
ither	-2146
acher	-2147
▁squ	-2148
▁introd	-2149
iting	-2150
▁1997	-2151
▁Born	-2152
▁employ	-2153
▁sister	-2154
aker	-2155
▁Kingdom	-2156
▁night	-2157
▁50	-2158
▁eight	-2159
ceed	-2160
▁Road	-2161
band	-2162
▁completed	-2163
▁performed	-2164
▁features	-2165
▁further	-2166
ili	-2167
▁situ	-2168
iol	-2169
▁Bay	-2170
▁ord	-2171
annel	-2172
▁1992	-2173
▁Club	-2174
▁Cour	-2175
▁private	-2176
▁services	-2177
▁foc	-2178
▁phot	-2179
▁esc	-2180
ope	-2181
▁mater	-2182
▁wid	-2183
▁Ire	-2184
▁appl	-2185
▁police	-2186
▁example	-2187
▁che	-2188
ique	-2189
▁remained	-2190
▁Mag	-2191
arch	-2192
▁hous	-2193
cher	-2194
▁Chic	-2195
▁sour	-2196
overnor	-2197
▁subsequ	-2198
▁Flor	-2199
oo	-2200
▁Mad	-2201
▁183	-2202
minist	-2203
▁Minister	-2204
▁areas	-2205
▁inj	-2206
rian	-2207
▁Jew	-2208
▁separ	-2209
▁Council	-2210
▁followed	-2211
▁command	-2212
less	-2213
▁1995	-2214
▁should	-2215
▁Ben	-2216
▁close	-2217
▁regular	-2218
inese	-2219
▁winning	-2220
me	-2221
▁Academy	-2222
ivid	-2223
▁gen	-2224
ictor	-2225
▁reve	-2226
ule	-2227
▁race	-2228
▁replaced	-2229
pec	-2230
hood	-2231
▁total	-2232
▁network	-2233
▁Group	-2234
▁how	-2235
▁Stud	-2236
▁With	-2237
▁Great	-2238
▁put	-2239
▁entire	-2240
men	-2241
udd	-2242
▁creat	-2243
▁Angeles	-2244
itz	-2245
uter	-2246
▁Tor	-2247
arily	-2248
▁Carol	-2249
▁travel	-2250
▁instead	-2251
utes	-2252
▁Green	-2253
▁boy	-2254
▁Spanish	-2255
▁bank	-2256
ij	-2257
▁31	-2258
rain	-2259
▁struct	-2260
▁Central	-2261
▁First	-2262
▁Ireland	-2263
▁stri	-2264
▁rank	-2265
bour	-2266
erous	-2267
eep	-2268
▁Tom	-2269
itect	-2270
▁1994	-2271
▁week	-2272
▁Sing	-2273
▁Virgin	-2274
▁plan	-2275
▁Chicago	-2276
▁stage	-2277
▁training	-2278
▁fund	-2279
▁ide	-2280
▁politician	-2281
▁upon	-2282
▁whom	-2283
▁featured	-2284
▁commer	-2285
▁Chinese	-2286
hib	-2287
▁Italian	-2288
be	-2289
▁park	-2290
▁enc	-2291
▁China	-2292
cle	-2293
▁Peter	-2294
▁able	-2295
▁cross	-2296
▁relation	-2297
▁aircraft	-2298
icated	-2299
▁Off	-2300
▁1991	-2301
▁becoming	-2302
▁Institute	-2303
eph	-2304
▁dam	-2305
▁rul	-2306
here	-2307
oice	-2308
ishing	-2309
▁relig	-2310
ufact	-2311
▁parents	-2312
▁look	-2313
▁Frank	-2314
irth	-2315
▁Gr	-2316
▁hon	-2317
▁Western	-2318
▁Richard	-2319
▁sug	-2320
▁Rail	-2321
▁seven	-2322
▁proble	-2323
atre	-2324
▁Del	-2325
atural	-2326
▁schools	-2327
ula	-2328
▁Catholic	-2329
▁my	-2330
▁match	-2331
▁mur	-2332
▁sound	-2333
▁1989	-2334
ned	-2335
▁vict	-2336
▁almost	-2337
▁Center	-2338
▁1986	-2339
▁white	-2340
▁guitar	-2341
▁1993	-2342
▁events	-2343
ades	-2344
▁front	-2345
▁1950	-2346
▁Henry	-2347
▁sometimes	-2348
▁bo	-2349
▁gun	-2350
▁associ	-2351
▁living	-2352
▁past	-2353
▁decided	-2354
rag	-2355
▁Hist	-2356
▁wrote	-2357
ences	-2358
▁1987	-2359
▁Tur	-2360
▁Mel	-2361
ha	-2362
itive	-2363
▁individ	-2364
▁carri	-2365
▁Japanese	-2366
▁Sir	-2367
bert	-2368
▁actress	-2369
asons	-2370
▁Bur	-2371
burg	-2372
iers	-2373
▁Gold	-2374
ores	-2375
▁Russian	-2376
chie	-2377
▁1988	-2378
▁Florida	-2379
nder	-2380
ators	-2381
▁studio	-2382
▁liter	-2383
▁forces	-2384
▁campaign	-2385
fic	-2386
▁Mark	-2387
▁press	-2388
▁Mr	-2389
ude	-2390
▁shows	-2391
▁central	-2392
▁Penn	-2393
▁1984	-2394
▁involved	-2395
▁br	-2396
▁sex	-2397
▁km	-2398
▁Don	-2399
▁raised	-2400
▁Grand	-2401
▁introduced	-2402
icle	-2403
▁spent	-2404
▁cost	-2405
▁acqu	-2406
estival	-2407
▁earl	-2408
▁Bal	-2409
asing	-2410
▁let	-2411
igned	-2412
▁case	-2413
▁leader	-2414
▁films	-2415
▁Paris	-2416
▁1985	-2417
▁Victor	-2418
▁Act	-2419
▁Ham	-2420
▁approx	-2421
rought	-2422
▁must	-2423
▁Sim	-2424
▁grew	-2425
acy	-2426
▁Met	-2427
▁writer	-2428
▁We	-2429
▁Town	-2430
ranch	-2431
▁exist	-2432
of	-2433
▁My	-2434
▁civil	-2435
▁While	-2436
▁Mer	-2437
▁manufact	-2438
▁40	-2439
▁range	-2440
▁Kn	-2441
▁serving	-2442
▁accept	-2443
▁previously	-2444
▁prot	-2445
vin	-2446
▁individual	-2447
itch	-2448
▁gave	-2449
▁Irish	-2450
▁includes	-2451
ids	-2452
▁Sain	-2453
▁African	-2454
▁Africa	-2455
▁bur	-2456
▁novel	-2457
aves	-2458
aching	-2459
▁construction	-2460
▁retired	-2461
▁access	-2462
▁Award	-2463
▁Cong	-2464
▁reb	-2465
▁ever	-2466
▁From	-2467
▁stop	-2468
▁countries	-2469
ka	-2470
▁Swed	-2471
▁study	-2472
▁board	-2473
ificant	-2474
▁room	-2475
ened	-2476
ederal	-2477
▁woman	-2478
ential	-2479
▁Music	-2480
▁anc	-2481
tt	-2482
▁Mass	-2483
▁Scot	-2484
▁described	-2485
incip	-2486
▁far	-2487
off	-2488
▁directed	-2489
atory	-2490
▁songs	-2491
▁Pri	-2492
▁material	-2493
▁mix	-2494
▁contract	-2495
▁Records	-2496
▁2017	-2497
▁1983	-2498
iff	-2499
aged	-2500
▁cou	-2501
ference	-2502
▁Rev	-2503
▁broadcast	-2504
▁prison	-2505
▁health	-2506
▁know	-2507
ki	-2508
aught	-2509
▁treat	-2510
ari	-2511
▁type	-2512
▁capital	-2513
ply	-2514
▁Zeal	-2515
▁break	-2516
▁neigh	-2517
▁love	-2518
▁Ter	-2519
▁sen	-2520
istan	-2521
▁imm	-2522
ota	-2523
▁tre	-2524
▁significant	-2525
▁Lake	-2526
inent	-2527
▁prem	-2528
▁outside	-2529
▁aud	-2530
iction	-2531
▁changed	-2532
olf	-2533
▁battle	-2534
aled	-2535
sych	-2536
▁list	-2537
▁relationship	-2538
▁Hill	-2539
▁impro	-2540
▁Bill	-2541
▁Rock	-2542
ected	-2543
▁center	-2544
▁Democr	-2545
▁journal	-2546
▁destroy	-2547
▁running	-2548
▁architect	-2549
▁teams	-2550
▁Wil	-2551
▁Do	-2552
▁Cro	-2553
hod	-2554
oul	-2555
▁Zealand	-2556
▁White	-2557
unk	-2558
▁organization	-2559
▁space	-2560
▁fourth	-2561
▁1982	-2562
▁movie	-2563
hest	-2564
writ	-2565
▁Court	-2566
▁goal	-2567
▁respons	-2568
▁independent	-2569
eleb	-2570
ala	-2571
▁addition	-2572
▁information	-2573
▁fif	-2574
▁voc	-2575
▁student	-2576
▁army	-2577
▁hard	-2578
▁z	-2579
▁bi	-2580
▁brought	-2581
azine	-2582
▁Department	-2583
▁transfer	-2584
▁cop	-2585
arter	-2586
▁assist	-2587
▁thus	-2588
▁!	-2589
▁performance	-2590
ibr	-2591
▁pur	-2592
▁big	-2593
▁Super	-2594
▁reported	-2595
▁basketball	-2596
board	-2597
▁sett	-2598
ving	-2599
▁1981	-2600
▁deal	-2601
ugby	-2602
vert	-2603
▁frequ	-2604
edy	-2605
hi	-2606
anta	-2607
enced	-2608
itte	-2609
▁specific	-2610
▁Lab	-2611
▁parts	-2612
▁hom	-2613
▁books	-2614
▁colla	-2615
▁taking	-2616
▁cut	-2617
ona	-2618
▁today	-2619
▁mean	-2620
▁ice	-2621
iqu	-2622
ilities	-2623
▁active	-2624
▁Cons	-2625
medi	-2626
apt	-2627
▁condu	-2628
sel	-2629
lands	-2630
▁Atl	-2631
▁purch	-2632
▁food	-2633
▁web	-2634
▁river	-2635
▁fig	-2636
▁takes	-2637
▁181	-2638
▁approximately	-2639
atives	-2640
▁ill	-2641
▁Dire	-2642
▁Society	-2643
▁Day	-2644
elled	-2645
▁execut	-2646
▁Virginia	-2647
viron	-2648
▁commercial	-2649
▁miss	-2650
▁either	-2651
▁1979	-2652
▁cand	-2653
▁accom	-2654
▁generally	-2655
pecially	-2656
ication	-2657
▁Up	-2658
.5	-2659
▁mem	-2660
lam	-2661
▁ran	-2662
▁farm	-2663
▁sele	-2664
▁Serv	-2665
▁king	-2666
▁viol	-2667
▁Columb	-2668
back	-2669
▁doc	-2670
▁Acc	-2671
berg	-2672
▁super	-2673
▁Ke	-2674
▁shot	-2675
ems	-2676
▁Star	-2677
▁industry	-2678
▁birth	-2679
▁182	-2680
▁via	-2681
▁achie	-2682
▁especially	-2683
airs	-2684
▁key	-2685
▁Pet	-2686
icles	-2687
ishop	-2688
ker	-2689
▁fir	-2690
▁Profess	-2691
▁USA	-2692
overs	-2693
rd	-2694
▁Smith	-2695
▁northern	-2696
▁female	-2697
▁hor	-2698
pected	-2699
rey	-2700
rup	-2701
igan	-2702
▁court	-2703
ena	-2704
▁beginning	-2705
▁southern	-2706
ises	-2707
▁mass	-2708
▁rather	-2709
▁Oh	-2710
▁Rob	-2711
▁little	-2712
▁Lu	-2713
▁sch	-2714
▁force	-2715
▁occur	-2716
alls	-2717
▁too	-2718
▁leaving	-2719
unt	-2720
▁quick	-2721
▁Georg	-2722
▁states	-2723
mar	-2724
▁mostly	-2725
za	-2726
▁saw	-2727
▁compan	-2728
▁self	-2729
uture	-2730
olk	-2731
de	-2732
▁Mexico	-2733
FL	-2734
▁teacher	-2735
fit	-2736
▁Kore	-2737
▁intern	-2738
ires	-2739
▁hot	-2740
ria	-2741
head	-2742
▁manager	-2743
ario	-2744
▁instit	-2745
▁occup	-2746
▁players	-2747
▁miles	-2748
▁reached	-2749
aval	-2750
rael	-2751
▁suggest	-2752
▁regard	-2753
▁Spe	-2754
▁attend	-2755
▁movement	-2756
▁money	-2757
▁summer	-2758
▁agre	-2759
▁gold	-2760
▁producer	-2761
▁wind	-2762
▁behind	-2763
▁fav	-2764
unn	-2765
order	-2766
▁Bu	-2767
ylvan	-2768
▁Republic	-2769
▁groups	-2770
▁celeb	-2771
▁ended	-2772
mb	-2773
▁centre	-2774
▁God	-2775
▁Joseph	-2776
ror	-2777
▁Parliament	-2778
▁job	-2779
▁enter	-2780
lim	-2781
▁media	-2782
▁1976	-2783
usband	-2784
▁lives	-2785
▁keep	-2786
▁itself	-2787
▁Wales	-2788
▁plann	-2789
iation	-2790
ump	-2791
▁runs	-2792
▁coast	-2793
▁administ	-2794
▁cat	-2795
▁sem	-2796
ersey	-2797
ressed	-2798
▁above	-2799
ground	-2800
▁come	-2801
▁Chief	-2802
▁writing	-2803
▁Cast	-2804
▁Ma	-2805
▁Second	-2806
▁added	-2807
▁got	-2808
▁Fort	-2809
olar	-2810
val	-2811
west	-2812
▁recently	-2813
ateg	-2814
▁pay	-2815
▁1974	-2816
utch	-2817
rying	-2818
▁pred	-2819
ylvania	-2820
▁subject	-2821
▁Op	-2822
▁Major	-2823
▁pot	-2824
▁Arts	-2825
▁Israel	-2826
▁Force	-2827
▁Battle	-2828
▁1972	-2829
▁1978	-2830
gen	-2831
▁entered	-2832
▁musical	-2833
atin	-2834
face	-2835
▁i	-2836
▁Pak	-2837
arian	-2838
▁except	-2839
▁friends	-2840
▁ste	-2841
▁Lit	-2842
▁primary	-2843
▁box	-2844
▁division	-2845
▁1975	-2846
iety	-2847
▁awarded	-2848
▁subsequently	-2849
▁seat	-2850
▁Im	-2851
▁initially	-2852
▁placed	-2853
aly	-2854
▁Kar	-2855
icy	-2856
▁train	-2857
▁sus	-2858
▁Brown	-2859
▁fla	-2860
▁closed	-2861
▁highest	-2862
eated	-2863
▁operated	-2864
▁related	-2865
▁natural	-2866
▁Du	-2867
▁traditional	-2868
kn	-2869
▁husband	-2870
▁soft	-2871
▁points	-2872
▁Carolina	-2873
ittee	-2874
isco	-2875
▁Arab	-2876
▁Found	-2877
ergy	-2878
▁defend	-2879
▁finished	-2880
▁caused	-2881
▁1977	-2882
▁These	-2883
▁der	-2884
▁cust	-2885
▁change	-2886
ios	-2887
ounter	-2888
mon	-2889
▁Camp	-2890
▁Italy	-2891
▁according	-2892
▁Gra	-2893
BA	-2894
▁Although	-2895
dle	-2896
▁numerous	-2897
▁chief	-2898
vironment	-2899
▁lik	-2900
50	-2901
▁Just	-2902
▁remains	-2903
▁stre	-2904
▁Arch	-2905
▁launched	-2906
▁surround	-2907
▁date	-2908
▁review	-2909
ado	-2910
▁Mo	-2911
ification	-2912
▁dram	-2913
▁science	-2914
▁trib	-2915
▁hockey	-2916
▁better	-2917
▁sil	-2918
▁exc	-2919
asion	-2920
▁appears	-2921
adium	-2922
stand	-2923
ression	-2924
asc	-2925
▁officer	-2926
▁practice	-2927
▁1973	-2928
▁location	-2929
▁stay	-2930
▁constit	-2931
ume	-2932
▁sn	-2933
oma	-2934
ength	-2935
▁princip	-2936
▁To	-2937
▁Greek	-2938
▁maintain	-2939
road	-2940
▁cur	-2941
▁least	-2942
▁Navy	-2943
▁1969	-2944
▁scient	-2945
▁Penns	-2946
▁plant	-2947
▁learn	-2948
aries	-2949
▁represented	-2950
well	-2951
▁competition	-2952
leg	-2953
▁finally	-2954
▁remov	-2955
▁mainly	-2956
ada	-2957
▁Queen	-2958
▁candid	-2959
▁studies	-2960
▁1971	-2961
CA	-2962
▁dou	-2963
istic	-2964
urity	-2965
▁1968	-2966
ements	-2967
▁move	-2968
▁towards	-2969
▁ask	-2970
▁action	-2971
▁But	-2972
▁rights	-2973
▁1940	-2974
▁wide	-2975
hing	-2976
ites	-2977
▁Northern	-2978
oke	-2979
▁Cont	-2980
rief	-2981
▁focus	-2982
▁means	-2983
▁forced	-2984
▁Some	-2985
▁Pennsylvania	-2986
antic	-2987
▁Sov	-2988
▁cred	-2989
▁arrest	-2990
▁provide	-2991
▁dig	-2992
▁primarily	-2993
▁loss	-2994
▁jud	-2995
▁Saint	-2996
▁secret	-2997
▁drop	-2998
▁western	-2999
▁uses	-3000
▁nomin	-3001
ography	-3002
▁Valley	-3003
isl	-3004
▁Old	-3005
▁adop	-3006
▁recording	-3007
▁Emp	-3008
▁Ill	-3009
imate	-3010
unicip	-3011
▁Jer	-3012
▁Midd	-3013
▁Play	-3014
▁180	-3015
▁Trans	-3016
▁critic	-3017
▁senior	-3018
▁Mic	-3019
▁mountain	-3020
istry	-3021
▁Wood	-3022
▁allowed	-3023
cent	-3024
▁phil	-3025
▁editor	-3026
▁defeat	-3027
▁1967	-3028
▁wood	-3029
ano	-3030
▁arm	-3031
odes	-3032
▁native	-3033
▁despite	-3034
▁personal	-3035
▁method	-3036
▁block	-3037
▁oppos	-3038
▁cy	-3039
▁neg	-3040
▁future	-3041
chester	-3042
▁rap	-3043
▁poet	-3044
▁obs	-3045
chan	-3046
▁going	-3047
▁screen	-3048
▁consist	-3049
owers	-3050
▁contribut	-3051
rial	-3052
▁financ	-3053
▁feature	-3054
▁Ox	-3055
▁Haw	-3056
▁Lord	-3057
▁Ohio	-3058
▁majority	-3059
▁shoot	-3060
▁makes	-3061
ym	-3062
ficult	-3063
▁investig	-3064
▁Hot	-3065
▁Fore	-3066
ex	-3067
▁medical	-3068
▁pie	-3069
va	-3070
ye	-3071
▁university	-3072
▁1930	-3073
▁Liber	-3074
▁Bo	-3075
▁defeated	-3076
▁Southern	-3077
▁difficult	-3078
▁length	-3079
▁Den	-3080
▁railway	-3081
▁minor	-3082
yr	-3083
poration	-3084
gn	-3085
inner	-3086
▁referred	-3087
▁Gar	-3088
aps	-3089
▁hospital	-3090
▁appearance	-3091
bury	-3092
▁Sar	-3093
▁pil	-3094
▁tells	-3095
▁Congress	-3096
oring	-3097
▁Cla	-3098
▁provided	-3099
▁ball	-3100
airman	-3101
▁immedi	-3102
▁Since	-3103
erve	-3104
▁foot	-3105
▁account	-3106
iences	-3107
uth	-3108
etts	-3109
▁BBC	-3110
▁opt	-3111
▁Inter	-3112
▁effort	-3113
▁Ram	-3114
▁Ann	-3115
▁dead	-3116
▁oldest	-3117
▁marriage	-3118
▁Scotland	-3119
use	-3120
ga	-3121
▁sla	-3122
▁systems	-3123
▁longer	-3124
wer	-3125
▁Martin	-3126
▁Pla	-3127
▁Jewish	-3128
▁Publ	-3129
▁Kent	-3130
ban	-3131
▁Boy	-3132
▁Techn	-3133
▁Governor	-3134
▁chart	-3135
elt	-3136
▁particularly	-3137
▁Bost	-3138
▁sports	-3139
▁Government	-3140
lying	-3141
▁earned	-3142
▁veh	-3143
▁turned	-3144
▁Lee	-3145
▁multip	-3146
▁professor	-3147
▁formerly	-3148
sec	-3149
▁possible	-3150
▁commonly	-3151
▁newsp	-3152
iger	-3153
▁standard	-3154
▁fle	-3155
aches	-3156
▁Edward	-3157
▁believed	-3158
izing	-3159
ability	-3160
▁label	-3161
▁Sil	-3162
venue	-3163
▁Radio	-3164
▁Jim	-3165
▁Go	-3166
.1	-3167
▁higher	-3168
▁computer	-3169
embly	-3170
▁plat	-3171
▁brief	-3172
den	-3173
ructed	-3174
▁psych	-3175
▁discovered	-3176
hab	-3177
▁Pac	-3178
achus	-3179
▁Fred	-3180
▁heart	-3181
▁Britain	-3182
▁Scottish	-3183
▁always	-3184
▁Jersey	-3185
▁Mur	-3186
▁aver	-3187
▁section	-3188
▁Republican	-3189
▁Ros	-3190
▁passed	-3191
eds	-3192
▁Film	-3193
▁moving	-3194
▁Earth	-3195
▁Ont	-3196
▁Boston	-3197
▁Squ	-3198
▁brand	-3199
umn	-3200
▁quest	-3201
▁Soviet	-3202
▁Camb	-3203
▁Fin	-3204
▁179	-3205
▁associated	-3206
unior	-3207
▁mission	-3208
imb	-3209
mond	-3210
▁contro	-3211
oms	-3212
▁data	-3213
▁pers	-3214
▁thought	-3215
ote	-3216
▁companies	-3217
▁buildings	-3218
gr	-3219
▁serves	-3220
▁happ	-3221
▁transl	-3222
▁leave	-3223
▁staff	-3224
ita	-3225
porary	-3226
▁Most	-3227
▁quickly	-3228
▁object	-3229
▁Massachus	-3230
▁Win	-3231
▁meas	-3232
▁Summer	-3233
▁Francisco	-3234
zil	-3235
▁arg	-3236
▁county	-3237
▁Ontario	-3238
▁prob	-3239
ready	-3240
▁lack	-3241
▁championship	-3242
view	-3243
▁Massachusetts	-3244
▁1964	-3245
▁Sl	-3246
▁lower	-3247
ati	-3248
▁Museum	-3249
▁founder	-3250
uty	-3251
▁emer	-3252
adel	-3253
▁mach	-3254
▁word	-3255
▁Bre	-3256
ux	-3257
▁educated	-3258
▁Carl	-3259
aring	-3260
▁Best	-3261
ands	-3262
▁Bob	-3263
▁Pan	-3264
▁norm	-3265
gl	-3266
ging	-3267
▁fort	-3268
▁earlier	-3269
▁Commun	-3270
▁1945	-3271
▁tourn	-3272
▁Ol	-3273
▁qual	-3274
▁magazine	-3275
▁situated	-3276
▁Professor	-3277
mark	-3278
▁complet	-3279
▁prop	-3280
ault	-3281
▁Columbia	-3282
▁ge	-3283
▁Mill	-3284
▁complete	-3285
heast	-3286
▁Prov	-3287
▁hours	-3288
▁Er	-3289
▁colon	-3290
oid	-3291
isher	-3292
▁1965	-3293
een	-3294
iana	-3295
▁size	-3296
orpor	-3297
▁threat	-3298
irt	-3299
▁Spain	-3300
▁certain	-3301
▁Sk	-3302
▁Syd	-3303
▁widely	-3304
▁sea	-3305
▁already	-3306
▁establish	-3307
▁sal	-3308
▁altern	-3309
▁religious	-3310
▁limited	-3311
▁complex	-3312
▁variety	-3313
▁Mah	-3314
▁opening	-3315
▁seasons	-3316
▁structure	-3317
ingu	-3318
▁draw	-3319
wide	-3320
abeth	-3321
▁nearly	-3322
▁middle	-3323
▁How	-3324
▁lic	-3325
onto	-3326
▁cal	-3327
▁lif	-3328
▁Year	-3329
▁ded	-3330
▁energy	-3331
ura	-3332
▁Jo	-3333
▁concept	-3334
▁Broad	-3335
▁emb	-3336
▁1920	-3337
azz	-3338
▁Inc	-3339
ications	-3340
▁Stan	-3341
▁channel	-3342
▁drug	-3343
▁say	-3344
▁course	-3345
▁document	-3346
▁heavy	-3347
▁instr	-3348
▁rad	-3349
▁Charl	-3350
reme	-3351
▁prior	-3352
▁clear	-3353
▁sat	-3354
▁nine	-3355
▁Big	-3356
▁Empire	-3357
teen	-3358
▁bomb	-3359
▁Brazil	-3360
hold	-3361
enth	-3362
▁insp	-3363
▁Bank	-3364
▁saf	-3365
achel	-3366
▁source	-3367
esh	-3368
ether	-3369
▁culture	-3370
lah	-3371
▁Fer	-3372
ibrary	-3373
idents	-3374
lor	-3375
▁contains	-3376
ini	-3377
▁succeed	-3378
▁management	-3379
uge	-3380
itan	-3381
▁eas	-3382
▁helped	-3383
▁obtain	-3384
▁commission	-3385
ider	-3386
▁purs	-3387
ension	-3388
onst	-3389
mitted	-3390
och	-3391
▁Olympics	-3392
▁1966	-3393
gypt	-3394
▁pick	-3395
▁comes	-3396
▁operations	-3397
het	-3398
▁1963	-3399
▁nearby	-3400
▁technology	-3401
ests	-3402
ette	-3403
▁McC	-3404
▁gra	-3405
orial	-3406
▁wing	-3407
▁function	-3408
▁Sydney	-3409
▁eastern	-3410
▁sched	-3411
▁yet	-3412
▁1962	-3413
▁expand	-3414
▁er	-3415
▁Director	-3416
▁Eliz	-3417
▁Oxford	-3418
▁Secret	-3419
▁larger	-3420
▁failed	-3421
▁concer	-3422
▁equip	-3423
▁Dutch	-3424
▁starting	-3425
▁Sa	-3426
▁headqu	-3427
▁60	-3428
▁murder	-3429
▁Commission	-3430
▁blood	-3431
▁Educ	-3432
▁acting	-3433
urt	-3434
izes	-3435
oper	-3436
▁create	-3437
▁Gal	-3438
▁province	-3439
▁transport	-3440
inois	-3441
▁Egypt	-3442
▁notable	-3443
▁Mos	-3444
▁recent	-3445
ady	-3446
ils	-3447
tainment	-3448
▁cit	-3449
▁required	-3450
▁amount	-3451
▁route	-3452
▁Toronto	-3453
▁Cat	-3454
ented	-3455
▁News	-3456
▁Spr	-3457
▁conv	-3458
uz	-3459
▁poor	-3460
▁arrived	-3461
burgh	-3462
▁themsel	-3463
▁Michigan	-3464
▁visit	-3465
▁themselves	-3466
▁territ	-3467
ras	-3468
▁Wind	-3469
▁Cle	-3470
inary	-3471
onn	-3472
▁face	-3473
▁Prem	-3474
▁Democratic	-3475
▁give	-3476
cel	-3477
▁Illinois	-3478
▁Matt	-3479
▁store	-3480
▁goes	-3481
▁exhib	-3482
ola	-3483
▁ancient	-3484
▁Board	-3485
▁abs	-3486
▁lay	-3487
▁unit	-3488
▁Base	-3489
▁step	-3490
▁property	-3491
▁Cam	-3492
anda	-3493
writer	-3494
▁campus	-3495
▁highly	-3496
▁environment	-3497
▁weap	-3498
▁shown	-3499
▁platform	-3500
▁respect	-3501
▁According	-3502
▁Georgia	-3503
AS	-3504
iant	-3505
rack	-3506
▁legal	-3507
cend	-3508
ansas	-3509
oint	-3510
▁Not	-3511
▁tar	-3512
▁determ	-3513
▁characters	-3514
▁chem	-3515
▁firm	-3516
▁Hy	-3517
▁den	-3518
▁Prince	-3519
etic	-3520
▁Aut	-3521
anced	-3522
▁destroyed	-3523
▁Oper	-3524
▁Mod	-3525
▁meaning	-3526
inct	-3527
▁Dou	-3528
▁Fre	-3529
▁scored	-3530
▁scene	-3531
▁weeks	-3532
▁nar	-3533
▁Philipp	-3534
icted	-3535
gent	-3536
▁pen	-3537
▁Civil	-3538
▁Festival	-3539
▁trade	-3540
▁prevent	-3541
▁selected	-3542
▁anti	-3543
▁issues	-3544
▁Mountain	-3545
pro	-3546
▁artists	-3547
kins	-3548
uten	-3549
▁collection	-3550
▁Jul	-3551
change	-3552
▁Ha	-3553
uries	-3554
▁Class	-3555
▁univers	-3556
▁youth	-3557
▁Middle	-3558
▁Luc	-3559
▁theory	-3560
▁neighbor	-3561
▁actually	-3562
▁Es	-3563
▁Long	-3564
NA	-3565
▁Bh	-3566
iles	-3567
▁Bus	-3568
▁crew	-3569
▁claimed	-3570
▁managed	-3571
duction	-3572
▁cause	-3573
iled	-3574
arters	-3575
▁voice	-3576
▁provides	-3577
▁Cr	-3578
▁noted	-3579
▁suburb	-3580
rel	-3581
▁Histor	-3582
▁concern	-3583
ols	-3584
▁Under	-3585
▁academ	-3586
ties	-3587
▁bridge	-3588
▁becomes	-3589
TV	-3590
raw	-3591
obal	-3592
▁Sun	-3593
right	-3594
▁prominent	-3595
▁officially	-3596
▁1944	-3597
▁du	-3598
▁remaining	-3599
gian	-3600
▁1956	-3601
▁consider	-3602
▁Hel	-3603
▁1,	-3604
▁Line	-3605
▁taught	-3606
20	-3607
HL	-3608
▁tal	-3609
▁federal	-3610
▁Hind	-3611
▁metal	-3612
▁Portug	-3613
▁Raj	-3614
▁problems	-3615
▁Dis	-3616
▁composed	-3617
▁evidence	-3618
▁responsible	-3619
▁speed	-3620
▁settle	-3621
rown	-3622
▁tax	-3623
itt	-3624
▁twent	-3625
▁Tre	-3626
▁rugby	-3627
▁Eastern	-3628
▁financial	-3629
▁Science	-3630
orough	-3631
ulated	-3632
▁programs	-3633
▁bring	-3634
▁Elizabeth	-3635
▁Bet	-3636
▁enough	-3637
▁dom	-3638
▁dance	-3639
ify	-3640
ken	-3641
▁1947	-3642
▁1961	-3643
▁wear	-3644
▁nation	-3645
▁Many	-3646
▁Victoria	-3647
▁contest	-3648
▁Bow	-3649
▁Young	-3650
▁inside	-3651
The	-3652
▁minutes	-3653
inet	-3654
▁revealed	-3655
yan	-3656
phia	-3657
▁1958	-3658
ua	-3659
▁FC	-3660
▁houses	-3661
▁status	-3662
▁Pacific	-3663
omer	-3664
▁Follow	-3665
▁fellow	-3666
▁Philadel	-3667
▁plans	-3668
▁Tw	-3669
▁Max	-3670
▁1942	-3671
ibility	-3672
▁1948	-3673
▁finds	-3674
▁Russia	-3675
▁captured	-3676
▁80	-3677
ares	-3678
usion	-3679
▁Brook	-3680
▁forms	-3681
ipl	-3682
▁terms	-3683
ros	-3684
umed	-3685
igr	-3686
▁troops	-3687
▁dise	-3688
▁Philadelphia	-3689
▁Gh	-3690
▁1959	-3691
▁spir	-3692
bon	-3693
▁uns	-3694
house	-3695
▁Dani	-3696
vey	-3697
▁Two	-3698
▁Its	-3699
▁Leg	-3700
▁Jones	-3701
▁serve	-3702
▁male	-3703
▁older	-3704
▁Islam	-3705
▁therefore	-3706
▁su	-3707
▁offered	-3708
▁cell	-3709
▁walk	-3710
ste	-3711
▁1946	-3712
▁names	-3713
▁Pakistan	-3714
▁link	-3715
▁experience	-3716
▁ens	-3717
atively	-3718
reater	-3719
▁Mat	-3720
uments	-3721
▁Ash	-3722
▁Pre	-3723
▁constructed	-3724
ieuten	-3725
▁changes	-3726
▁Conserv	-3727
hew	-3728
▁Sat	-3729
▁featuring	-3730
bers	-3731
▁accident	-3732
bourne	-3733
▁Jud	-3734
ients	-3735
ricult	-3736
▁average	-3737
alist	-3738
▁done	-3739
▁units	-3740
▁Main	-3741
▁gained	-3742
▁acquired	-3743
▁Hockey	-3744
▁Adam	-3745
▁Mot	-3746
arden	-3747
▁products	-3748
ih	-3749
bs	-3750
▁adj	-3751
lav	-3752
▁autom	-3753
▁deep	-3754
▁Andrew	-3755
▁philos	-3756
▁minister	-3757
edd	-3758
▁Step	-3759
▁Service	-3760
▁1943	-3761
▁wanted	-3762
▁Hum	-3763
▁har	-3764
orning	-3765
▁Following	-3766
▁listed	-3767
uing	-3768
▁Tim	-3769
iest	-3770
▁Dar	-3771
▁increased	-3772
▁solo	-3773
ressive	-3774
▁Jr	-3775
▁ri	-3776
▁eth	-3777
▁younger	-3778
▁multiple	-3779
onic	-3780
▁Sur	-3781
▁street	-3782
▁tradition	-3783
▁batt	-3784
▁sequ	-3785
▁Committee	-3786
▁eld	-3787
obile	-3788
▁Kenn	-3789
▁master	-3790
▁surface	-3791
▁software	-3792
▁activities	-3793
▁Mid	-3794
iano	-3795
▁annual	-3796
iance	-3797
▁shop	-3798
undred	-3799
▁product	-3800
▁Dev	-3801
▁consists	-3802
itted	-3803
▁Ty	-3804
wan	-3805
▁renamed	-3806
▁inn	-3807
▁talk	-3808
▁log	-3809
▁Ray	-3810
▁Show	-3811
occer	-3812
▁bene	-3813
▁bass	-3814
▁promoted	-3815
▁Corporation	-3816
▁premi	-3817
▁supported	-3818
▁Asia	-3819
ieutenant	-3820
▁Ele	-3821
gend	-3822
ully	-3823
▁Tri	-3824
▁install	-3825
▁society	-3826
▁webs	-3827
▁oil	-3828
▁ability	-3829
▁municip	-3830
▁Enter	-3831
mission	-3832
▁Blue	-3833
▁forest	-3834
▁1941	-3835
ograp	-3836
▁belong	-3837
▁mechan	-3838
oned	-3839
▁1957	-3840
cement	-3841
▁collabor	-3842
▁separate	-3843
▁Jac	-3844
BS	-3845
▁immediately	-3846
▁capac	-3847
▁Det	-3848
action	-3849
ador	-3850
▁arran	-3851
▁Os	-3852
▁cities	-3853
ronic	-3854
▁Sund	-3855
▁Railway	-3856
▁tournament	-3857
▁Theatre	-3858
FA	-3859
ube	-3860
▁los	-3861
▁Jeff	-3862
▁affili	-3863
▁purchased	-3864
ounded	-3865
enc	-3866
ously	-3867
▁operating	-3868
▁Sand	-3869
▁page	-3870
▁conver	-3871
▁estate	-3872
oura	-3873
illed	-3874
▁text	-3875
▁quarter	-3876
pan	-3877
▁lines	-3878
▁economic	-3879
▁Av	-3880
▁owner	-3881
▁Jackson	-3882
pre	-3883
ulf	-3884
▁Ok	-3885
aped	-3886
▁captain	-3887
▁1954	-3888
▁meeting	-3889
▁Bang	-3890
▁squad	-3891
aily	-3892
iced	-3893
gs	-3894
▁amb	-3895
▁Muslim	-3896
yer	-3897
pton	-3898
▁citiz	-3899
ental	-3900
illy	-3901
▁roles	-3902
▁Johnson	-3903
gers	-3904
▁Little	-3905
▁temper	-3906
▁stations	-3907
30	-3908
ellig	-3909
ali	-3910
▁produce	-3911
▁ult	-3912
▁fifth	-3913
▁forward	-3914
ctic	-3915
▁?	-3916
▁anal	-3917
oir	-3918
▁depend	-3919
▁online	-3920
▁1955	-3921
▁border	-3922
▁covered	-3923
▁wor	-3924
isation	-3925
▁Mem	-3926
▁prin	-3927
▁presented	-3928
▁goals	-3929
antry	-3930
▁typically	-3931
▁1952	-3932
▁Hung	-3933
▁Tenn	-3934
▁observ	-3935
▁scholar	-3936
▁1951	-3937
▁cases	-3938
▁Tem	-3939
▁dedicated	-3940
▁Love	-3941
▁directly	-3942
▁Manchester	-3943
▁III	-3944
▁domin	-3945
mir	-3946
▁discuss	-3947
▁attention	-3948
▁contact	-3949
▁Tam	-3950
▁begins	-3951
ims	-3952
cting	-3953
▁Kong	-3954
▁System	-3955
gely	-3956
▁hop	-3957
▁Engine	-3958
▁Ell	-3959
▁Minn	-3960
ato	-3961
▁offers	-3962
▁restaur	-3963
▁1953	-3964
▁Centre	-3965
▁Ly	-3966
ocated	-3967
▁thr	-3968
▁NFL	-3969
ledge	-3970
▁adult	-3971
▁rare	-3972
▁increasing	-3973
put	-3974
▁Sea	-3975
gar	-3976
▁Rou	-3977
▁1949	-3978
▁Social	-3979
nes	-3980
▁Coast	-3981
▁depart	-3982
▁electric	-3983
ero	-3984
▁gain	-3985
▁Bir	-3986
itude	-3987
ias	-3988
▁titled	-3989
▁planned	-3990
itation	-3991
▁controvers	-3992
▁Public	-3993
war	-3994
▁Williams	-3995
ione	-3996
▁baseball	-3997
▁Cambridge	-3998
known	-3999
▁couple	-4000
.2	-4001
▁feet	-4002
▁leaves	-4003
▁Education	-4004
▁Ev	-4005
▁Are	-4006
ansion	-4007
▁mention	-4008
▁distance	-4009
ips	-4010
allen	-4011
▁latter	-4012
▁influence	-4013
▁interview	-4014
▁overall	-4015
▁motor	-4016
▁carried	-4017
▁soldiers	-4018
ift	-4019
utions	-4020
▁suffered	-4021
▁Def	-4022
▁intended	-4023
▁Tour	-4024
cean	-4025
▁Cross	-4026
▁giving	-4027
▁removed	-4028
▁historical	-4029
chest	-4030
fort	-4031
▁additional	-4032
▁fell	-4033
▁Station	-4034
▁operation	-4035
▁1939	-4036
▁Assembly	-4037
▁Far	-4038
▁inte	-4039
▁Corn	-4040
▁languages	-4041
▁Alexander	-4042
king	-4043
rupt	-4044
grad	-4045
▁Rome	-4046
▁Univers	-4047
iro	-4048
▁CE	-4049
opher	-4050
ologist	-4051
▁Dan	-4052
▁flight	-4053
▁Later	-4054
▁newspaper	-4055
▁issue	-4056
▁figure	-4057
▁transferred	-4058
ela	-4059
rate	-4060
▁Manag	-4061
wa	-4062
▁£	-4063
▁assistant	-4064
▁Latin	-4065
▁Avenue	-4066
▁Senate	-4067
▁Hong	-4068
oud	-4069
▁Land	-4070
▁below	-4071
▁foreign	-4072
▁178	-4073
ilies	-4074
▁Ari	-4075
pose	-4076
▁Tod	-4077
▁green	-4078
▁victory	-4079
▁corn	-4080
▁continue	-4081
▁bad	-4082
▁fr	-4083
icine	-4084
▁candidate	-4085
ribution	-4086
▁peak	-4087
ashion	-4088
▁Bas	-4089
▁largely	-4090
▁Rh	-4091
▁Ott	-4092
lywood	-4093
▁35	-4094
▁asked	-4095
▁Hospital	-4096
▁escape	-4097
▁department	-4098
vention	-4099
▁stated	-4100
▁adopted	-4101
aded	-4102
astic	-4103
bre	-4104
▁Mount	-4105
▁Prime	-4106
▁museum	-4107
▁Dun	-4108
thing	-4109
ucky	-4110
▁expected	-4111
awa	-4112
▁70	-4113
emeter	-4114
▁confir	-4115
▁Network	-4116
friend	-4117
▁wa	-4118
▁rate	-4119
▁aband	-4120
▁display	-4121
iated	-4122
ees	-4123
▁Ca	-4124
▁nature	-4125
▁Swedish	-4126
▁executive	-4127
▁accepted	-4128
▁incorpor	-4129
▁Sn	-4130
▁estim	-4131
unction	-4132
▁90	-4133
uted	-4134
urer	-4135
▁sum	-4136
▁Good	-4137
▁appearances	-4138
▁here	-4139
▁powerful	-4140
▁color	-4141
▁smaller	-4142
▁Work	-4143
▁hundred	-4144
▁Research	-4145
▁fought	-4146
▁possess	-4147
▁Vol	-4148
▁kind	-4149
▁continues	-4150
▁share	-4151
▁settled	-4152
iring	-4153
▁Inf	-4154
▁Way	-4155
▁episodes	-4156
iga	-4157
▁probably	-4158
▁Cy	-4159
▁Team	-4160
▁buried	-4161
▁decla	-4162
▁Earl	-4163
▁arrested	-4164
▁enem	-4165
▁thous	-4166
▁dog	-4167
▁mixed	-4168
▁spl	-4169
▁alongside	-4170
▁journalist	-4171
▁Ken	-4172
▁Series	-4173
▁true	-4174
thur	-4175
▁arts	-4176
worth	-4177
▁Argent	-4178
▁gas	-4179
▁di	-4180
▁Book	-4181
▁Iran	-4182
▁Chris	-4183
▁Mu	-4184
▁Jean	-4185
cript	-4186
▁expla	-4187
▁edition	-4188
uled	-4189
agon	-4190
▁told	-4191
▁Ak	-4192
▁Fox	-4193
▁Joe	-4194
inated	-4195
ón	-4196
▁Prog	-4197
▁Card	-4198
plement	-4199
▁records	-4200
▁era	-4201
▁dark	-4202
▁charge	-4203
▁Bab	-4204
peror	-4205
▁simply	-4206
▁177	-4207
▁Daniel	-4208
▁feel	-4209
like	-4210
▁diss	-4211
▁heav	-4212
▁pit	-4213
ropol	-4214
▁contem	-4215
▁require	-4216
▁paper	-4217
▁physical	-4218
▁Est	-4219
ection	-4220
▁Premier	-4221
ca	-4222
bec	-4223
▁cle	-4224
▁search	-4225
inem	-4226
▁Jes	-4227
▁Brad	-4228
emetery	-4229
▁Duke	-4230
▁Santa	-4231
▁card	-4232
▁Women	-4233
▁People	-4234
▁tracks	-4235
aters	-4236
▁shortly	-4237
▁Secretary	-4238
▁So	-4239
▁Top	-4240
▁percent	-4241
▁brothers	-4242
bed	-4243
▁stories	-4244
▁speak	-4245
▁decision	-4246
lab	-4247
▁ang	-4248
▁drama	-4249
stone	-4250
▁agent	-4251
ighter	-4252
▁Hon	-4253
▁musician	-4254
▁gives	-4255
▁academic	-4256
▁capacity	-4257
▁tried	-4258
▁recognized	-4259
▁numbers	-4260
▁Head	-4261
lyn	-4262
▁chap	-4263
▁whole	-4264
▁Ve	-4265
▁Wel	-4266
▁matches	-4267
isions	-4268
▁Master	-4269
▁perman	-4270
▁cam	-4271
▁Minnes	-4272
▁wrest	-4273
▁treatment	-4274
ffic	-4275
▁tank	-4276
joy	-4277
mas	-4278
▁Captain	-4279
▁Jon	-4280
▁Open	-4281
▁idea	-4282
▁Die	-4283
▁Mike	-4284
▁subs	-4285
▁recover	-4286
▁serious	-4287
▁Gen	-4288
▁Van	-4289
ounds	-4290
▁medal	-4291
▁reach	-4292
▁Out	-4293
▁Pen	-4294
▁holds	-4295
▁likely	-4296
▁results	-4297
▁Minnesota	-4298
▁performing	-4299
▁policy	-4300
▁conditions	-4301
ns	-4302
ophy	-4303
▁cab	-4304
ensus	-4305
▁BC	-4306
▁Airport	-4307
▁Sol	-4308
▁coming	-4309
ora	-4310
▁Rog	-4311
▁rule	-4312
weight	-4313
▁graduate	-4314
▁CD	-4315
▁digital	-4316
▁Bul	-4317
▁fast	-4318
▁Queens	-4319
▁Represent	-4320
▁albums	-4321
▁Mexican	-4322
▁proposed	-4323
▁reason	-4324
▁unknown	-4325
▁nuc	-4326
▁Tro	-4327
inals	-4328
▁Corps	-4329
▁Stephen	-4330
inity	-4331
▁sevent	-4332
▁counter	-4333
▁returning	-4334
▁ly	-4335
▁500	-4336
▁Lim	-4337
▁partn	-4338
▁Polish	-4339
▁format	-4340
▁Rod	-4341
▁Brig	-4342
▁cultural	-4343
ailed	-4344
▁winner	-4345
ographer	-4346
▁security	-4347
▁herself	-4348
▁portray	-4349
wick	-4350
▁confl	-4351
▁might	-4352
isk	-4353
▁ships	-4354
▁resulting	-4355
▁pan	-4356
▁fict	-4357
▁families	-4358
▁Melbourne	-4359
ails	-4360
ried	-4361
▁theatre	-4362
▁resident	-4363
▁completely	-4364
▁honor	-4365
▁Water	-4366
▁Foundation	-4367
▁worldwide	-4368
▁Turk	-4369
▁increase	-4370
▁Ul	-4371
▁slow	-4372
▁Conference	-4373
▁symb	-4374
onse	-4375
▁descend	-4376
ancy	-4377
▁Khan	-4378
▁Sher	-4379
add	-4380
stant	-4381
▁Az	-4382
▁don	-4383
▁Bridge	-4384
rong	-4385
▁pack	-4386
ricket	-4387
▁claims	-4388
▁killing	-4389
gu	-4390
▁Bern	-4391
▁twenty	-4392
▁sport	-4393
standing	-4394
▁competed	-4395
▁hol	-4396
ouri	-4397
▁Over	-4398
▁behav	-4399
nce	-4400
▁doctor	-4401
▁branch	-4402
▁levels	-4403
▁historic	-4404
▁Revolution	-4405
nds	-4406
hemat	-4407
▁1938	-4408
ila	-4409
▁fighting	-4410
▁36	-4411
▁Men	-4412
rical	-4413
▁twice	-4414
▁allows	-4415
▁Ver	-4416
▁spread	-4417
▁selling	-4418
▁teaching	-4419
▁ver	-4420
▁Castle	-4421
▁Naz	-4422
▁Tay	-4423
▁gets	-4424
▁hosted	-4425
▁initial	-4426
▁Baron	-4427
▁beaut	-4428
▁attacks	-4429
▁growing	-4430
▁bound	-4431
▁floor	-4432
▁Fam	-4433
▁score	-4434
▁Orig	-4435
▁blue	-4436
▁Lew	-4437
ctors	-4438
nding	-4439
▁cars	-4440
▁Berlin	-4441
▁unique	-4442
▁Baseball	-4443
▁hands	-4444
▁double	-4445
▁Arm	-4446
▁Sub	-4447
▁partner	-4448
▁pressure	-4449
aka	-4450
ributed	-4451
▁guitarist	-4452
▁clubs	-4453
istered	-4454
▁bought	-4455
▁Uk	-4456
rative	-4457
▁horse	-4458
iat	-4459
▁Hor	-4460
▁Anton	-4461
▁Games	-4462
▁Awards	-4463
▁attempts	-4464
▁Mir	-4465
▁Their	-4466
range	-4467
▁Viet	-4468
▁Beach	-4469
win	-4470
▁MP	-4471
▁attacked	-4472
▁inhab	-4473
▁offer	-4474
▁legisl	-4475
▁effects	-4476
▁quality	-4477
▁Da	-4478
▁trained	-4479
▁extended	-4480
▁dia	-4481
▁causing	-4482
▁officers	-4483
antly	-4484
▁damage	-4485
▁songwriter	-4486
▁rob	-4487
rence	-4488
▁Di	-4489
▁Wild	-4490
▁trial	-4491
▁providing	-4492
ibly	-4493
▁Highway	-4494
▁needed	-4495
▁website	-4496
pool	-4497
▁Bol	-4498
▁pilot	-4499
▁ath	-4500
▁girls	-4501
ny	-4502
▁Harris	-4503
▁conserv	-4504
▁resulted	-4505
rast	-4506
▁ess	-4507
▁extra	-4508
▁overs	-4509
▁sens	-4510
▁custom	-4511
▁problem	-4512
▁elements	-4513
▁Hal	-4514
ropical	-4515
▁article	-4516
▁cart	-4517
▁champion	-4518
imum	-4519
achelor	-4520
portun	-4521
II	-4522
uate	-4523
yal	-4524
▁Moh	-4525
urban	-4526
▁Anth	-4527
edia	-4528
unte	-4529
▁Offic	-4530
▁enjoy	-4531
▁comedy	-4532
▁allowing	-4533
▁founding	-4534
aya	-4535
▁Mas	-4536
▁burn	-4537
▁kept	-4538
▁tries	-4539
▁chain	-4540
▁hotel	-4541
▁concent	-4542
nam	-4543
▁Ur	-4544
iser	-4545
▁sales	-4546
▁instrument	-4547
▁Nick	-4548
▁Villa	-4549
▁wealth	-4550
▁Channel	-4551
itness	-4552
▁Sus	-4553
▁pict	-4554
▁bird	-4555
▁content	-4556
can	-4557
orney	-4558
▁Pit	-4559
▁Sweden	-4560
fielder	-4561
▁council	-4562
▁Fair	-4563
▁lear	-4564
vement	-4565
▁frequently	-4566
▁representing	-4567
itage	-4568
phy	-4569
▁hour	-4570
▁ut	-4571
▁disease	-4572
uan	-4573
▁Color	-4574
▁Despite	-4575
▁growth	-4576
▁fashion	-4577
▁regional	-4578
▁Nether	-4579
▁participated	-4580
ening	-4581
rugg	-4582
▁succeeded	-4583
▁fictional	-4584
eather	-4585
aling	-4586
▁path	-4587
▁retire	-4588
▁engineering	-4589
inks	-4590
▁beat	-4591
▁ordered	-4592
▁industrial	-4593
▁Der	-4594
orter	-4595
ja	-4596
▁coin	-4597
▁streng	-4598
10	-4599
▁unc	-4600
▁residents	-4601
▁stone	-4602
▁Hun	-4603
velopment	-4604
▁inspired	-4605
▁scheduled	-4606
▁mic	-4607
▁Arthur	-4608
▁organiz	-4609
MS	-4610
resp	-4611
vard	-4612
▁bott	-4613
▁categ	-4614
▁vote	-4615
▁lyric	-4616
▁stars	-4617
gal	-4618
▁pun	-4619
▁sons	-4620
▁Bishop	-4621
▁headquarters	-4622
▁et	-4623
▁direction	-4624
▁32	-4625
ishes	-4626
▁attra	-4627
▁Girl	-4628
▁Field	-4629
▁aired	-4630
▁necess	-4631
▁response	-4632
▁wild	-4633
▁sexual	-4634
▁Olympic	-4635
inking	-4636
▁Colon	-4637
▁surrounding	-4638
▁Life	-4639
▁upper	-4640
▁opportun	-4641
▁1937	-4642
cul	-4643
essee	-4644
ira	-4645
▁Ker	-4646
▁projects	-4647
▁secondary	-4648
hy	-4649
ysis	-4650
▁dyn	-4651
▁earth	-4652
olved	-4653
▁Bell	-4654
roll	-4655
▁kil	-4656
▁types	-4657
▁neighborhood	-4658
AF	-4659
mad	-4660
▁broke	-4661
▁Ath	-4662
▁prep	-4663
▁target	-4664
▁unable	-4665
▁stra	-4666
▁Ah	-4667
▁exam	-4668
ko	-4669
▁Police	-4670
▁creating	-4671
▁Tennessee	-4672
iter	-4673
▁begin	-4674
▁demand	-4675
▁spirit	-4676
▁fans	-4677
▁parish	-4678
ading	-4679
▁resist	-4680
yes	-4681
▁withd	-4682
▁Budd	-4683
▁suit	-4684
40	-4685
▁Lo	-4686
more	-4687
▁Ira	-4688
▁Steve	-4689
ilton	-4690
▁Cub	-4691
▁regarded	-4692
down	-4693
▁reform	-4694
▁condition	-4695
fect	-4696
ée	-4697
▁Pu	-4698
▁Band	-4699
▁Conf	-4700
▁concert	-4701
▁hun	-4702
▁Ob	-4703
▁ven	-4704
mouth	-4705
▁Korean	-4706
▁Times	-4707
▁fully	-4708
▁advert	-4709
urg	-4710
▁Sant	-4711
▁resc	-4712
▁Ba	-4713
uses	-4714
▁strugg	-4715
▁declared	-4716
▁Ta	-4717
▁Bat	-4718
stein	-4719
▁favor	-4720
▁starred	-4721
▁distinct	-4722
▁FM	-4723
▁Greg	-4724
jected	-4725
▁bul	-4726
▁1936	-4727
▁split	-4728
▁question	-4729
▁Song	-4730
▁Wilson	-4731
▁Id	-4732
▁hyd	-4733
AC	-4734
▁pal	-4735
▁Atlantic	-4736
▁organized	-4737
▁fa	-4738
resh	-4739
▁Oak	-4740
▁decl	-4741
▁places	-4742
▁Serb	-4743
▁composer	-4744
omm	-4745
rane	-4746
▁animals	-4747
▁leadership	-4748
▁WW	-4749
▁extrem	-4750
▁machine	-4751
vis	-4752
▁Post	-4753
rance	-4754
▁mess	-4755
▁Technology	-4756
▁experiment	-4757
hens	-4758
▁cerem	-4759
▁facility	-4760
inger	-4761
perial	-4762
eman	-4763
▁basis	-4764
▁sle	-4765
icate	-4766
ropolitan	-4767
▁morning	-4768
▁Kel	-4769
osen	-4770
▁hero	-4771
▁tele	-4772
▁knowledge	-4773
han	-4774
▁Alb	-4775
▁union	-4776
▁Tal	-4777
▁peace	-4778
▁words	-4779
aret	-4780
▁FI	-4781
▁More	-4782
▁cancer	-4783
▁square	-4784
light	-4785
oln	-4786
▁Barb	-4787
▁Tony	-4788
▁Office	-4789
ennis	-4790
▁Chap	-4791
▁That	-4792
▁Kansas	-4793
▁mut	-4794
▁laws	-4795
▁potential	-4796
ption	-4797
▁repe	-4798
▁consum	-4799
▁says	-4800
▁flag	-4801
▁prec	-4802
▁Championships	-4803
.3	-4804
onent	-4805
oration	-4806
▁trains	-4807
iy	-4808
secut	-4809
▁liber	-4810
▁Som	-4811
▁Poland	-4812
▁Missouri	-4813
▁nominated	-4814
▁Ep	-4815
▁principal	-4816
▁agricult	-4817
▁occurred	-4818
aging	-4819
▁Four	-4820
▁expanded	-4821
▁onto	-4822
▁thir	-4823
▁Harry	-4824
▁Ven	-4825
ulpt	-4826
▁Alf	-4827
▁Member	-4828
▁sources	-4829
ella	-4830
nic	-4831
▁facilities	-4832
▁History	-4833
▁joining	-4834
▁code	-4835
▁spons	-4836
▁whether	-4837
▁governor	-4838
itzer	-4839
▁Lady	-4840
▁scale	-4841
▁refused	-4842
AR	-4843
▁1918	-4844
▁crime	-4845
apers	-4846
▁Linc	-4847
▁Conne	-4848
▁issued	-4849
▁transform	-4850
▁Jam	-4851
▁politics	-4852
asty	-4853
regon	-4854
▁Netherlands	-4855
▁Indiana	-4856
▁Elect	-4857
▁critical	-4858
▁guard	-4859
mentary	-4860
▁Harvard	-4861
▁loan	-4862
▁equipment	-4863
▁Light	-4864
▁legend	-4865
uts	-4866
enger	-4867
▁Night	-4868
▁bands	-4869
▁piece	-4870
ownt	-4871
edom	-4872
▁Ra	-4873
▁spring	-4874
umber	-4875
▁1935	-4876
▁tree	-4877
▁Health	-4878
▁300	-4879
▁Maria	-4880
▁Ger	-4881
▁Les	-4882
▁god	-4883
▁income	-4884
▁attempted	-4885
▁ends	-4886
▁Justice	-4887
clus	-4888
▁letter	-4889
ader	-4890
▁Taylor	-4891
▁converted	-4892
▁divor	-4893
▁Oregon	-4894
▁singing	-4895
wich	-4896
▁causes	-4897
▁drive	-4898
▁opera	-4899
▁apparent	-4900
▁Philippines	-4901
▁If	-4902
▁value	-4903
▁Americans	-4904
▁1933	-4905
▁lies	-4906
▁nick	-4907
▁territory	-4908
▁tall	-4909
▁articles	-4910
▁semi	-4911
▁notably	-4912
▁contemporary	-4913
▁Dor	-4914
▁Nap	-4915
▁ring	-4916
▁gar	-4917
▁purpose	-4918
▁mind	-4919
▁spot	-4920
ederation	-4921
▁demonst	-4922
▁connected	-4923
iate	-4924
▁Lar	-4925
▁Bla	-4926
ev	-4927
eller	-4928
▁Forest	-4929
elligence	-4930
▁occasion	-4931
▁starring	-4932
ech	-4933
real	-4934
▁mill	-4935
▁Common	-4936
▁titles	-4937
▁learning	-4938
zy	-4939
▁Pers	-4940
▁scen	-4941
▁granted	-4942
▁achieved	-4943
fted	-4944
▁labor	-4945
▁conducted	-4946
▁literature	-4947
▁Niger	-4948
▁Lincoln	-4949
▁Colorado	-4950
▁individuals	-4951
▁Balt	-4952
▁Marc	-4953
ensed	-4954
▁rapid	-4955
abb	-4956
▁seem	-4957
▁Business	-4958
▁ple	-4959
▁relatively	-4960
lace	-4961
icide	-4962
▁1914	-4963
▁resour	-4964
▁Marg	-4965
▁consisting	-4966
▁45	-4967
roit	-4968
▁Game	-4969
▁flat	-4970
▁refers	-4971
▁Hou	-4972
▁stock	-4973
▁protect	-4974
▁wall	-4975
▁classes	-4976
rich	-4977
▁Brother	-4978
▁receive	-4979
▁Child	-4980
▁newly	-4981
▁weight	-4982
▁sixth	-4983
▁storm	-4984
▁estimated	-4985
sey	-4986
▁Creek	-4987
▁Mun	-4988
▁airport	-4989
▁starts	-4990
▁Hollywood	-4991
▁bal	-4992
▁Gall	-4993
▁critics	-4994
rog	-4995
lers	-4996
▁alternative	-4997
▁Kir	-4998
▁NHL	-4999
▁Stock	-5000
▁Islands	-5001
pass	-5002
▁Korea	-5003
▁Intern	-5004
▁door	-5005
▁guest	-5006
respond	-5007
▁Hay	-5008
igrated	-5009
▁Fire	-5010
▁Maryland	-5011
▁bit	-5012
▁Iraq	-5013
▁Doctor	-5014
▁presence	-5015
▁1934	-5016
▁drum	-5017
▁Dam	-5018
▁singles	-5019
▁Kentucky	-5020
▁losing	-5021
▁painting	-5022
uls	-5023
play	-5024
ighth	-5025
hedral	-5026
▁Route	-5027
▁towns	-5028
▁injury	-5029
aven	-5030
▁Abb	-5031
▁1900	-5032
▁1919	-5033
▁Home	-5034
▁producing	-5035
▁dropped	-5036
▁Pop	-5037
itled	-5038
▁Ford	-5039
▁coal	-5040
▁chairman	-5041
apore	-5042
▁launch	-5043
▁versions	-5044
▁generation	-5045
▁1917	-5046
▁abandoned	-5047
ipe	-5048
▁pet	-5049
▁magn	-5050
.7	-5051
wh	-5052
▁dim	-5053
▁Golden	-5054
▁ending	-5055
▁temple	-5056
ables	-5057
istics	-5058
▁Special	-5059
▁van	-5060
▁Francis	-5061
▁confirmed	-5062
▁Rang	-5063
▁Time	-5064
▁obtained	-5065
▁assigned	-5066
▁crim	-5067
▁Labour	-5068
▁models	-5069
▁trying	-5070
▁positive	-5071
idi	-5072
▁divided	-5073
▁scientific	-5074
▁lot	-5075
▁things	-5076
▁Entertainment	-5077
ivity	-5078
▁creation	-5079
▁Ut	-5080
▁efforts	-5081
▁Vice	-5082
▁alone	-5083
▁cells	-5084
▁Detroit	-5085
▁Independ	-5086
▁Singapore	-5087
▁royal	-5088
▁suppl	-5089
▁rat	-5090
▁nort	-5091
▁Stadium	-5092
▁Wat	-5093
erick	-5094
▁elections	-5095
▁NBA	-5096
▁traffic	-5097
▁activity	-5098
itche	-5099
▁roll	-5100
▁sculpt	-5101
▁holding	-5102
▁Mississ	-5103
▁settlement	-5104
▁Development	-5105
▁fair	-5106
.0	-5107
▁Mov	-5108
▁hall	-5109
▁powers	-5110
▁commander	-5111
▁fish	-5112
akh	-5113
time	-5114
▁vac	-5115
▁iron	-5116
▁paint	-5117
▁column	-5118
ublin	-5119
▁mentioned	-5120
▁Lind	-5121
▁receiving	-5122
ogue	-5123
▁try	-5124
RA	-5125
kes	-5126
▁applied	-5127
boy	-5128
elve	-5129
▁Ast	-5130
▁boys	-5131
▁Of	-5132
▁elev	-5133
▁Marsh	-5134
▁mom	-5135
▁1929	-5136
▁festival	-5137
▁something	-5138
sen	-5139
▁Sports	-5140
▁chosen	-5141
olis	-5142
▁workers	-5143
▁fix	-5144
▁Louisiana	-5145
▁normal	-5146
ji	-5147
▁Att	-5148
▁glass	-5149
▁reserv	-5150
▁silver	-5151
▁influenced	-5152
inson	-5153
▁youngest	-5154
SA	-5155
▁communities	-5156
▁hair	-5157
rat	-5158
ima	-5159
ears	-5160
uese	-5161
press	-5162
▁Ross	-5163
▁vehicle	-5164
▁rules	-5165
▁briefly	-5166
▁request	-5167
iami	-5168
athan	-5169
letic	-5170
▁combat	-5171
▁Another	-5172
uns	-5173
▁Po	-5174
▁Bru	-5175
▁pione	-5176
▁stores	-5177
ulty	-5178
▁theme	-5179
▁Indust	-5180
▁global	-5181
father	-5182
ilding	-5183
▁doing	-5184
▁intro	-5185
▁urban	-5186
▁performances	-5187
▁Int	-5188
▁memory	-5189
▁plants	-5190
19	-5191
▁ast	-5192
▁Leon	-5193
▁dial	-5194
▁saying	-5195
▁reduced	-5196
▁reviews	-5197
ava	-5198
▁paid	-5199
▁Davis	-5200
▁Norwe	-5201
▁multi	-5202
chestra	-5203
▁Cop	-5204
▁bow	-5205
▁prof	-5206
▁Federal	-5207
▁administration	-5208
▁believe	-5209
onsin	-5210
▁tower	-5211
▁AM	-5212
▁spok	-5213
▁Disney	-5214
▁Historic	-5215
▁ir	-5216
▁copies	-5217
▁Miami	-5218
▁End	-5219
▁lake	-5220
▁teen	-5221
▁Brian	-5222
▁aim	-5223
▁midfielder	-5224
▁hab	-5225
▁Wisc	-5226
▁graph	-5227
owntown	-5228
▁Philip	-5229
▁Spring	-5230
▁trav	-5231
▁grade	-5232
▁programming	-5233
▁Han	-5234
▁1928	-5235
aska	-5236
▁comic	-5237
▁billion	-5238
▁Patrick	-5239
water	-5240
▁exclus	-5241
▁slight	-5242
rees	-5243
room	-5244
amber	-5245
▁stadium	-5246
▁Wisconsin	-5247
▁image	-5248
▁Fe	-5249
onia	-5250
▁mayor	-5251
▁racing	-5252
▁cert	-5253
▁agreed	-5254
▁Asian	-5255
▁Medical	-5256
▁Portuguese	-5257
amin	-5258
▁greater	-5259
▁Anthony	-5260
rim	-5261
▁integ	-5262
▁pra	-5263
▁Dublin	-5264
oty	-5265
odies	-5266
▁Pier	-5267
onents	-5268
zz	-5269
▁script	-5270
▁returns	-5271
aces	-5272
ilst	-5273
zona	-5274
▁Other	-5275
iny	-5276
▁1910	-5277
▁supply	-5278
▁nob	-5279
▁Anne	-5280
▁Gree	-5281
▁sess	-5282
▁joint	-5283
▁advanced	-5284
pur	-5285
▁Jane	-5286
omot	-5287
▁getting	-5288
▁constitu	-5289
▁graduating	-5290
ateur	-5291
▁1932	-5292
▁rival	-5293
▁Fle	-5294
ender	-5295
▁soccer	-5296
▁scoring	-5297
estic	-5298
▁Christmas	-5299
▁DV	-5300
▁Lewis	-5301
duce	-5302
▁gang	-5303
▁needs	-5304
▁Diego	-5305
▁Guard	-5306
▁correspond	-5307
▁176	-5308
▁Media	-5309
▁Pun	-5310
▁rural	-5311
FC	-5312
met	-5313
▁users	-5314
▁Turkish	-5315
▁visited	-5316
▁Norwegian	-5317
▁flow	-5318
▁Howard	-5319
▁Arizona	-5320
kin	-5321
▁ce	-5322
vest	-5323
▁implement	-5324
▁containing	-5325
ruit	-5326
▁Alab	-5327
▁Prin	-5328
▁dipl	-5329
▁offices	-5330
▁approach	-5331
▁occupied	-5332
▁architecture	-5333
otic	-5334
▁combined	-5335
▁engineer	-5336
▁brain	-5337
bo	-5338
▁cho	-5339
▁1927	-5340
▁continu	-5341
▁fer	-5342
▁elim	-5343
▁Three	-5344
▁impr	-5345
▁survived	-5346
oted	-5347
▁dism	-5348
▁judge	-5349
▁consult	-5350
▁childhood	-5351
iful	-5352
born	-5353
enna	-5354
▁Rel	-5355
ić	-5356
keep	-5357
▁1924	-5358
▁Order	-5359
heim	-5360
▁Kim	-5361
▁Aff	-5362
▁Alber	-5363
▁nickn	-5364
▁impact	-5365
▁Mississipp	-5366
anth	-5367
▁Ali	-5368
▁Coll	-5369
▁murd	-5370
anna	-5371
▁mis	-5372
▁Hart	-5373
▁extensive	-5374
una	-5375
▁leaders	-5376
▁Kat	-5377
▁junior	-5378
▁1922	-5379
▁aged	-5380
▁daily	-5381
▁Eric	-5382
IA	-5383
▁driver	-5384
▁extremely	-5385
▁alle	-5386
▁rot	-5387
▁winter	-5388
▁Lieutenant	-5389
appe	-5390
▁Bad	-5391
▁Houston	-5392
▁ultimately	-5393
▁pup	-5394
▁mist	-5395
▁humans	-5396
ampions	-5397
▁parliament	-5398
▁ox	-5399
▁bra	-5400
▁1921	-5401
▁1931	-5402
ito	-5403
▁govern	-5404
▁metres	-5405
▁awards	-5406
▁showed	-5407
▁Liver	-5408
▁doll	-5409
▁vent	-5410
▁Hur	-5411
▁1916	-5412
▁Like	-5413
▁Power	-5414
▁Command	-5415
ef	-5416
osis	-5417
▁CEO	-5418
▁want	-5419
▁Clark	-5420
▁Before	-5421
▁centuries	-5422
▁classical	-5423
lahoma	-5424
▁Alabama	-5425
▁SS	-5426
▁kid	-5427
▁lov	-5428
▁touch	-5429
iner	-5430
▁watch	-5431
▁biggest	-5432
stitution	-5433
▁Press	-5434
▁1915	-5435
▁1926	-5436
▁device	-5437
.6	-5438
▁EP	-5439
▁painter	-5440
▁setting	-5441
▁conflict	-5442
▁Bor	-5443
▁rang	-5444
▁Colle	-5445
▁Connectic	-5446
▁successfully	-5447
ads	-5448
▁opp	-5449
▁user	-5450
▁meets	-5451
▁positions	-5452
aug	-5453
▁Montreal	-5454
▁von	-5455
▁table	-5456
▁Province	-5457
▁Connecticut	-5458
▁+	-5459
andy	-5460
▁Ball	-5461
outheast	-5462
▁background	-5463
▁virt	-5464
▁Oklahoma	-5465
▁Tai	-5466
▁developing	-5467
▁tend	-5468
uccess	-5469
▁falls	-5470
▁chemical	-5471
▁association	-5472
▁lawyer	-5473
▁mor	-5474
▁Form	-5475
▁acts	-5476
▁som	-5477
pects	-5478
ancing	-5479
▁franch	-5480
▁lyrics	-5481
▁fiction	-5482
▁mathemat	-5483
roke	-5484
▁flu	-5485
▁calls	-5486
▁Junior	-5487
▁150	-5488
▁Sri	-5489
▁Tar	-5490
▁Test	-5491
▁Econom	-5492
▁felt	-5493
▁swim	-5494
▁Cemetery	-5495
▁Cape	-5496
▁Albert	-5497
▁simple	-5498
▁folk	-5499
▁Domin	-5500
▁turns	-5501
▁portion	-5502
▁Mississippi	-5503
akers	-5504
iques	-5505
▁vess	-5506
▁Gram	-5507
▁Malays	-5508
▁encoura	-5509
▁jazz	-5510
.9	-5511
▁Sab	-5512
▁Supreme	-5513
▁weapons	-5514
▁compared	-5515
▁identified	-5516
▁commissioned	-5517
▁Ron	-5518
▁alt	-5519
▁cas	-5520
▁cong	-5521
▁volunte	-5522
asy	-5523
▁animal	-5524
▁permanent	-5525
▁1925	-5526
▁Vi	-5527
alion	-5528
ulations	-5529
▁bab	-5530
▁dang	-5531
▁Origin	-5532
▁1923	-5533
▁prepar	-5534
haps	-5535
zech	-5536
coming	-5537
▁descent	-5538
▁Bah	-5539
▁meant	-5540
▁authorities	-5541
ager	-5542
▁designated	-5543
▁Tel	-5544
sex	-5545
▁Sav	-5546
inder	-5547
▁reports	-5548
nel	-5549
▁piano	-5550
▁Rom	-5551
▁pow	-5552
▁sym	-5553
▁Free	-5554
▁Gord	-5555
▁incident	-5556
▁arms	-5557
▁sets	-5558
▁write	-5559
▁library	-5560
▁parties	-5561
▁Cas	-5562
▁Czech	-5563
▁retirement	-5564
pet	-5565
▁heavily	-5566
▁Area	-5567
▁save	-5568
▁AD	-5569
itors	-5570
▁sides	-5571
▁Also	-5572
▁decades	-5573
▁Cra	-5574
▁rom	-5575
▁Sunday	-5576
▁pattern	-5577
alle	-5578
hat	-5579
▁Quebec	-5580
idden	-5581
▁Hamilton	-5582
ikh	-5583
ushed	-5584
▁fuel	-5585
▁pair	-5586
▁Liverpool	-5587
.8	-5588
ifying	-5589
▁immigr	-5590
▁address	-5591
▁Both	-5592
▁Drag	-5593
bell	-5594
▁merch	-5595
mingham	-5596
▁Temple	-5597
MA	-5598
erto	-5599
▁Gre	-5600
iable	-5601
▁Walter	-5602
▁distingu	-5603
ses	-5604
oured	-5605
▁seats	-5606
gas	-5607
▁Today	-5608
▁quite	-5609
omy	-5610
▁illust	-5611
▁Regiment	-5612
.4	-5613
▁kilomet	-5614
▁Community	-5615
ooth	-5616
▁fields	-5617
▁orders	-5618
▁Rose	-5619
▁Micro	-5620
▁castle	-5621
,5	-5622
IS	-5623
eral	-5624
olished	-5625
▁deliver	-5626
▁regions	-5627
▁proceed	-5628
▁33	-5629
▁seg	-5630
▁Wars	-5631
▁greatest	-5632
ez	-5633
rect	-5634
rowd	-5635
▁max	-5636
isa	-5637
aved	-5638
▁Jay	-5639
veland	-5640
▁minute	-5641
▁Country	-5642
ba	-5643
▁fat	-5644
iling	-5645
▁Seat	-5646
▁covers	-5647
▁existing	-5648
▁AC	-5649
▁bed	-5650
▁vehicles	-5651
▁controlled	-5652
mod	-5653
ghan	-5654
▁Dall	-5655
▁rough	-5656
▁appearing	-5657
▁Birmingham	-5658
án	-5659
▁Tok	-5660
ryst	-5661
▁Holy	-5662
engers	-5663
▁Dougl	-5664
▁valley	-5665
inth	-5666
▁Hills	-5667
▁reign	-5668
dale	-5669
cow	-5670
▁Jess	-5671
▁hired	-5672
▁formation	-5673
▁household	-5674
▁situation	-5675
apes	-5676
imal	-5677
▁1912	-5678
▁Simon	-5679
▁entitled	-5680
▁operates	-5681
▁extend	-5682
▁Liberal	-5683
▁studying	-5684
▁heard	-5685
▁occas	-5686
▁nuclear	-5687
▁electronic	-5688
▁Jord	-5689
▁height	-5690
▁Cleveland	-5691
▁avoid	-5692
yo	-5693
pson	-5694
▁Family	-5695
▁preserv	-5696
alty	-5697
▁Stand	-5698
▁seems	-5699
▁audience	-5700
▁Sem	-5701
▁engaged	-5702
▁standing	-5703
osed	-5704
▁authority	-5705
osh	-5706
▁incorporated	-5707
▁rich	-5708
▁Basketball	-5709
▁specifically	-5710
▁Circ	-5711
▁twelve	-5712
▁Emperor	-5713
▁looking	-5714
▁Kal	-5715
▁skills	-5716
▁factory	-5717
▁restaurant	-5718
▁supporting	-5719
▁Representatives	-5720
AT	-5721
lan	-5722
▁Fa	-5723
uther	-5724
▁basic	-5725
▁injured	-5726
▁effective	-5727
▁Ho	-5728
▁Su	-5729
idge	-5730
▁steel	-5731
▁Military	-5732
▁possibly	-5733
mes	-5734
▁organizations	-5735
▁34	-5736
▁75	-5737
▁DVD	-5738
▁Web	-5739
▁Whit	-5740
pedition	-5741
▁Lt	-5742
▁lect	-5743
▁views	-5744
coh	-5745
▁Puerto	-5746
rig	-5747
anning	-5748
▁ancest	-5749
▁Nich	-5750
▁Welsh	-5751
▁defensive	-5752
encies	-5753
▁defin	-5754
▁enemy	-5755
▁Program	-5756
bro	-5757
oles	-5758
▁challen	-5759
onym	-5760
▁400	-5761
ivals	-5762
▁..	-5763
▁...	-5764
▁	-5765
e	-5766
a	-5767
t	-5768
n	-5769
i	-5770
o	-5771
r	-5772
s	-5773
h	-5774
l	-5775
d	-5776
c	-5777
u	-5778
m	-5779
f	-5780
g	-5781
p	-5782
w	-5783
y	-5784
b	-5785
,	-5786
v	-5787
.	-5788
k	-5789
1	-5790
S	-5791
A	-5792
C	-5793
0	-5794
T	-5795
9	-5796
M	-5797
2	-5798
B	-5799
-	-5800
P	-5801
I	-5802
H	-5803
D	-5804
R	-5805
L	-5806
F	-5807
N	-5808
x	-5809
8	-5810
G	-5811
(	-5812
)	-5813
W	-5814
E	-5815
J	-5816
5	-5817
7	-5818
3	-5819
6	-5820
4	-5821
O	-5822
z	-5823
K	-5824
U	-5825
j	-5826
q	-5827
V	-5828
;	-5829
Y	-5830
Z	-5831
:	-5832
Q	-5833
/	-5834
é	-5835
X	-5836
&	-5837
%	-5838
$	-5839
á	-5840
í	-5841
ó	-5842
!	-5843
ü	-5844
ö	-5845
?	-5846
£	-5847
ä	-5848
è	-5849
ć	-5850
ō	-5851
\	-5852
+	-5853
ç	-5854
ñ	-5855
ā	-5856
ø	-5857
š	-5858
а	-5859
ú	-5860
ã	-5861
°	-5862
É	-5863
о	-5864
и	-5865
ł	-5866
ا	-5867
č	-5868
â	-5869
ë	-5870
ş	-5871
е	-5872
å	-5873
р	-5874
ô	-5875
ū	-5876
’	-5877
н	-5878
à	-5879
ı	-5880
в	-5881
α	-5882
ل	-5883
ă	-5884
л	-5885
م	-5886
к	-5887
с	-5888
ž	-5889
ī	-5890
ر	-5891
æ	-5892
ن	-5893
_	-5894
т	-5895
ń	-5896
ο	-5897
Á	-5898
ê	-5899
ي	-5900
€	-5901
و	-5902
⁄	-5903
ß	-5904
ा	-5905
د	-5906
ï	-5907
Š	-5908
ð	-5909
Ö	-5910
ς	-5911
×	-5912
́	-5913
д	-5914
ب	-5915
ρ	-5916
ğ	-5917
~	-5918
र	-5919
−	-5920
μ	-5921
ν	-5922
ی	-5923
ι	-5924
س	-5925
्	-5926
`	-5927
м	-5928
ε	-5929
у	-5930
ř	-5931
ý	-5932
τ	-5933
Č	-5934
ع	-5935
î	-5936
β	-5937
ح	-5938
ч	-5939
^	-5940
Ó	-5941
ș	-5942
λ	-5943
σ	-5944
İ	-5945
Ž	-5946
κ	-5947
ò	-5948
Đ	-5949
ě	-5950
ś	-5951
й	-5952
Å	-5953
י	-5954
ि	-5955
ē	-5956
ت	-5957
ę	-5958
ţ	-5959
đ	-5960
γ	-5961
®	-5962
η	-5963
ه	-5964
π	-5965
ì	-5966
г	-5967
@	-5968
п	-5969
ी	-5970
С	-5971
б	-5972
क	-5973
न	-5974
ו	-5975
ج	-5976
я	-5977
ћ	-5978
ف	-5979
Ł	-5980
ة	-5981
म	-5982
ר	-5983
ą	-5984
М	-5985
்	-5986
Æ	-5987
ù	-5988
ė	-5989
û	-5990
Ō	-5991
ल	-5992
Ç	-5993
ά	-5994
ő	-5995
ʻ	-5996
大	-5997
А	-5998
ь	-5999
া	-6000
υ	-6001
Ş	-6002
Б	-6003
К	-6004
ش	-6005
า	-6006
ż	-6007
ə	-6008
П	-6009
õ	-6010
ร	-6011
व	-6012
Ø	-6013
ί	-6014
В	-6015
δ	-6016
त	-6017
א	-6018
य	-6019
द	-6020
ु	-6021
′	-6022
中	-6023
ق	-6024
з	-6025
स	-6026
े	-6027
ω	-6028
Ś	-6029
ц	-6030
ה	-6031
ग	-6032
ं	-6033
ל	-6034
ज	-6035
प	-6036
്	-6037
Н	-6038
ز	-6039
ư	-6040
ό	-6041
ț	-6042
ш	-6043
ы	-6044
Î	-6045
ň	-6046
Í	-6047
خ	-6048
ह	-6049
θ	-6050
ー	-6051
Р	-6052
±	-6053
Σ	-6054
ो	-6055
ệ	-6056
ơ	-6057
্	-6058
→	-6059
ك	-6060
Ü	-6061
ב	-6062
נ	-6063
Г	-6064
ி	-6065
น	-6066
­	-6067
ύ	-6068
מ	-6069
ص	-6070
Κ	-6071
Д	-6072
ʿ	-6073
φ	-6074
ź	-6075
О	-6076
子	-6077
学	-6078
ṣ	-6079
ṭ	-6080
山	-6081
х	-6082
έ	-6083
ա	-6084
র	-6085
ン	-6086
§	-6087
Ż	-6088
Α	-6089
ד	-6090
க	-6091
ễ	-6092
海	-6093
田	-6094
œ	-6095
ή	-6096
ת	-6097
Þ	-6098
И	-6099
ک	-6100
Ä	-6101
ј	-6102
श	-6103
ả	-6104
¥	-6105
ม	-6106
ạ	-6107
ர	-6108
ง	-6109
ย	-6110
ṇ	-6111
‐	-6112
国	-6113
Δ	-6114
ŏ	-6115
Γ	-6116
Л	-6117
ว	-6118
Т	-6119
ब	-6120
ہ	-6121
ण	-6122
ப	-6123
ா	-6124
新	-6125
ש	-6126
ন	-6127
Λ	-6128
χ	-6129
พ	-6130
ิ	-6131
公	-6132
ů	-6133
Π	-6134
ম	-6135
天	-6136
Ú	-6137
ǎ	-6138
Ф	-6139
ж	-6140
ط	-6141
ั	-6142
เ	-6143
ル	-6144
院	-6145
ส	-6146
ა	-6147
南	-6148
學	-6149
文	-6150
ח	-6151
ע	-6152
್	-6153
ḥ	-6154
人	-6155
ˈ	-6156
Φ	-6157
ड	-6158
ட	-6159
ம	-6160
王	-6161
西	-6162
ɪ	-6163
ώ	-6164
ג	-6165
ס	-6166
য	-6167
த	-6168
ర	-6169
ท	-6170
ị	-6171
ŭ	-6172
ى	-6173
ு	-6174
安	-6175
ņ	-6176
ǔ	-6177
अ	-6178
ু	-6179
ะ	-6180
道	-6181
¡	-6182
ি	-6183
ก	-6184
小	-6185
李	-6186
ÿ	-6187
ф	-6188
ן	-6189
ष	-6190
ా	-6191
ล	-6192
ุ	-6193
ế	-6194
ス	-6195
一	-6196
北	-6197
州	-6198
Ā	-6199
Μ	-6200
ק	-6201
غ	-6202
گ	-6203
ব	-6204
ี	-6205
ồ	-6206
の	-6207
三	-6208
皇	-6209
金	-6210
高	-6211
پ	-6212
్	-6213
ต	-6214
上	-6215
이	-6216
З	-6217
פ	-6218
أ	-6219
ट	-6220
ক	-6221
ল	-6222
ി	-6223
ช	-6224
華	-6225
ŵ	-6226
ζ	-6227
ё	-6228
і	-6229
ض	-6230
স	-6231
ী	-6232
อ	-6233
่	-6234
์	-6235
ი	-6236
Ḥ	-6237
家	-6238
市	-6239
會	-6240
ǐ	-6241
Ν	-6242
ո	-6243
च	-6244
দ	-6245
ు	-6246
പ	-6247
し	-6248
会	-6249
馬	-6250
Τ	-6251
ն	-6252
ಾ	-6253
ห	-6254
ầ	-6255
₤	-6256
東	-6257
水	-6258
社	-6259
美	-6260
ť	-6261
ũ	-6262
ː	-6263
Β	-6264
Ц	-6265
آ	-6266
জ	-6267
ด	-6268
ắ	-6269
本	-6270
林	-6271
武	-6272
У	-6273
ր	-6274
भ	-6275
ू	-6276
ರ	-6277
ര	-6278
ാ	-6279
ờ	-6280
†	-6281
ラ	-6282
之	-6283
光	-6284
國	-6285
日	-6286
長	-6287
À	-6288
Ñ	-6289
ġ	-6290
Θ	-6291
হ	-6292
ന	-6293
ე	-6294
ọ	-6295
ん	-6296
京	-6297
司	-6298
和	-6299
民	-6300
白	-6301
þ	-6302
Ω	-6303
ז	-6304
ख	-6305
ய	-6306
ல	-6307
മ	-6308
‍	-6309
太	-6310
川	-6311
明	-6312
村	-6313
港	-6314
ħ	-6315
Е	-6316
ਾ	-6317
්	-6318
、	-6319
リ	-6320
口	-6321
城	-6322
平	-6323
野	-6324
Ι	-6325
ξ	-6326
ю	-6327
ِ	-6328
ত	-6329
়	-6330
ા	-6331
ి	-6332
ള	-6333
ു	-6334
ク	-6335
ト	-6336
东	-6337
法	-6338
石	-6339
神	-6340
ɔ	-6341
ט	-6342
َ	-6343
چ	-6344
़	-6345
ந	-6346
వ	-6347
บ	-6348
ố	-6349
ộ	-6350
⟨	-6351
⟩	-6352
・	-6353
元	-6354
成	-6355
星	-6356
校	-6357
部	-6358
陳	-6359
성	-6360
ŋ	-6361
ɑ	-6362
ʼ	-6363
Ε	-6364
Ο	-6365
Ш	-6366
ध	-6367
୍	-6368
క	-6369
న	-6370
ക	-6371
ട	-6372
ത	-6373
ู	-6374
ア	-6375
タ	-6376
寺	-6377
江	-6378
玉	-6379
立	-6380
花	-6381
門	-6382
香	-6383
상	-6384
ľ	-6385
Ţ	-6386
Х	-6387
ם	-6388
צ	-6389
ث	-6390
ে	-6391
ள	-6392
வ	-6393
ි	-6394
แ	-6395
ṅ	-6396
み	-6397
シ	-6398
ジ	-6399
島	-6400
教	-6401
書	-6402
有	-6403
正	-6404
生	-6405
路	-6406
黃	-6407
정	-6408
ъ	-6409
э	-6410
њ	-6411
ւ	-6412
ָ	-6413
ौ	-6414
গ	-6415
ச	-6416
ை	-6417
ం	-6418
ದ	-6419
ಿ	-6420
സ	-6421
რ	-6422
ṛ	-6423
ấ	-6424
と	-6425
イ	-6426
原	-6427
台	-6428
周	-6429
士	-6430
年	-6431
理	-6432
英	-6433
青	-6434
黄	-6435
대	-6436
Ρ	-6437
إ	-6438
थ	-6439
ਲ	-6440
ਸ	-6441
ਿ	-6442
ಕ	-6443
ป	-6444
ศ	-6445
้	-6446
ậ	-6447
ữ	-6448
か	-6449
ド	-6450
九	-6451
二	-6452
信	-6453
利	-6454
孝	-6455
愛	-6456
方	-6457
木	-6458
河	-6459
洲	-6460
良	-6461
藤	-6462
陈	-6463
雲	-6464
김	-6465
지	-6466
ĭ	-6467
ļ	-6468
ի	-6469
כ	-6470
ئ	-6471
ூ	-6472
ಲ	-6473
ല	-6474
ლ	-6475
ề	-6476
Ἀ	-6477
ῖ	-6478
ῦ	-6479
加	-6480
工	-6481
式	-6482
清	-6483
灣	-6484
行	-6485
동	-6486
주	-6487
Â	-6488
Ć	-6489
ɛ	-6490
ʃ	-6491
ʔ	-6492
̊	-6493
Η	-6494
Χ	-6495
Ж	-6496
ּ	-6497
ھ	-6498
শ	-6499
ਨ	-6500
ੋ	-6501
ર	-6502
ன	-6503
మ	-6504
ค	-6505
ไ	-6506
ํ	-6507
ნ	-6508
ḍ	-6509
ṃ	-6510
‰	-6511
う	-6512
ち	-6513
カ	-6514
モ	-6515
不	-6516
华	-6517
吳	-6518
地	-6519
堂	-6520
張	-6521
德	-6522
政	-6523
治	-6524
真	-6525
義	-6526
軍	-6527
郎	-6528
기	-6529
÷	-6530
ĕ	-6531
ų	-6532
ʾ	-6533
Ч	-6534
ե	-6535
յ	-6536
ظ	-6537
ई	-6538
उ	-6539
ো	-6540
ର	-6541
ಯ	-6542
ು	-6543
യ	-6544
വ	-6545
ල	-6546
จ	-6547
₹	-6548
∞	-6549
≈	-6550
☆	-6551
ⴰ	-6552
《	-6553
》	-6554
た	-6555
ィ	-6556
ウ	-6557
グ	-6558
ナ	-6559
主	-6560
井	-6561
仁	-6562
基	-6563
夫	-6564
徐	-6565
心	-6566
松	-6567
流	-6568
肉	-6569
龍	-6570
민	-6571
원	-6572
자	-6573
학	-6574
호	-6575
©	-6576
Ħ	-6577
ǒ	-6578
Ζ	-6579
Ј	-6580
Я	-6581
щ	-6582
կ	-6583
ַ	-6584
ء	-6585
ذ	-6586
চ	-6587
ਮ	-6588
య	-6589
ವ	-6590
න	-6591
ව	-6592
ු	-6593
ญ	-6594
ณ	-6595
โ	-6596
་	-6597
ვ	-6598
ს	-6599
ụ	-6600
ứ	-6601
√	-6602
≤	-6603
い	-6604
ズ	-6605
ッ	-6606
フ	-6607
ム	-6608
史	-6609
哈	-6610
女	-6611
孫	-6612
宮	-6613
帝	-6614
我	-6615
時	-6616
朱	-6617
株	-6618
沙	-6619
物	-6620
百	-6621
的	-6622
福	-6623
空	-6624
色	-6625
郭	-6626
限	-6627
龙	-6628
경	-6629
리	-6630
선	-6631
우	-6632
한	-6633
¢	-6634
ʊ	-6635
̈	-6636
Ξ	-6637
ψ	-6638
ђ	-6639
ִ	-6640
ँ	-6641
ळ	-6642
ै	-6643
ট	-6644
ண	-6645
డ	-6646
ద	-6647
ప	-6648
ల	-6649
శ	-6650
റ	-6651
ර	-6652
ස	-6653
ข	-6654
ธ	-6655
ภ	-6656
ẩ	-6657
ớ	-6658
♭	-6659
ⵎ	-6660
く	-6661
に	-6662
り	-6663
エ	-6664
キ	-6665
ャ	-6666
傅	-6667
八	-6668
出	-6669
力	-6670
嘉	-6671
坡	-6672
宗	-6673
富	-6674
张	-6675
族	-6676
是	-6677
業	-6678
津	-6679
洪	-6680
科	-6681
竹	-6682
第	-6683
線	-6684
角	-6685
運	-6686
都	-6687
酒	-6688
銀	-6689
集	-6690
국	-6691
박	-6692
아	-6693
어	-6694
유	-6695
윤	-6696
È	-6697
ĩ	-6698
Ř	-6699
Ț	-6700
Ю	-6701
ُ	-6702
ّ	-6703
ٹ	-6704
आ	-6705
ठ	-6706
फ	-6707
আ	-6708
প	-6709
ফ	-6710
ਰ	-6711
ସ	-6712
ற	-6713
త	-6714
స	-6715
ಟ	-6716
ತ	-6717
ಮ	-6718
ಹ	-6719
ം	-6720
ප	-6721
უ	-6722
ስ	-6723
―	-6724
‚	-6725
☠	-6726
き	-6727
こ	-6728
さ	-6729
つ	-6730
な	-6731
ゃ	-6732
コ	-6733
ニ	-6734
マ	-6735
乐	-6736
代	-6737
何	-6738
全	-6739
勇	-6740
医	-6741
后	-6742
善	-6743
四	-6744
园	-6745
官	-6746
巴	-6747
常	-6748
店	-6749
府	-6750
康	-6751
梅	-6752
洋	-6753
浩	-6754
為	-6755
督	-6756
秋	-6757
程	-6758
芳	-6759
葉	-6760
言	-6761
記	-6762
詩	-6763
通	-6764
那	-6765
阿	-6766
隆	-6767
際	-6768
雪	-6769
韓	-6770
頭	-6771
風	-6772
고	-6773
나	-6774
니	-6775
도	-6776
사	-6777
신	-6778
장	-6779
전	-6780
현	-6781
¿	-6782
Ġ	-6783
ģ	-6784
ķ	-6785
Ľ	-6786
ŷ	-6787
ƒ	-6788
Ș	-6789
ʌ	-6790
Ψ	-6791
Э	-6792
ց	-6793
ְ	-6794
ؤ	-6795
ृ	-6796
ਕ	-6797
ਜ	-6798
ੰ	-6799
લ	-6800
વ	-6801
ା	-6802
ି	-6803
ங	-6804
ழ	-6805
ெ	-6806
ಗ	-6807
ಡ	-6808
ೆ	-6809
ണ	-6810
ถ	-6811
ድ	-6812
‒	-6813
₱	-6814
』	-6815
ら	-6816
る	-6817
オ	-6818
セ	-6819
テ	-6820
デ	-6821
ノ	-6822
ロ	-6823
ワ	-6824
世	-6825
事	-6826
任	-6827
体	-6828
俊	-6829
六	-6830
军	-6831
刘	-6832
功	-6833
千	-6834
博	-6835
古	-6836
商	-6837
園	-6838
圓	-6839
土	-6840
字	-6841
定	-6842
宜	-6843
尹	-6844
岡	-6845
師	-6846
延	-6847
建	-6848
後	-6849
志	-6850
忠	-6851
慶	-6852
才	-6853
春	-6854
楊	-6855
歌	-6856
毛	-6857
氏	-6858
永	-6859
洞	-6860
渡	-6861
澤	-6862
爾	-6863
版	-6864
特	-6865
珠	-6866
瑞	-6867
盟	-6868
研	-6869
老	-6870
联	-6871
聖	-6872
臺	-6873
船	-6874
虎	-6875
街	-6876
見	-6877
許	-6878
語	-6879
超	-6880
足	-6881
車	-6882
速	-6883
醫	-6884
里	-6885
附	-6886
陽	-6887
面	-6888
館	-6889
馆	-6890
马	-6891
鴨	-6892
교	-6893
남	-6894
미	-6895
산	-6896
삼	-6897
씨	-6898
연	-6899
하	-6900
ű	-6901
ɐ	-6902
̀	-6903
̱	-6904
ΐ	-6905
Ђ	-6906
І	-6907
ї	-6908
љ	-6909
Қ	-6910
մ	-6911
ֹ	-6912
ު	-6913
इ	-6914
অ	-6915
খ	-6916
ৰ	-6917
ਆ	-6918
ਦ	-6919
ਬ	-6920
ੀ	-6921
ી	-6922
ଡ	-6923
ନ	-6924
ୁ	-6925
େ	-6926
இ	-6927
ோ	-6928
ో	-6929
ಂ	-6930
ಣ	-6931
ಸ	-6932
ജ	-6933
ശ	-6934
ീ	-6935
ග	-6936
ට	-6937
ො	-6938
ผ	-6939
າ	-6940
თ	-6941
ን	-6942
ḵ	-6943
ṯ	-6944
ằ	-6945
ặ	-6946
ỉ	-6947
ủ	-6948
ỳ	-6949
ỹ	-6950
ῆ	-6951
‡	-6952
≥	-6953
「	-6954
ゴ	-6955
チ	-6956
ブ	-6957
プ	-6958
ヨ	-6959
レ	-6960
下	-6961
丸	-6962
久	-6963
五	-6964
仔	-6965
佛	-6966
兰	-6967
共	-6968
前	-6969
劉	-6970
化	-6971
区	-6972
十	-6973
半	-6974
县	-6975
可	-6976
合	-6977
吉	-6978
名	-6979
場	-6980
多	-6981
夜	-6982
尉	-6983
尔	-6984
尚	-6985
广	-6986
広	-6987
庭	-6988
影	-6989
慧	-6990
戴	-6991
所	-6992
排	-6993
昭	-6994
景	-6995
晴	-6996
月	-6997
术	-6998
棋	-6999
火	-7000
用	-7001
發	-7002
盛	-7003
目	-7004
知	-7005
秀	-7006
究	-7007
經	-7008
群	-7009
能	-7010
自	-7011
話	-7012
语	-7013
谷	-7014
豪	-7015
輔	-7016
迪	-7017
遠	-7018
鄭	-7019
鉄	-7020
鎮	-7021
长	-7022
間	-7023
雄	-7024
雷	-7025
麥	-7026
구	-7027
드	-7028
문	-7029
보	-7030
비	-7031
수	-7032
악	-7033
의	-7034
제	-7035
종	-7036
～	-7037
Ð	-7038
Ğ	-7039
į	-7040
ȟ	-7041
̃	-7042
Ά	-7043
ϊ	-7044
Љ	-7045
ҳ	-7046
Ա	-7047
Մ	-7048
գ	-7049
թ	-7050
լ	-7051
ս	-7052
ץ	-7053
ڈ	-7054
ަ	-7055
ި	-7056
ް	-7057
ए	-7058
घ	-7059
ञ	-7060
ং	-7061
উ	-7062
ঞ	-7063
ণ	-7064
ਖ	-7065
ਵ	-7066
ੁ	-7067
ં	-7068
ે	-7069
ଦ	-7070
அ	-7071
ொ	-7072
గ	-7073
ీ	-7074
ే	-7075
ನ	-7076
ಪ	-7077
ೇ	-7078
ං	-7079
ක	-7080
ම	-7081
ซ	-7082
ื	-7083
ར	-7084
ာ	-7085
ბ	-7086
დ	-7087
მ	-7088
ხ	-7089
መ	-7090
ር	-7091
ḷ	-7092
Ṣ	-7093
ẓ	-7094
ẽ	-7095
ỗ	-7096
ợ	-7097
ἔ	-7098
ἰ	-7099
∈	-7100
ⵏ	-7101
ⵓ	-7102
〈	-7103
〉	-7104
」	-7105
『	-7106
ぬ	-7107
ま	-7108
ろ	-7109
わ	-7110
サ	-7111
ダ	-7112
バ	-7113
ボ	-7114
ュ	-7115
ョ	-7116
云	-7117
令	-7118
伯	-7119
侯	-7120
保	-7121
修	-7122
兆	-7123
克	-7124
内	-7125
再	-7126
分	-7127
剛	-7128
升	-7129
卢	-7130
卫	-7131
唐	-7132
团	-7133
圍	-7134
圖	-7135
團	-7136
塔	-7137
壽	-7138
夏	-7139
央	-7140
奇	-7141
婦	-7142
寿	-7143
將	-7144
展	-7145
峰	-7146
师	-7147
干	-7148
幸	-7149
幹	-7150
廣	-7151
形	-7152
彦	-7153
律	-7154
情	-7155
惠	-7156
戰	-7157
戲	-7158
手	-7159
放	-7160
斯	-7161
昌	-7162
智	-7163
朝	-7164
朴	-7165
杨	-7166
果	-7167
桥	-7168
梁	-7169
樹	-7170
次	-7171
沢	-7172
泉	-7173
波	-7174
泰	-7175
淡	-7176
湖	-7177
源	-7178
漢	-7179
潘	-7180
瀬	-7181
烈	-7182
熊	-7183
片	-7184
球	-7185
电	-7186
直	-7187
相	-7188
省	-7189
級	-7190
編	-7191
红	-7192
级	-7193
维	-7194
翼	-7195
者	-7196
聯	-7197
育	-7198
萬	-7199
董	-7200
蘇	-7201
術	-7202
解	-7203
諸	-7204
謝	-7205
豊	-7206
邦	-7207
錢	-7208
陸	-7209
风	-7210
黎	-7211
黨	-7212
강	-7213
범	-7214
영	-7215
은	-7216
인	-7217
파	-7218
화	-7219
회	-7220
￼	-7221
Ò	-7222
Ď	-7223
Ī	-7224
ǀ	-7225
ɒ	-7226
ɾ	-7227
ʉ	-7228
ʒ	-7229
̂	-7230
Έ	-7231
Υ	-7232
Џ	-7233
ғ	-7234
ұ	-7235
Գ	-7236
հ	-7237
վ	-7238
տ	-7239
،	-7240
ژ	-7241
ܐ	-7242
ܝ	-7243
ܢ	-7244
އ	-7245
ދ	-7246
ढ	-7247
ই	-7248
ঙ	-7249
ধ	-7250
ভ	-7251
ৱ	-7252
ખ	-7253
ન	-7254
િ	-7255
્	-7256
ଗ	-7257
ଧ	-7258
ମ	-7259
ஷ	-7260
ே	-7261
ట	-7262
ೀ	-7263
അ	-7264
ഡ	-7265
ബ	-7266
ൂ	-7267
െ	-7268
ോ	-7269
ൻ	-7270
ർ	-7271
ත	-7272
බ	-7273
ය	-7274
ษ	-7275
็	-7276
ས	-7277
ོ	-7278
က	-7279
်	-7280
გ	-7281
კ	-7282
ჭ	-7283
ላ	-7284
ራ	-7285
ት	-7286
አ	-7287
ា	-7288
Ṭ	-7289
ể	-7290
ừ	-7291
ἐ	-7292
ὐ	-7293
ῶ	-7294
‬	-7295
∴	-7296
♥	-7297
♯	-7298
ⵉ	-7299
〜	-7300
お	-7301
ぐ	-7302
じ	-7303
す	-7304
ず	-7305
は	-7306
ひ	-7307
ほ	-7308
ェ	-7309
ツ	-7310
ハ	-7311
パ	-7312
ミ	-7313
ヴ	-7314
万	-7315
丹	-7316
乙	-7317
书	-7318
交	-7319
仪	-7320
仲	-7321
伊	-7322
伍	-7323
作	-7324
使	-7325
倫	-7326
健	-7327
傳	-7328
兒	-7329
兴	-7330
典	-7331
凤	-7332
助	-7333
勒	-7334
勝	-7335
包	-7336
區	-7337
友	-7338
吴	-7339
呂	-7340
命	-7341
喜	-7342
堅	-7343
夢	-7344
夷	-7345
奈	-7346
奥	-7347
好	-7348
威	-7349
孙	-7350
孺	-7351
宇	-7352
宋	-7353
宏	-7354
宝	-7355
射	-7356
就	-7357
尾	-7358
局	-7359
屋	-7360
岐	-7361
岛	-7362
峽	-7363
崇	-7364
希	-7365
弁	-7366
弘	-7367
弟	-7368
当	-7369
彭	-7370
得	-7371
微	-7372
念	-7373
思	-7374
性	-7375
总	-7376
恒	-7377
恩	-7378
想	-7379
拳	-7380
振	-7381
支	-7382
普	-7383
晶	-7384
曾	-7385
来	-7386
柏	-7387
柱	-7388
柳	-7389
栗	-7390
桃	-7391
樂	-7392
橋	-7393
機	-7394
欣	-7395
汉	-7396
活	-7397
浪	-7398
消	-7399
灵	-7400
熟	-7401
父	-7402
琴	-7403
界	-7404
盧	-7405
祐	-7406
種	-7407
站	-7408
竜	-7409
範	-7410
米	-7411
糧	-7412
紀	-7413
纸	-7414
羅	-7415
羽	-7416
翔	-7417
耳	-7418
胡	-7419
興	-7420
航	-7421
芬	-7422
芸	-7423
若	-7424
茶	-7425
草	-7426
荣	-7427
菜	-7428
落	-7429
蓮	-7430
蔡	-7431
融	-7432
衛	-7433
襄	-7434
誠	-7435
警	-7436
變	-7437
豆	-7438
费	-7439
赤	-7440
農	-7441
邓	-7442
郡	-7443
録	-7444
鍾	-7445
鐵	-7446
雅	-7447
電	-7448
霍	-7449
霖	-7450
音	-7451
順	-7452
飛	-7453
首	-7454
駅	-7455
鬼	-7456
鳳	-7457
麗	-7458
黑	-7459
다	-7460
랑	-7461
로	-7462
면	-7463
방	-7464
법	-7465
생	-7466
석	-7467
송	-7468
스	-7469
승	-7470
에	-7471
여	-7472
예	-7473
오	-7474
운	-7475
조	-7476
중	-7477
진	-7478
촌	-7479
통	-7480
플	-7481
훈	-7482
Ã	-7483
Ì	-7484
ĉ	-7485
Ķ	-7486
Ő	-7487
Œ	-7488
ŕ	-7489
Ŭ	-7490
ǃ	-7491
ɡ	-7492
ɳ	-7493
ʹ	-7494
ˌ	-7495
̣	-7496
̧	-7497
͡	-7498
қ	-7499
ү	-7500
Ս	-7501
խ	-7502
ղ	-7503
պ	-7504
ֶ	-7505
ף	-7506
ٔ	-7507
ٰ	-7508
ٽ	-7509
ڀ	-7510
ڑ	-7511
ڪ	-7512
ۆ	-7513
ے	-7514
ܡ	-7515
މ	-7516
ފ	-7517
ङ	-7518
०	-7519
ছ	-7520
ঠ	-7521
ৌ	-7522
ਘ	-7523
ਪ	-7524
ਹ	-7525
ੇ	-7526
ੈ	-7527
ક	-7528
ગ	-7529
ચ	-7530
જ	-7531
ધ	-7532
પ	-7533
મ	-7534
ય	-7535
શ	-7536
હ	-7537
ପ	-7538
ବ	-7539
ଲ	-7540
ஸ	-7541
ீ	-7542
ణ	-7543
బ	-7544
ూ	-7545
ె	-7546
ొ	-7547
ಚ	-7548
ಬ	-7549
ಶ	-7550
ಷ	-7551
എ	-7552
ഗ	-7553
േ	-7554
ෂ	-7555
ී	-7556
ฑ	-7557
ฟ	-7558
ເ	-7559
ལ	-7560
ི	-7561
တ	-7562
မ	-7563
္	-7564
ო	-7565
ძ	-7566
ቅ	-7567
ና	-7568
ያ	-7569
្	-7570
ḇ	-7571
ḡ	-7572
ṁ	-7573
ẖ	-7574
Ọ	-7575
ở	-7576
ự	-7577
Ἰ	-7578
∀	-7579
⊃	-7580
⊕	-7581
☉	-7582
ⵍ	-7583
ⵙ	-7584
え	-7585
げ	-7586
て	-7587
び	-7588
め	-7589
も	-7590
よ	-7591
れ	-7592
を	-7593
ァ	-7594
ォ	-7595
ザ	-7596
ソ	-7597
ネ	-7598
ペ	-7599
メ	-7600
丁	-7601
丽	-7602
也	-7603
于	-7604
亞	-7605
亨	-7606
亭	-7607
今	-7608
他	-7609
以	-7610
份	-7611
伝	-7612
伴	-7613
佐	-7614
余	-7615
佩	-7616
侍	-7617
便	-7618
倭	-7619
偕	-7620
傑	-7621
先	-7622
党	-7623
农	-7624
冰	-7625
准	-7626
別	-7627
到	-7628
制	-7629
刺	-7630
动	-7631
動	-7632
務	-7633
协	-7634
協	-7635
双	-7636
发	-7637
句	-7638
叶	-7639
否	-7640
吾	-7641
告	-7642
哲	-7643
喊	-7644
喬	-7645
因	-7646
圣	-7647
场	-7648
坊	-7649
型	-7650
執	-7651
塘	-7652
塞	-7653
墩	-7654
壹	-7655
外	-7656
如	-7657
婉	-7658
孔	-7659
季	-7660
孤	-7661
孩	-7662
宁	-7663
容	-7664
寧	-7665
少	-7666
尙	-7667
尺	-7668
尼	-7669
居	-7670
属	-7671
岳	-7672
己	-7673
库	-7674
強	-7675
归	-7676
御	-7677
徽	-7678
怒	-7679
怡	-7680
恵	-7681
感	-7682
慎	-7683
懋	-7684
战	-7685
戸	-7686
房	-7687
承	-7688
技	-7689
播	-7690
攻	-7691
敏	-7692
敬	-7693
旅	-7694
昇	-7695
晋	-7696
更	-7697
杰	-7698
树	-7699
楽	-7700
標	-7701
権	-7702
気	-7703
池	-7704
浦	-7705
渤	-7706
游	-7707
準	-7708
潔	-7709
無	-7710
照	-7711
燕	-7712
爱	-7713
牧	-7714
玄	-7715
琪	-7716
甫	-7717
由	-7718
甲	-7719
男	-7720
町	-7721
異	-7722
盈	-7723
県	-7724
睿	-7725
碧	-7726
祖	-7727
祥	-7728
禄	-7729
禮	-7730
笑	-7731
簡	-7732
紅	-7733
維	-7734
縣	-7735
纪	-7736
经	-7737
网	-7738
罗	-7739
耀	-7740
股	-7741
胜	-7742
臣	-7743
茄	-7744
菲	-7745
萍	-7746
蔣	-7747
號	-7748
虹	-7749
蠻	-7750
衣	-7751
要	-7752
視	-7753
誰	-7754
话	-7755
谢	-7756
財	-7757
賈	-7758
賓	-7759
赵	-7760
起	-7761
越	-7762
趙	-7763
輪	-7764
逸	-7765
郑	-7766
酥	-7767
重	-7768
鈴	-7769
鍋	-7770
镇	-7771
阮	-7772
靖	-7773
韩	-7774
頁	-7775
領	-7776
飯	-7777
養	-7778
驻	-7779
體	-7780
魏	-7781
麻	-7782
黒	-7783
개	-7784
두	-7785
디	-7786
몽	-7787
묘	-7788
배	-7789
백	-7790
부	-7791
북	-7792
블	-7793
새	-7794
서	-7795
숙	-7796
식	-7797
업	-7798
엽	-7799
요	-7800
용	-7801
욱	-7802
재	-7803
준	-7804
찬	-7805
창	-7806
평	-7807
합	-7808
해	-7809
홍	-7810
활	-7811
희	-7812
¬	-7813
Ô	-7814
Ă	-7815
ď	-7816
Ē	-7817
ĝ	-7818
ĵ	-7819
Ť	-7820
ƛ	-7821
ǂ	-7822
ǣ	-7823
ǫ	-7824
ɖ	-7825
ɫ	-7826
ɬ	-7827
ɵ	-7828
ɿ	-7829
ʐ	-7830
ʕ	-7831
ˋ	-7832
̌	-7833
Ή	-7834
ϛ	-7835
Ѕ	-7836
Њ	-7837
Й	-7838
є	-7839
ў	-7840
џ	-7841
Ѳ	-7842
Ҷ	-7843
ә	-7844
Կ	-7845
Հ	-7846
Ն	-7847
Ռ	-7848
Վ	-7849
՚	-7850
՛	-7851
բ	-7852
դ	-7853
զ	-7854
չ	-7855
ջ	-7856
ռ	-7857
֙	-7858
ֵ	-7859
״	-7860
٠	-7861
٣	-7862
ڬ	-7863
ڻ	-7864
ە	-7865
ܕ	-7866
ܘ	-7867
ܙ	-7868
ܟ	-7869
ܠ	-7870
ܥ	-7871
ހ	-7872
ށ	-7873
ާ	-7874
ޫ	-7875
छ	-7876
झ	-7877
ॅ	-7878
এ	-7879
ও	-7880
ড	-7881
থ	-7882
ৈ	-7883
ਂ	-7884
ਅ	-7885
ਣ	-7886
ਤ	-7887
ਯ	-7888
਼	-7889
੍	-7890
ੱ	-7891
અ	-7892
આ	-7893
ણ	-7894
ત	-7895
ભ	-7896
સ	-7897
କ	-7898
ଟ	-7899
଼	-7900
ୟ	-7901
ஆ	-7902
ஜ	-7903
ஞ	-7904
అ	-7905
చ	-7906
ఛ	-7907
జ	-7908
ధ	-7909
భ	-7910
ష	-7911
ಎ	-7912
ಫ	-7913
ೂ	-7914
ೃ	-7915
ഏ	-7916
ഓ	-7917
ഞ	-7918
ധ	-7919
ഷ	-7920
ൽ	-7921
ඉ	-7922
ජ	-7923
ඩ	-7924
හ	-7925
ළ	-7926
ා	-7927
ฏ	-7928
฿	-7929
ນ	-7930
ລ	-7931
ວ	-7932
່	-7933
ག	-7934
ང	-7935
ད	-7936
ན	-7937
བ	-7938
ྲ	-7939
င	-7940
ရ	-7941
ု	-7942
း	-7943
ျ	-7944
ფ	-7945
ქ	-7946
ყ	-7947
შ	-7948
ც	-7949
ለ	-7950
ል	-7951
ሙ	-7952
ማ	-7953
ም	-7954
ሳ	-7955
ቄ	-7956
በ	-7957
ባ	-7958
ቱ	-7959
ዑ	-7960
ዕ	-7961
ዜ	-7962
ዮ	-7963
ዳ	-7964
ጋ	-7965
ᜒ	-7966
ក	-7967
ទ	-7968
ប	-7969
យ	-7970
ḗ	-7971
Ḩ	-7972
Ḫ	-7973
ṙ	-7974
Ẓ	-7975
ẫ	-7976
ẵ	-7977
ổ	-7978
ἄ	-7979
Ἑ	-7980
Ἕ	-7981
ἡ	-7982
ὁ	-7983
ὄ	-7984
ὑ	-7985
Ὑ	-7986
ὰ	-7987
‟	-7988
₩	-7989
←	-7990
↔	-7991
∼	-7992
≠	-7993
≪	-7994
⊂	-7995
⊗	-7996
⋅	-7997
◊	-7998
☃	-7999
♠	-8000
✝	-8001
❤	-8002
ⴷ	-8003
ⵔ	-8004
あ	-8005
が	-8006
け	-8007
せ	-8008
そ	-8009
ぞ	-8010
だ	-8011
っ	-8012
で	-8013
ば	-8014
ぷ	-8015
ぼ	-8016
ゅ	-8017
ゆ	-8018
ガ	-8019
ケ	-8020
ビ	-8021
ピ	-8022
ホ	-8023
ヤ	-8024
ㄧ	-8025
七	-8026
丈	-8027
与	-8028
丙	-8029
丰	-8030
乡	-8031
亚	-8032
仏	-8033
仙	-8034
企	-8035
伏	-8036
休	-8037
伦	-8038
佑	-8039
你	-8040
俄	-8041
俗	-8042
倉	-8043
假	-8044
偉	-8045
儀	-8046
儿	-8047
內	-8048
具	-8049
円	-8050
冠	-8051
冷	-8052
刀	-8053
列	-8054
初	-8055
刮	-8056
剣	-8057
副	-8058
劃	-8059
劇	-8060
务	-8061
勃	-8062
卓	-8063
单	-8064
卜	-8065
卦	-8066
卷	-8067
卿	-8068
厝	-8069
厦	-8070
及	-8071
反	-8072
叔	-8073
变	-8074
叡	-8075
右	-8076
各	-8077
向	-8078
君	-8079
呐	-8080
呼	-8081
品	-8082
啾	-8083
器	-8084
嚴	-8085
固	-8086
在	-8087
垣	-8088
域	-8089
埠	-8090
埼	-8091
報	-8092
塚	-8093
声	-8094
头	-8095
奉	-8096
奎	-8097
奕	-8098
妃	-8099
妹	-8100
始	-8101
姓	-8102
姜	-8103
姫	-8104
姬	-8105
娱	-8106
媛	-8107
嫚	-8108
嬌	-8109
孟	-8110
守	-8111
実	-8112
宣	-8113
宾	-8114
寒	-8115
寶	-8116
專	-8117
導	-8118
尖	-8119
尧	-8120
屯	-8121
屿	-8122
岁	-8123
崎	-8124
崗	-8125
嵐	-8126
嵩	-8127
嶺	-8128
左	-8129
巳	-8130
幽	-8131
庆	-8132
应	-8133
底	-8134
度	-8135
座	-8136
庫	-8137
庵	-8138
廉	-8139
强	-8140
彥	-8141
彩	-8142
彬	-8143
役	-8144
從	-8145
徳	-8146
徵	-8147
必	-8148
忍	-8149
恋	-8150
悅	-8151
惟	-8152
惡	-8153
慈	-8154
憂	-8155
憲	-8156
戏	-8157
扬	-8158
拉	-8159
拐	-8160
拿	-8161
指	-8162
揚	-8163
故	-8164
數	-8165
斌	-8166
斎	-8167
斗	-8168
斛	-8169
断	-8170
施	-8171
旗	-8172
早	-8173
旭	-8174
时	-8175
易	-8176
映	-8177
晃	-8178
晖	-8179
曆	-8180
曰	-8181
曲	-8182
曼	-8183
最	-8184
朋	-8185
朗	-8186
未	-8187
朵	-8188
机	-8189
杉	-8190
杖	-8191
杜	-8192
束	-8193
条	-8194
杭	-8195
极	-8196
根	-8197
案	-8198
梦	-8199
森	-8200
極	-8201
榎	-8202
樑	-8203
横	-8204
橫	-8205
欲	-8206
歐	-8207
死	-8208
段	-8209
殺	-8210
母	-8211
氹	-8212
汁	-8213
汪	-8214
沈	-8215
沐	-8216
沔	-8217
沖	-8218
沫	-8219
沸	-8220
油	-8221
泥	-8222
洛	-8223
派	-8224
浅	-8225
济	-8226
浙	-8227
浜	-8228
涵	-8229
淋	-8230
淑	-8231
渭	-8232
湯	-8233
湾	-8234
満	-8235
溪	-8236
滨	-8237
漠	-8238
漫	-8239
潤	-8240
潮	-8241
濃	-8242
濠	-8243
灶	-8244
然	-8245
熙	-8246
熱	-8247
營	-8248
爆	-8249
爸	-8250
牌	-8251
独	-8252
猿	-8253
獄	-8254
獎	-8255
环	-8256
玲	-8257
珍	-8258
珩	-8259
班	-8260
瑪	-8261
瑶	-8262
璜	-8263
環	-8264
瓜	-8265
瓦	-8266
甘	-8267
画	-8268
畑	-8269
留	-8270
畫	-8271
皓	-8272
益	-8273
盤	-8274
眉	-8275
看	-8276
破	-8277
碼	-8278
祝	-8279
祭	-8280
禅	-8281
禪	-8282
秉	-8283
秘	-8284
穆	-8285
窟	-8286
窯	-8287
章	-8288
端	-8289
笠	-8290
符	-8291
等	-8292
筍	-8293
算	-8294
節	-8295
粉	-8296
精	-8297
系	-8298
紐	-8299
組	-8300
結	-8301
統	-8302
縄	-8303
總	-8304
纯	-8305
纳	-8306
线	-8307
置	-8308
署	-8309
罷	-8310
聲	-8311
聶	-8312
肥	-8313
肴	-8314
脚	-8315
腐	-8316
臨	-8317
至	-8318
舊	-8319
舞	-8320
般	-8321
艷	-8322
芝	-8323
芦	-8324
茂	-8325
范	-8326
荀	-8327
荷	-8328
莱	-8329
菅	-8330
菊	-8331
萊	-8332
著	-8333
葛	-8334
蒙	-8335
蒲	-8336
蓋	-8337
蕭	-8338
藍	-8339
藏	-8340
蘭	-8341
蛔	-8342
蝦	-8343
蝶	-8344
表	-8345
袁	-8346
被	-8347
裕	-8348
親	-8349
觀	-8350
訓	-8351
訣	-8352
認	-8353
談	-8354
證	-8355
譜	-8356
議	-8357
让	-8358
访	-8359
调	-8360
谱	-8361
谶	-8362
象	-8363
豬	-8364
貞	-8365
貨	-8366
買	-8367
贝	-8368
赛	-8369
走	-8370
身	-8371
載	-8372
輝	-8373
輿	-8374
轨	-8375
辭	-8376
达	-8377
连	-8378
迷	-8379
送	-8380
造	-8381
連	-8382
進	-8383
遂	-8384
遊	-8385
達	-8386
選	-8387
邑	-8388
邱	-8389
鄧	-8390
鄯	-8391
配	-8392
采	-8393
銘	-8394
鏞	-8395
鐡	-8396
钰	-8397
開	-8398
閣	-8399
闇	-8400
闻	-8401
队	-8402
际	-8403
陣	-8404
陶	-8405
隊	-8406
隧	-8407
雕	-8408
難	-8409
雨	-8410
霄	-8411
震	-8412
霞	-8413
露	-8414
静	-8415
靜	-8416
革	-8417
韶	-8418
韻	-8419
顶	-8420
飞	-8421
骨	-8422
魂	-8423
魔	-8424
魯	-8425
鲍	-8426
鲲	-8427
鳥	-8428
鳴	-8429
鵝	-8430
鸡	-8431
鸿	-8432
鹏	-8433
鹿	-8434
麟	-8435
麵	-8436
鼎	-8437
齊	-8438
검	-8439
계	-8440
권	-8441
귀	-8442
길	-8443
는	-8444
당	-8445
데	-8446
라	-8447
랙	-8448
레	-8449
려	-8450
록	-8451
롱	-8452
류	-8453
를	-8454
립	-8455
마	-8456
맨	-8457
먹	-8458
명	-8459
무	-8460
물	-8461
벳	-8462
변	-8463
빼	-8464
소	-8465
시	-8466
실	-8467
안	-8468
알	-8469
애	-8470
양	-8471
엘	-8472
울	-8473
월	-8474
음	-8475
일	-8476
임	-8477
집	-8478
천	-8479
청	-8480
초	-8481
컵	-8482
케	-8483
크	-8484
타	-8485
탄	-8486
태	-8487
터	-8488
토	-8489
티	-8490
폴	-8491
행	-8492
향	-8493
허	-8494
협	-8495
환	-8496
황	-8497
흥	-8498
	-8499
	-8500
😁	-8501
¦	-8502
Ê	-8503
Ï	-8504
Õ	-8505
Ý	-8506
Ą	-8507
Ċ	-8508
ċ	-8509
Ė	-8510
Ě	-8511
Į	-8512
Ū	-8513
Ů	-8514
Ɔ	-8515
Ƶ	-8516
ƿ	-8517
ǁ	-8518
Ǐ	-8519
ǚ	-8520
ǜ	-8521
ǧ	-8522
Ǯ	-8523
ǯ	-8524
ǽ	-8525
ɓ	-8526
ɕ	-8527
ɘ	-8528
ɝ	-8529
ɤ	-8530
ɦ	-8531
ɹ	-8532
ʀ	-8533
ʁ	-8534
ʂ	-8535
ʄ	-8536
ʈ	-8537
ʋ	-8538
ʤ	-8539
ʧ	-8540
ˁ	-8541
˂	-8542
˃	-8543
ˇ	-8544
̄	-8545
̍	-8546
̓	-8547
̪	-8548
̲	-8549
Ί	-8550
Ό	-8551
ΰ	-8552
ϗ	-8553
Ϙ	-8554
ϙ	-8555
Ϟ	-8556
ϟ	-8557
Ѓ	-8558
Є	-8559
Ў	-8560
Ъ	-8561
ѓ	-8562
ќ	-8563
Ѣ	-8564
ґ	-8565
Ғ	-8566
ҡ	-8567
Ҧ	-8568
ҫ	-8569
Ҭ	-8570
ҷ	-8571
ӏ	-8572
ӕ	-8573
ӧ	-8574
Ө	-8575
Բ	-8576
Ի	-8577
Ղ	-8578
Տ	-8579
Փ	-8580
Օ	-8581
է	-8582
ը	-8583
ծ	-8584
ձ	-8585
ճ	-8586
շ	-8587
ք	-8588
օ	-8589
֔	-8590
ֱ	-8591
ׁ	-8592
ך	-8593
ـ	-8594
ْ	-8595
٢	-8596
ڊ	-8597
ڌ	-8598
ږ	-8599
ښ	-8600
ڤ	-8601
ڴ	-8602
ڵ	-8603
ں	-8604
ڼ	-8605
ۃ	-8606
ۻ	-8607
ܒ	-8608
ܪ	-8609
ܫ	-8610
ܲ	-8611
ܵ	-8612
ܹ	-8613
ܼ	-8614
ܿ	-8615
ނ	-8616
ރ	-8617
ބ	-8618
ޅ	-8619
ކ	-8620
ތ	-8621
ގ	-8622
ސ	-8623
ޝ	-8624
ީ	-8625
ޭ	-8626
ऊ	-8627
ऐ	-8628
ऑ	-8629
ओ	-8630
ऱ	-8631
ऴ	-8632
ॉ	-8633
॓	-8634
।	-8635
१	-8636
२	-8637
४	-8638
६	-8639
ঁ	-8640
ষ	-8641
ূ	-8642
ৃ	-8643
ਗ	-8644
ਚ	-8645
ਛ	-8646
ਟ	-8647
ਡ	-8648
ੂ	-8649
ઉ	-8650
ઘ	-8651
છ	-8652
ટ	-8653
ઠ	-8654
ડ	-8655
દ	-8656
ુ	-8657
ો	-8658
ૌ	-8659
ଂ	-8660
ଅ	-8661
ଆ	-8662
ଉ	-8663
ଓ	-8664
ଙ	-8665
ଚ	-8666
ଜ	-8667
ଝ	-8668
ଫ	-8669
ଭ	-8670
ଳ	-8671
ଶ	-8672
ହ	-8673
ୀ	-8674
ୋ	-8675
ୌ	-8676
உ	-8677
ஐ	-8678
ஓ	-8679
ః	-8680
ఉ	-8681
ఖ	-8682
ఘ	-8683
ఞ	-8684
థ	-8685
ళ	-8686
హ	-8687
ಉ	-8688
ಓ	-8689
ಘ	-8690
ಥ	-8691
ಭ	-8692
ಳ	-8693
ೈ	-8694
ೊ	-8695
ೋ	-8696
ೌ	-8697
ആ	-8698
ഉ	-8699
ച	-8700
ഫ	-8701
ഴ	-8702
ഹ	-8703
ൃ	-8704
ൈ	-8705
ൊ	-8706
ൾ	-8707
අ	-8708
ණ	-8709
ද	-8710
ධ	-8711
ශ	-8712
ේ	-8713
ෝ	-8714
ฆ	-8715
ฉ	-8716
ฐ	-8717
ฬ	-8718
ฮ	-8719
ึ	-8720
ใ	-8721
๋	-8722
ກ	-8723
ຂ	-8724
ຄ	-8725
ງ	-8726
ຈ	-8727
ຍ	-8728
ຕ	-8729
ທ	-8730
ບ	-8731
ມ	-8732
ສ	-8733
ົ	-8734
ແ	-8735
ໂ	-8736
້	-8737
ໍ	-8738
ཀ	-8739
ཅ	-8740
ཕ	-8741
མ	-8742
ེ	-8743
ྒ	-8744
ྗ	-8745
ྡ	-8746
ྫ	-8747
ྱ	-8748
ခ	-8749
ဆ	-8750
ည	-8751
ဒ	-8752
ဓ	-8753
န	-8754
ဖ	-8755
ဘ	-8756
ယ	-8757
လ	-8758
သ	-8759
ဥ	-8760
ူ	-8761
ေ	-8762
ံ	-8763
ှ	-8764
ၾ	-8765
პ	-8766
ჟ	-8767
ტ	-8768
ჩ	-8769
წ	-8770
ჯ	-8771
ჳ	-8772
ሁ	-8773
ሃ	-8774
ሊ	-8775
ሓ	-8776
ሕ	-8777
ሞ	-8778
ረ	-8779
ሪ	-8780
ሰ	-8781
ሱ	-8782
ሲ	-8783
ሶ	-8784
ሸ	-8785
ሻ	-8786
ሽ	-8787
ቂ	-8788
ቆ	-8789
ቢ	-8790
ተ	-8791
ታ	-8792
ነ	-8793
ኔ	-8794
ኢ	-8795
ኣ	-8796
ኤ	-8797
ኩ	-8798
ዊ	-8799
ዋ	-8800
ው	-8801
ዓ	-8802
ዝ	-8803
የ	-8804
ዩ	-8805
ዱ	-8806
ጉ	-8807
ጌ	-8808
ግ	-8809
ጥ	-8810
ጵ	-8811
ፅ	-8812
ፍ	-8813
፡	-8814
ᑌ	-8815
ᑎ	-8816
ᓑ	-8817
ᔕ	-8818
ᗪ	-8819
ᘔ	-8820
ᙇ	-8821
ᚂ	-8822
ᚼ	-8823
ᜆ	-8824
ᜈ	-8825
ᜉ	-8826
ᜐ	-8827
គ	-8828
ថ	-8829
ម	-8830
រ	-8831
វ	-8832
ស	-8833
អ	-8834
ុ	-8835
ែ	-8836
Ḍ	-8837
ḏ	-8838
ḣ	-8839
ḩ	-8840
Ḳ	-8841
ḳ	-8842
Ḵ	-8843
Ṅ	-8844
ṉ	-8845
Ấ	-8846
Ẹ	-8847
ẹ	-8848
Ẽ	-8849
Ế	-8850
ỏ	-8851
Ứ	-8852
ἀ	-8853
Ἁ	-8854
ἢ	-8855
Ἠ	-8856
ἱ	-8857
ἴ	-8858
ἵ	-8859
ὀ	-8860
Ὀ	-8861
ὒ	-8862
Ὠ	-8863
ὴ	-8864
ὶ	-8865
ὸ	-8866
ᾰ	-8867
ᾶ	-8868
ῇ	-8869
Ῥ	-8870
ῳ	-8871
‪	-8872
‿	-8873
⁂	-8874
₢	-8875
₦	-8876
₫	-8877
℮	-8878
ↆ	-8879
↵	-8880
⇒	-8881
∃	-8882
∇	-8883
∉	-8884
∑	-8885
∗	-8886
∝	-8887
∧	-8888
∨	-8889
∩	-8890
∫	-8891
∵	-8892
≃	-8893
⊆	-8894
⊥	-8895
⏃	-8896
␢	-8897
─	-8898
┼	-8899
☨	-8900
☭	-8901
♎	-8902
♙	-8903
♟	-8904
♪	-8905
✸	-8906
✻	-8907
⠔	-8908
⠖	-8909
⨁	-8910
Ⰲ	-8911
Ⱁ	-8912
Ⱇ	-8913
ⴱ	-8914
ⴳ	-8915
ⴼ	-8916
ⵄ	-8917
ⵖ	-8918
ⵟ	-8919
ぃ	-8920
ぎ	-8921
ご	-8922
づ	-8923
ど	-8924
ね	-8925
ふ	-8926
ぶ	-8927
ぽ	-8928
む	-8929
や	-8930
ょ	-8931
ギ	-8932
ゲ	-8933
ゼ	-8934
ゾ	-8935
ヅ	-8936
ユ	-8937
ヷ	-8938
ㄊ	-8939
ㄗ	-8940
ㇱ	-8941
且	-8942
丘	-8943
业	-8944
为	-8945
丼	-8946
乃	-8947
了	-8948
互	-8949
些	-8950
亜	-8951
亥	-8952
亮	-8953
亲	-8954
仍	-8955
从	-8956
仑	-8957
付	-8958
们	-8959
仿	-8960
优	-8961
传	-8962
伶	-8963
伸	-8964
似	-8965
但	-8966
低	-8967
佳	-8968
佻	-8969
侔	-8970
依	-8971
促	-8972
俱	-8973
候	-8974
倩	-8975
倬	-8976
偓	-8977
做	-8978
偲	-8979
傘	-8980
備	-8981
傩	-8982
傲	-8983
僕	-8984
儉	-8985
優	-8986
儺	-8987
兀	-8988
充	-8989
免	-8990
児	-8991
兜	-8992
入	-8993
关	-8994
兵	-8995
其	-8996
兼	-8997
冀	-8998
冉	-8999
冥	-9000
冲	-9001
决	-9002
况	-9003
凉	-9004
凌	-9005
凪	-9006
凯	-9007
凰	-9008
凱	-9009
凸	-9010
刃	-9011
切	-9012
刊	-9013
划	-9014
创	-9015
别	-9016
刷	-9017
券	-9018
刹	-9019
則	-9020
剡	-9021
剧	-9022
割	-9023
創	-9024
劳	-9025
勉	-9026
勢	-9027
勤	-9028
勳	-9029
勸	-9030
匙	-9031
匡	-9032
匯	-9033
卒	-9034
単	-9035
卞	-9036
占	-9037
卡	-9038
卯	-9039
印	-9040
即	-9041
卻	-9042
厂	-9043
厘	-9044
厲	-9045
厳	-9046
去	-9047
又	-9048
取	-9049
受	-9050
叟	-9051
只	-9052
号	-9053
同	-9054
吐	-9055
吔	-9056
吡	-9057
吧	-9058
吹	-9059
呉	-9060
味	-9061
咀	-9062
咒	-9063
咖	-9064
咬	-9065
咸	-9066
哉	-9067
員	-9068
哥	-9069
哨	-9070
唱	-9071
啓	-9072
啟	-9073
啶	-9074
営	-9075
嗣	-9076
嘜	-9077
回	-9078
団	-9079
圃	-9080
圆	-9081
圧	-9082
圭	-9083
址	-9084
坂	-9085
均	-9086
坐	-9087
坝	-9088
坤	-9089
坪	-9090
埔	-9091
培	-9092
堤	-9093
堵	-9094
塀	-9095
塢	-9096
塩	-9097
塱	-9098
境	-9099
増	-9100
墘	-9101
墙	-9102
壇	-9103
壟	-9104
壮	-9105
夕	-9106
夙	-9107
失	-9108
奔	-9109
套	-9110
妍	-9111
妖	-9112
妟	-9113
妮	-9114
妲	-9115
妻	-9116
姉	-9117
姿	-9118
娄	-9119
娘	-9120
娜	-9121
娥	-9122
婚	-9123
嫻	-9124
嬴	-9125
孖	-9126
孚	-9127
孛	-9128
宙	-9129
客	-9130
室	-9131
宪	-9132
宫	-9133
宰	-9134
寄	-9135
密	-9136
寇	-9137
察	-9138
寨	-9139
寬	-9140
寻	-9141
対	-9142
専	-9143
尊	-9144
层	-9145
屏	-9146
履	-9147
屬	-9148
岗	-9149
岚	-9150
岩	-9151
岭	-9152
岸	-9153
峯	-9154
崑	-9155
崔	-9156
崙	-9157
嵬	-9158
巡	-9159
巧	-9160
巨	-9161
巪	-9162
已	-9163
巷	-9164
巻	-9165
布	-9166
帆	-9167
帘	-9168
帥	-9169
带	-9170
帰	-9171
帳	-9172
幡	-9173
幻	-9174
幼	-9175
庄	-9176
床	-9177
序	-9178
庚	-9179
廃	-9180
廟	-9181
廢	-9182
廻	-9183
开	-9184
异	-9185
弐	-9186
弓	-9187
引	-9188
弥	-9189
弦	-9190
彌	-9191
彎	-9192
录	-9193
彪	-9194
彰	-9195
彼	-9196
征	-9197
徒	-9198
復	-9199
快	-9200
怀	-9201
怪	-9202
恪	-9203
恭	-9204
息	-9205
悦	-9206
悪	-9207
惇	-9208
惕	-9209
惣	-9210
惲	-9211
愉	-9212
愷	-9213
愿	-9214
慬	-9215
應	-9216
懐	-9217
懷	-9218
戀	-9219
戊	-9220
戌	-9221
戒	-9222
戟	-9223
戦	-9224
戯	-9225
扁	-9226
打	-9227
托	-9228
找	-9229
投	-9230
折	-9231
报	-9232
抹	-9233
押	-9234
抽	-9235
拒	-9236
拓	-9237
拝	-9238
持	-9239
按	-9240
捲	-9241
捻	-9242
掃	-9243
授	-9244
掌	-9245
掞	-9246
控	-9247
揆	-9248
握	-9249
揮	-9250
援	-9251
摩	-9252
撤	-9253
撲	-9254
擁	-9255
擂	-9256
操	-9257
攝	-9258
攣	-9259
收	-9260
攸	-9261
改	-9262
效	-9263
敕	-9264
敖	-9265
敞	-9266
散	-9267
整	-9268
斋	-9269
料	-9270
於	-9271
旨	-9272
旻	-9273
昕	-9274
晏	-9275
晓	-9276
晗	-9277
晚	-9278
晟	-9279
暁	-9280
暹	-9281
曉	-9282
曜	-9283
曹	-9284
服	-9285
望	-9286
期	-9287
札	-9288
朮	-9289
权	-9290
杏	-9291
材	-9292
杷	-9293
杼	-9294
板	-9295
枇	-9296
析	-9297
柔	-9298
查	-9299
柴	-9300
柿	-9301
标	-9302
栢	-9303
核	-9304
格	-9305
桂	-9306
桐	-9307
桑	-9308
桜	-9309
桶	-9310
梨	-9311
棒	-9312
棣	-9313
椒	-9314
椿	-9315
楞	-9316
楼	-9317
榕	-9318
榜	-9319
榮	-9320
槍	-9321
様	-9322
槻	-9323
樊	-9324
檜	-9325
檢	-9326
櫟	-9327
權	-9328
欽	-9329
歆	-9330
止	-9331
步	-9332
歸	-9333
殷	-9334
毁	-9335
毅	-9336
毎	-9337
毓	-9338
比	-9339
气	-9340
氣	-9341
汀	-9342
求	-9343
汐	-9344
汝	-9345
污	-9346
汤	-9347
決	-9348
沉	-9349
沼	-9350
泊	-9351
泗	-9352
泛	-9353
洗	-9354
浐	-9355
浮	-9356
浸	-9357
润	-9358
涯	-9359
涼	-9360
淄	-9361
淮	-9362
深	-9363
淵	-9364
淸	-9365
淼	-9366
渍	-9367
湘	-9368
溫	-9369
滕	-9370
滿	-9371
潁	-9372
潜	-9373
潭	-9374
澎	-9375
澗	-9376
澧	-9377
澳	-9378
激	-9379
濟	-9380
濡	-9381
瀚	-9382
灞	-9383
炒	-9384
炭	-9385
炳	-9386
炸	-9387
点	-9388
烏	-9389
烧	-9390
热	-9391
焚	-9392
焦	-9393
焱	-9394
煌	-9395
煎	-9396
煒	-9397
煤	-9398
燈	-9399
燎	-9400
燒	-9401
爪	-9402
爭	-9403
爵	-9404
爺	-9405
牆	-9406
牛	-9407
牡	-9408
狄	-9409
狮	-9410
猪	-9411
猫	-9412
猷	-9413
獨	-9414
獲	-9415
獻	-9416
玠	-9417
珊	-9418
珪	-9419
現	-9420
琛	-9421
瑋	-9422
瑜	-9423
瑩	-9424
瑱	-9425
璇	-9426
璈	-9427
璋	-9428
璘	-9429
璧	-9430
瓶	-9431
甄	-9432
甜	-9433
產	-9434
申	-9435
當	-9436
疆	-9437
疊	-9438
病	-9439
症	-9440
痙	-9441
瘦	-9442
登	-9443
皆	-9444
皮	-9445
盖	-9446
盗	-9447
監	-9448
盾	-9449
眼	-9450
着	-9451
矣	-9452
码	-9453
砂	-9454
砕	-9455
碑	-9456
碩	-9457
磊	-9458
磐	-9459
磕	-9460
磨	-9461
礁	-9462
示	-9463
礼	-9464
祜	-9465
祠	-9466
祿	-9467
禍	-9468
禧	-9469
禹	-9470
禾	-9471
秦	-9472
秧	-9473
秩	-9474
秭	-9475
积	-9476
税	-9477
稚	-9478
稲	-9479
稽	-9480
窈	-9481
窗	-9482
窝	-9483
窦	-9484
竇	-9485
笔	-9486
笛	-9487
笹	-9488
筋	-9489
策	-9490
筠	-9491
简	-9492
箇	-9493
管	-9494
箭	-9495
簪	-9496
簿	-9497
籠	-9498
粟	-9499
紂	-9500
約	-9501
紋	-9502
納	-9503
純	-9504
紡	-9505
経	-9506
絕	-9507
給	-9508
絳	-9509
綠	-9510
網	-9511
綸	-9512
綾	-9513
綿	-9514
緄	-9515
総	-9516
縦	-9517
縱	-9518
績	-9519
繁	-9520
織	-9521
繼	-9522
纜	-9523
纬	-9524
纵	-9525
纶	-9526
纽	-9527
组	-9528
绍	-9529
络	-9530
统	-9531
绿	-9532
缗	-9533
罰	-9534
羲	-9535
翁	-9536
習	-9537
翰	-9538
考	-9539
而	-9540
耐	-9541
耶	-9542
耿	-9543
聂	-9544
聞	-9545
聡	-9546
聴	-9547
職	-9548
聽	-9549
肃	-9550
肇	-9551
肝	-9552
背	-9553
胎	-9554
胤	-9555
胸	-9556
脂	-9557
脷	-9558
腺	-9559
腾	-9560
膊	-9561
膺	-9562
膽	-9563
臂	-9564
致	-9565
與	-9566
舍	-9567
舎	-9568
舒	-9569
舘	-9570
舺	-9571
艋	-9572
艾	-9573
芈	-9574
芎	-9575
芙	-9576
芹	-9577
苗	-9578
茅	-9579
茹	-9580
荊	-9581
荒	-9582
莎	-9583
莞	-9584
莫	-9585
莲	-9586
菩	-9587
菱	-9588
萄	-9589
萧	-9590
萩	-9591
萱	-9592
葡	-9593
蒋	-9594
蒼	-9595
蓄	-9596
蓉	-9597
蓥	-9598
蔵	-9599
蕃	-9600
蕴	-9601
薇	-9602
薩	-9603
藩	-9604
藪	-9605
虏	-9606
處	-9607
虚	-9608
蚁	-9609
蚌	-9610
蛇	-9611
蛉	-9612
蛮	-9613
蜂	-9614
蜻	-9615
蝙	-9616
蝠	-9617
蝴	-9618
螺	-9619
蟠	-9620
蟹	-9621
蠶	-9622
血	-9623
衡	-9624
衢	-9625
袭	-9626
袴	-9627
裁	-9628
補	-9629
裳	-9630
裴	-9631
製	-9632
褌	-9633
褙	-9634
覧	-9635
観	-9636
见	-9637
計	-9638
設	-9639
証	-9640
訾	-9641
詒	-9642
詔	-9643
詞	-9644
詡	-9645
誨	-9646
說	-9647
誼	-9648
調	-9649
論	-9650
諝	-9651
謎	-9652
謙	-9653
謡	-9654
護	-9655
讀	-9656
讓	-9657
计	-9658
讯	-9659
记	-9660
许	-9661
设	-9662
试	-9663
诗	-9664
诚	-9665
请	-9666
诺	-9667
谊	-9668
谦	-9669
豐	-9670
貴	-9671
費	-9672
貿	-9673
賀	-9674
資	-9675
賊	-9676
賜	-9677
賞	-9678
賢	-9679
賣	-9680
質	-9681
賴	-9682
賽	-9683
贓	-9684
质	-9685
贵	-9686
赖	-9687
赢	-9688
赫	-9689
趣	-9690
距	-9691
蹴	-9692
軸	-9693
軽	-9694
輕	-9695
轎	-9696
车	-9697
软	-9698
轻	-9699
辛	-9700
辯	-9701
辰	-9702
辽	-9703
近	-9704
这	-9705
进	-9706
迦	-9707
迫	-9708
迭	-9709
迹	-9710
逼	-9711
遐	-9712
遗	-9713
遜	-9714
遥	-9715
遮	-9716
遷	-9717
遼	-9718
邊	-9719
邯	-9720
邳	-9721
邵	-9722
郄	-9723
郝	-9724
鄉	-9725
鄒	-9726
鄲	-9727
鄺	-9728
酣	-9729
酪	-9730
釈	-9731
量	-9732
釜	-9733
鈺	-9734
鉉	-9735
鉞	-9736
鉤	-9737
鉴	-9738
鉶	-9739
銅	-9740
鋒	-9741
錄	-9742
錦	-9743
錬	-9744
錯	-9745
鎌	-9746
鎕	-9747
鎬	-9748
鏊	-9749
鏚	-9750
鏡	-9751
鐘	-9752
鐸	-9753
钟	-9754
钦	-9755
钧	-9756
钮	-9757
铁	-9758
锋	-9759
锡	-9760
閩	-9761
闕	-9762
闘	-9763
门	-9764
闯	-9765
闳	-9766
闵	-9767
闽	-9768
阁	-9769
阪	-9770
防	-9771
阳	-9772
陀	-9773
陆	-9774
陕	-9775
陞	-9776
陰	-9777
陵	-9778
隋	-9779
階	-9780
隱	-9781
隻	-9782
離	-9783
零	-9784
需	-9785
霆	-9786
霧	-9787
霸	-9788
霹	-9789
靂	-9790
靈	-9791
靚	-9792
非	-9793
韵	-9794
頂	-9795
須	-9796
頒	-9797
頸	-9798
頻	-9799
頼	-9800
題	-9801
顏	-9802
願	-9803
顯	-9804
项	-9805
顾	-9806
领	-9807
食	-9808
餃	-9809
餘	-9810
馮	-9811
馴	-9812
駒	-9813
駕	-9814
駿	-9815
騎	-9816
騰	-9817
驃	-9818
驊	-9819
驍	-9820
驟	-9821
骅	-9822
骆	-9823
骰	-9824
髯	-9825
鬆	-9826
鬪	-9827
鱼	-9828
鲤	-9829
鳄	-9830
鴉	-9831
鵬	-9832
鶴	-9833
麒	-9834
麦	-9835
麴	-9836
黙	-9837
點	-9838
黻	-9839
鼓	-9840
齋	-9841
齐	-9842
龘	-9843
龢	-9844
Ꜣ	-9845
ꜣ	-9846
가	-9847
감	-9848
갱	-9849
거	-9850
곡	-9851
곤	-9852
공	-9853
곽	-9854
관	-9855
광	-9856
굴	-9857
궁	-9858
그	-9859
꺽	-9860
끼	-9861
내	-9862
너	-9863
녀	-9864
년	-9865
노	-9866
놈	-9867
눈	-9868
능	-9869
닛	-9870
단	-9871
더	-9872
덕	-9873
독	-9874
돌	-9875
됐	-9876
들	-9877
등	-9878
따	-9879
때	-9880
뜨	-9881
래	-9882
랜	-9883
랩	-9884
렙	-9885
렬	-9886
루	-9887
름	-9888
릉	-9889
릭	-9890
린	-9891
림	-9892
링	-9893
만	-9894
말	-9895
메	-9896
멜	-9897
모	-9898
뱀	-9899
버	-9900
베	-9901
벨	-9902
본	-9903
봉	-9904
불	-9905
붉	-9906
뷰	-9907
빗	-9908
빙	-9909
빠	-9910
뽕	-9911
설	-9912
세	-9913
셀	-9914
션	-9915
속	-9916
순	-9917
슈	-9918
슨	-9919
슴	-9920
습	-9921
싶	-9922
앙	-9923
앨	-9924
억	-9925
언	-9926
엑	-9927
엿	-9928
왜	-9929
움	-9930
워	-9931
위	-9932
으	-9933
읍	-9934
응	-9935
익	-9936
입	-9937
있	-9938
작	-9939
잠	-9940
잭	-9941
쟁	-9942
좌	-9943
즈	-9944
직	-9945
짬	-9946
차	-9947
체	-9948
최	-9949
축	-9950
춘	-9951
출	-9952
치	-9953
칠	-9954
카	-9955
커	-9956
코	-9957
쾌	-9958
퀸	-9959
큰	-9960
탐	-9961
탕	-9962
테	-9963
투	-9964
트	-9965
튼	-9966
팝	-9967
퍼	-9968
펫	-9969
폐	-9970
푸	-9971
품	-9972
프	-9973
피	-9974
픽	-9975
핑	-9976
할	-9977
함	-9978
험	-9979
형	-9980
홀	-9981
효	-9982
훼	-9983
히	-9984
𐎄	-9985
𐎅	-9986
𐎆	-9987
𐎹	-9988
𒀸	-9989
𒁺	-9990
𒋗	-9991
🌐	-9992
🍗	-9993
👆	-9994
💔	-9995
